{
  "version": "1.0",
  "truncation": null,
  "padding": null,
  "added_tokens": [
    {
      "id": 0,
      "content": "[PAD]",
      "single_word": false,
      "lstrip": false,
      "rstrip": false,
      "normalized": false,
      "special": true
    },
    {
      "id": 1,
      "content": "[UNK]",
      "single_word": false,
      "lstrip": false,
      "rstrip": false,
      "normalized": false,
      "special": true
    },
    {
      "id": 2,
      "content": "[CLS]",
      "single_word": false,
      "lstrip": false,
      "rstrip": false,
      "normalized": false,
      "special": true
    },
    {
      "id": 3,
      "content": "[SEP]",
      "single_word": false,
      "lstrip": false,
      "rstrip": false,
      "normalized": false,
      "special": true
    },
    {
      "id": 4,
      "content": "[MASK]",
      "single_word": false,
      "lstrip": false,
      "rstrip": false,
      "normalized": false,
      "special": true
    }
  ],
  "normalizer": null,
  "pre_tokenizer": {
    "type": "Whitespace"
  },
  "post_processor": null,
  "decoder": null,
  "model": {
    "type": "WordPiece",
    "unk_token": "[UNK]",
    "continuing_subword_prefix": "##",
    "max_input_chars_per_word": 100,
    "vocab": {
      "[PAD]": 0,
      "[UNK]": 1,
      "[CLS]": 2,
      "[SEP]": 3,
      "[MASK]": 4,
      "!": 5,
      "(": 6,
      ")": 7,
      ",": 8,
      "-": 9,
      ".": 10,
      "0": 11,
      "1": 12,
      "2": 13,
      "3": 14,
      "4": 15,
      "5": 16,
      "6": 17,
      "7": 18,
      "8": 19,
      "9": 20,
      "A": 21,
      "B": 22,
      "C": 23,
      "D": 24,
      "E": 25,
      "F": 26,
      "G": 27,
      "H": 28,
      "I": 29,
      "J": 30,
      "K": 31,
      "L": 32,
      "M": 33,
      "N": 34,
      "O": 35,
      "P": 36,
      "Q": 37,
      "R": 38,
      "S": 39,
      "T": 40,
      "U": 41,
      "V": 42,
      "W": 43,
      "X": 44,
      "Y": 45,
      "Z": 46,
      "_": 47,
      "a": 48,
      "b": 49,
      "c": 50,
      "d": 51,
      "e": 52,
      "f": 53,
      "g": 54,
      "h": 55,
      "i": 56,
      "j": 57,
      "k": 58,
      "l": 59,
      "m": 60,
      "n": 61,
      "o": 62,
      "p": 63,
      "q": 64,
      "r": 65,
      "s": 66,
      "t": 67,
      "u": 68,
      "v": 69,
      "w": 70,
      "x": 71,
      "y": 72,
      "z": 73,
      "##n": 74,
      "##s": 75,
      "##a": 76,
      "##t": 77,
      "##i": 78,
      "##f": 79,
      "##c": 80,
      "##o": 81,
      "##r": 82,
      "##y": 83,
      "##g": 84,
      "##z": 85,
      "##m": 86,
      "##p": 87,
      "##e": 88,
      "##x": 89,
      "##q": 90,
      "##u": 91,
      "##w": 92,
      "##d": 93,
      "##k": 94,
      "##h": 95,
      "##l": 96,
      "##v": 97,
      "##M": 98,
      "##3": 99,
      "##6": 100,
      "##9": 101,
      "##b": 102,
      "##4": 103,
      "##1": 104,
      "##5": 105,
      "##0": 106,
      "##H": 107,
      "##2": 108,
      "##I": 109,
      "##R": 110,
      "##E": 111,
      "##L": 112,
      "##Q": 113,
      "##K": 114,
      "##C": 115,
      "##j": 116,
      "##G": 117,
      "##P": 118,
      "##8": 119,
      "##X": 120,
      "##V": 121,
      "##T": 122,
      "##B": 123,
      "##Z": 124,
      "##S": 125,
      "##7": 126,
      "##N": 127,
      "##O": 128,
      "##A": 129,
      "##D": 130,
      "##U": 131,
      "##J": 132,
      "##F": 133,
      "##W": 134,
      "##Y": 135,
      "##_": 136,
      "##)": 137,
      "##.": 138,
      "##,": 139,
      "##-": 140,
      "##(": 141,
      "##!": 142,
      "##he": 143,
      "the": 144,
      "##er": 145,
      "##on": 146,
      "##in": 147,
      "##at": 148,
      "##ed": 149,
      "##es": 150,
      "##nd": 151,
      "##en": 152,
      "##or": 153,
      "##an": 154,
      "of": 155,
      "##al": 156,
      "##ar": 157,
      "in": 158,
      "##it": 159,
      "##ic": 160,
      "and": 161,
      "##is": 162,
      "##ion": 163,
      "##ing": 164,
      "##as": 165,
      "##re": 166,
      "##ro": 167,
      "to": 168,
      "##ent": 169,
      "##ou": 170,
      "##le": 171,
      "##om": 172,
      "##el": 173,
      "##st": 174,
      "##ec": 175,
      "##il": 176,
      "th": 177,
      "##ol": 178,
      "##ur": 179,
      "##ac": 180,
      "##ation": 181,
      "##ly": 182,
      "##et": 183,
      "##am": 184,
      "##iv": 185,
      "##id": 186,
      "##ad": 187,
      "The": 188,
      "for": 189,
      "##ig": 190,
      "is": 191,
      "as": 192,
      "##ir": 193,
      "##ow": 194,
      "##ts": 195,
      "##ter": 196,
      "was": 197,
      "##th": 198,
      "on": 199,
      "##ch": 200,
      "##em": 201,
      "st": 202,
      "##ce": 203,
      "##ul": 204,
      "wh": 205,
      "##im": 206,
      "##ut": 207,
      "##ith": 208,
      "con": 209,
      "##ers": 210,
      "##ot": 211,
      "##us": 212,
      "re": 213,
      "be": 214,
      "with": 215,
      "by": 216,
      "##ver": 217,
      "##ct": 218,
      "##op": 219,
      "al": 220,
      "##her": 221,
      "that": 222,
      "##ay": 223,
      "##est": 224,
      "an": 225,
      "##os": 226,
      "##ity": 227,
      "pro": 228,
      "##ies": 229,
      "##and": 230,
      "##ain": 231,
      "##ist": 232,
      "##um": 233,
      "##av": 234,
      "##ag": 235,
      "or": 236,
      "are": 237,
      "##od": 238,
      "com": 239,
      "##ate": 240,
      "##rom": 241,
      "su": 242,
      "##ess": 243,
      "19": 244,
      "##ab": 245,
      "Wh": 246,
      "from": 247,
      "##ian": 248,
      "ex": 249,
      "In": 250,
      "de": 251,
      "at": 252,
      "##ich": 253,
      "##ial": 254,
      "##if": 255,
      "##ud": 256,
      "##oc": 257,
      "##ap": 258,
      "##00": 259,
      "##un": 260,
      "##ew": 261,
      "##ia": 262,
      "##ere": 263,
      "##se": 264,
      "##ear": 265,
      "##ment": 266,
      "##ated": 267,
      "##ld": 268,
      "##ort": 269,
      "were": 270,
      "##ive": 271,
      "##ical": 272,
      "##igh": 273,
      "pr": 274,
      "##pp": 275,
      "which": 276,
      "##ill": 277,
      "##ib": 278,
      "##nt": 279,
      "##all": 280,
      "##ect": 281,
      "##ant": 282,
      "##ost": 283,
      "##art": 284,
      "tr": 285,
      "##gh": 286,
      "ch": 287,
      "se": 288,
      "##ther": 289,
      "##mp": 290,
      "##ast": 291,
      "##rou": 292,
      "Ch": 293,
      "##qu": 294,
      "What": 295,
      "sp": 296,
      "##ard": 297,
      "##ak": 298,
      "##ge": 299,
      "##ong": 300,
      "inc": 301,
      "##ore": 302,
      "##ary": 303,
      "##ip": 304,
      "##our": 305,
      "##ave": 306,
      "##og": 307,
      "##ous": 308,
      "##ions": 309,
      "##ish": 310,
      "##ome": 311,
      "##ber": 312,
      "##ell": 313,
      "not": 314,
      "it": 315,
      "##ame": 316,
      "comp": 317,
      "cont": 318,
      "pl": 319,
      "##ure": 320,
      "##ans": 321,
      "##any": 322,
      "St": 323,
      "##so": 324,
      "res": 325,
      "##iz": 326,
      "##ub": 327,
      "##cc": 328,
      "##rit": 329,
      "le": 330,
      "##pt": 331,
      "##ine": 332,
      "wor": 333,
      "ar": 334,
      "his": 335,
      "he": 336,
      "##ations": 337,
      "have": 338,
      "##ence": 339,
      "##per": 340,
      "##ov": 341,
      "##ass": 342,
      "its": 343,
      "int": 344,
      "has": 345,
      "##ual": 346,
      "##ust": 347,
      "##ue": 348,
      "##mer": 349,
      "ad": 350,
      "en": 351,
      "sh": 352,
      "##erm": 353,
      "##du": 354,
      "##pe": 355,
      "us": 356,
      "their": 357,
      "##ult": 358,
      "also": 359,
      "cl": 360,
      "##age": 361,
      "##ates": 362,
      "20": 363,
      "had": 364,
      "##ff": 365,
      "##over": 366,
      "##hen": 367,
      "Un": 368,
      "##act": 369,
      "##ry": 370,
      "),": 371,
      "un": 372,
      "##ign": 373,
      "rec": 374,
      "##ord": 375,
      "per": 376,
      "other": 377,
      "all": 378,
      "##ie": 379,
      "##ang": 380,
      "cou": 381,
      "##ire": 382,
      "##ition": 383,
      "##irst": 384,
      "200": 385,
      "##lud": 386,
      "cent": 387,
      "##ack": 388,
      "##tern": 389,
      "##ight": 390,
      "##ely": 391,
      "ab": 392,
      "##out": 393,
      "##ra": 394,
      "part": 395,
      "##ance": 396,
      "year": 397,
      "##ater": 398,
      "18": 399,
      "dis": 400,
      "first": 401,
      "Th": 402,
      "includ": 403,
      "##own": 404,
      "##ents": 405,
      "##ide": 406,
      "##ime": 407,
      "##ree": 408,
      "but": 409,
      "##ru": 410,
      "bec": 411,
      "##lect": 412,
      "##fer": 413,
      "##uring": 414,
      "##ond": 415,
      "did": 416,
      "one": 417,
      "##lic": 418,
      "##hed": 419,
      "##ric": 420,
      "most": 421,
      "##ound": 422,
      "such": 423,
      "this": 424,
      "##ens": 425,
      "##land": 426,
      "Ar": 427,
      "##ational": 428,
      "##erv": 429,
      "##ied": 430,
      "##vel": 431,
      "##ace": 432,
      "##ited": 433,
      "##fter": 434,
      "201": 435,
      "##orm": 436,
      "app": 437,
      "been": 438,
      "comm": 439,
      "##ough": 440,
      "##ice": 441,
      "Fr": 442,
      "##ced": 443,
      "rel": 444,
      "##aw": 445,
      "##ory": 446,
      "ag": 447,
      "##ile": 448,
      ").": 449,
      "can": 450,
      "##wo": 451,
      "##ism": 452,
      "##nder": 453,
      "##ach": 454,
      "##etw": 455,
      "many": 456,
      "##able": 457,
      "##te": 458,
      "who": 459,
      "##eral": 460,
      "ind": 461,
      "##ces": 462,
      "##ors": 463,
      "more": 464,
      "imp": 465,
      "Al": 466,
      "cons": 467,
      "lar": 468,
      "form": 469,
      "##ose": 470,
      "te": 471,
      "##ks": 472,
      "do": 473,
      "ev": 474,
      "bo": 475,
      "ne": 476,
      "##reat": 477,
      "sy": 478,
      "##oll": 479,
      "##ade": 480,
      "what": 481,
      "##amp": 482,
      "over": 483,
      "into": 484,
      "##les": 485,
      "sc": 486,
      "reg": 487,
      "pop": 488,
      "##pr": 489,
      "##ivers": 490,
      "##ke": 491,
      "It": 492,
      "city": 493,
      "des": 494,
      "they": 495,
      "pre": 496,
      "##ious": 497,
      "gen": 498,
      "##ction": 499,
      "##ail": 500,
      "new": 501,
      "##ury": 502,
      "popul": 503,
      "two": 504,
      "than": 505,
      "##ould": 506,
      "##ities": 507,
      "pe": 508,
      "##rough": 509,
      "##een": 510,
      "##ower": 511,
      "##here": 512,
      "##overn": 513,
      "##ons": 514,
      "used": 515,
      "##gan": 516,
      "##olog": 517,
      "##ite": 518,
      "##ild": 519,
      "ear": 520,
      "kn": 521,
      "##ased": 522,
      "##ng": 523,
      "##etween": 524,
      "Amer": 525,
      "How": 526,
      "As": 527,
      "dec": 528,
      "time": 529,
      "pol": 530,
      "off": 531,
      "##ific": 532,
      "##ted": 533,
      "Americ": 534,
      "##ase": 535,
      "##aus": 536,
      "col": 537,
      "##ok": 538,
      "##ark": 539,
      "after": 540,
      "Pr": 541,
      "exp": 542,
      "under": 543,
      "inf": 544,
      "##ten": 545,
      "between": 546,
      "Re": 547,
      "##ings": 548,
      "ph": 549,
      "count": 550,
      "##aj": 551,
      "New": 552,
      "##stem": 553,
      "some": 554,
      "##hn": 555,
      "##wn": 556,
      "up": 557,
      "##uro": 558,
      "##ood": 559,
      "##ath": 560,
      "##ool": 561,
      "##inal": 562,
      "##velop": 563,
      "##old": 564,
      "##ublic": 565,
      "sub": 566,
      "during": 567,
      "##ution": 568,
      "##ind": 569,
      "##oy": 570,
      "produ": 571,
      "century": 572,
      "##ines": 573,
      "govern": 574,
      "num": 575,
      "##ey": 576,
      "##ics": 577,
      "only": 578,
      "att": 579,
      "me": 580,
      "Euro": 581,
      "would": 582,
      "##ob": 583,
      "acc": 584,
      "grou": 585,
      "##iss": 586,
      "United": 587,
      "##are": 588,
      "system": 589,
      "##oin": 590,
      "develop": 591,
      "##ople": 592,
      "##outh": 593,
      "On": 594,
      "ac": 595,
      "when": 596,
      "##gr": 597,
      "##iet": 598,
      "Com": 599,
      "Europe": 600,
      "This": 601,
      "##ever": 602,
      "##ince": 603,
      "##ember": 604,
      "def": 605,
      "inv": 606,
      "through": 607,
      "state": 608,
      "Brit": 609,
      "sec": 610,
      "call": 611,
      "loc": 612,
      "out": 613,
      "##ern": 614,
      "ass": 615,
      "##ative": 616,
      "known": 617,
      "##ists": 618,
      "##ron": 619,
      "##eld": 620,
      "there": 621,
      "spec": 622,
      "##ict": 623,
      "##chool": 624,
      "inter": 625,
      "rep": 626,
      "##orth": 627,
      "##ake": 628,
      "prov": 629,
      "trans": 630,
      "000": 631,
      "stud": 632,
      "we": 633,
      "est": 634,
      "pres": 635,
      "##ral": 636,
      "##ug": 637,
      "am": 638,
      "found": 639,
      "##rib": 640,
      "them": 641,
      "so": 642,
      "mod": 643,
      "bu": 644,
      "elect": 645,
      "##ement": 646,
      "dif": 647,
      "##illion": 648,
      "##ters": 649,
      "##ished": 650,
      "##ajor": 651,
      "her": 652,
      "Ind": 653,
      "##ular": 654,
      "gr": 655,
      "##ient": 656,
      "##ating": 657,
      "act": 658,
      "fl": 659,
      "serv": 660,
      "use": 661,
      "inst": 662,
      "world": 663,
      "Is": 664,
      "##ural": 665,
      "##ered": 666,
      "government": 667,
      "rem": 668,
      "years": 669,
      "supp": 670,
      "larg": 671,
      "may": 672,
      "cap": 673,
      "##ount": 674,
      "people": 675,
      "work": 676,
      "##ars": 677,
      "##ft": 678,
      "He": 679,
      "about": 680,
      "##io": 681,
      "##form": 682,
      "Germ": 683,
      "including": 684,
      "major": 685,
      "##urn": 686,
      "mus": 687,
      "group": 688,
      "##con": 689,
      "met": 690,
      "##ually": 691,
      "end": 692,
      "##red": 693,
      "##ran": 694,
      "mon": 695,
      "##uss": 696,
      "##ann": 697,
      "Con": 698,
      "##one": 699,
      "##hip": 700,
      "called": 701,
      "##hes": 702,
      "str": 703,
      "##ized": 704,
      "##ward": 705,
      "##ians": 706,
      "play": 707,
      "high": 708,
      "Se": 709,
      "##ures": 710,
      "Le": 711,
      "199": 712,
      "##ph": 713,
      "##0s": 714,
      "##li": 715,
      "Eng": 716,
      "##ork": 717,
      "these": 718,
      "became": 719,
      "##ert": 720,
      "where": 721,
      "##ale": 722,
      "##iversity": 723,
      "par": 724,
      "##als": 725,
      "Sp": 726,
      "States": 727,
      "##ause": 728,
      "well": 729,
      "number": 730,
      "##uch": 731,
      "main": 732,
      "##ah": 733,
      "##ollow": 734,
      "fe": 735,
      "##ock": 736,
      "made": 737,
      "eff": 738,
      "##oun": 739,
      "##ix": 740,
      "while": 741,
      "17": 742,
      "##gy": 743,
      "term": 744,
      "##ically": 745,
      "##tle": 746,
      "##angu": 747,
      "##lish": 748,
      "##round": 749,
      "##ole": 750,
      "##cept": 751,
      "pos": 752,
      "##led": 753,
      "id": 754,
      "set": 755,
      "##ily": 756,
      "again": 757,
      "##ays": 758,
      "##ially": 759,
      "dist": 760,
      "var": 761,
      "Who": 762,
      "##emb": 763,
      "law": 764,
      "##arr": 765,
      "##iod": 766,
      "sign": 767,
      "qu": 768,
      "##ina": 769,
      "bl": 770,
      "##enc": 771,
      "##oman": 772,
      "ty": 773,
      "char": 774,
      "no": 775,
      "##ise": 776,
      "both": 777,
      "power": 778,
      "##anc": 779,
      "mov": 780,
      "##rol": 781,
      "##ained": 782,
      "early": 783,
      "langu": 784,
      "##ident": 785,
      "school": 786,
      "ob": 787,
      "differ": 788,
      "population": 789,
      "##uc": 790,
      "American": 791,
      "##row": 792,
      "##imes": 793,
      "##ss": 794,
      "contin": 795,
      "An": 796,
      "##ason": 797,
      "##ved": 798,
      "##urch": 799,
      "disc": 800,
      "hist": 801,
      "man": 802,
      "emp": 803,
      "##pend": 804,
      "Mar": 805,
      "air": 806,
      "When": 807,
      "##ision": 808,
      "million": 809,
      "##ants": 810,
      "##ton": 811,
      "lead": 812,
      "being": 813,
      "three": 814,
      "##ects": 815,
      "##up": 816,
      "##ible": 817,
      "##ject": 818,
      "const": 819,
      "art": 820,
      "15": 821,
      "later": 822,
      "##lished": 823,
      "For": 824,
      "##other": 825,
      "sur": 826,
      "add": 827,
      "war": 828,
      "##ived": 829,
      "British": 830,
      "li": 831,
      "##ally": 832,
      "cult": 833,
      "incre": 834,
      "period": 835,
      "##ium": 836,
      "##fore": 837,
      "ret": 838,
      "soc": 839,
      "Jo": 840,
      "mil": 841,
      "rev": 842,
      "offic": 843,
      "##az": 844,
      "##ys": 845,
      "min": 846,
      "##ench": 847,
      "public": 848,
      "##ather": 849,
      "co": 850,
      "##its": 851,
      "often": 852,
      "long": 853,
      "follow": 854,
      "orig": 855,
      "##ery": 856,
      "##ep": 857,
      "occ": 858,
      "##ank": 859,
      "resp": 860,
      "estab": 861,
      "any": 862,
      "##ital": 863,
      "area": 864,
      "trad": 865,
      "##ature": 866,
      "##ments": 867,
      "##ting": 868,
      "##elf": 869,
      "record": 870,
      "##cent": 871,
      "bel": 872,
      "organ": 873,
      "10": 874,
      "sm": 875,
      "second": 876,
      "##und": 877,
      "polit": 878,
      "own": 879,
      "sever": 880,
      "##ird": 881,
      "##ues": 882,
      "##ning": 883,
      "198": 884,
      "##ages": 885,
      "##ology": 886,
      "##ility": 887,
      "French": 888,
      "class": 889,
      "partic": 890,
      "War": 891,
      "hum": 892,
      "At": 893,
      "name": 894,
      "fam": 895,
      "##sp": 896,
      "##ains": 897,
      "consid": 898,
      "##lu": 899,
      "##ently": 900,
      "##ex": 901,
      "cre": 902,
      "US": 903,
      "med": 904,
      "Emp": 905,
      "##conom": 906,
      "##ick": 907,
      "197": 908,
      "general": 909,
      "how": 910,
      "ann": 911,
      "16": 912,
      "##rist": 913,
      "##ouse": 914,
      "large": 915,
      "pers": 916,
      "##inc": 917,
      "does": 918,
      "im": 919,
      "against": 920,
      "12": 921,
      "sim": 922,
      "fil": 923,
      "largest": 924,
      "##der": 925,
      "red": 926,
      "Af": 927,
      "##ress": 928,
      "music": 929,
      "oper": 930,
      "##por": 931,
      "##ange": 932,
      "since": 933,
      "##ful": 934,
      "##though": 935,
      "North": 936,
      "control": 937,
      "##end": 938,
      "Comm": 939,
      "##min": 940,
      "John": 941,
      "Pro": 942,
      "land": 943,
      "common": 944,
      "##orn": 945,
      "dire": 946,
      "then": 947,
      "vi": 948,
      "##pen": 949,
      "country": 950,
      "will": 951,
      "##acter": 952,
      "based": 953,
      "comple": 954,
      "##ames": 955,
      "##ife": 956,
      "could": 957,
      "##ier": 958,
      "##my": 959,
      "Par": 960,
      "##rop": 961,
      "##ided": 962,
      "examp": 963,
      "##ntil": 964,
      "ref": 965,
      "##ued": 966,
      "econom": 967,
      "four": 968,
      "##ries": 969,
      "writ": 970,
      "Christ": 971,
      "European": 972,
      "##ices": 973,
      "result": 974,
      "##ives": 975,
      "import": 976,
      "##ve": 977,
      "much": 978,
      "##omin": 979,
      "##urr": 980,
      "br": 981,
      "ext": 982,
      "##lev": 983,
      "##echn": 984,
      "him": 985,
      "##gin": 986,
      "##au": 987,
      "several": 988,
      "##aid": 989,
      "##osed": 990,
      "include": 991,
      "##ene": 992,
      "196": 993,
      "bro": 994,
      "##estern": 995,
      "small": 996,
      "South": 997,
      "##ior": 998,
      "##ccess": 999,
      "##ruct": 1000,
      "##air": 1001,
      "West": 1002,
      "Mus": 1003,
      "influ": 1004,
      "design": 1005,
      "##ience": 1006,
      "Wor": 1007,
      "##eng": 1008,
      "##aking": 1009,
      "##ised": 1010,
      "##ively": 1011,
      "German": 1012,
      "##ax": 1013,
      "##ross": 1014,
      "relig": 1015,
      "build": 1016,
      "Sc": 1017,
      "##ional": 1018,
      "##olution": 1019,
      "until": 1020,
      "##ternational": 1021,
      "progr": 1022,
      "##ified": 1023,
      "##ield": 1024,
      "##iver": 1025,
      "##cess": 1026,
      "##itary": 1027,
      "##vent": 1028,
      "each": 1029,
      "same": 1030,
      "##pl": 1031,
      "began": 1032,
      "leg": 1033,
      "commun": 1034,
      "dr": 1035,
      "However": 1036,
      "support": 1037,
      "allow": 1038,
      "requ": 1039,
      "World": 1040,
      "Afric": 1041,
      "##ms": 1042,
      "prot": 1043,
      "rece": 1044,
      "hig": 1045,
      "##aph": 1046,
      "mark": 1047,
      "##duc": 1048,
      "##ague": 1049,
      "##ording": 1050,
      "stand": 1051,
      "##port": 1052,
      "different": 1053,
      "language": 1054,
      "political": 1055,
      "day": 1056,
      "spe": 1057,
      "Sh": 1058,
      "##res": 1059,
      "modern": 1060,
      "led": 1061,
      "Or": 1062,
      "Col": 1063,
      "need": 1064,
      "Gree": 1065,
      "##une": 1066,
      "##ined": 1067,
      "around": 1068,
      "##uth": 1069,
      "show": 1070,
      "lit": 1071,
      "##els": 1072,
      "within": 1073,
      "success": 1074,
      "Ph": 1075,
      "because": 1076,
      "##ty": 1077,
      "##way": 1078,
      "before": 1079,
      "##par": 1080,
      "appro": 1081,
      "those": 1082,
      "rele": 1083,
      "though": 1084,
      "##ides": 1085,
      "Car": 1086,
      "among": 1087,
      "##oph": 1088,
      "##ams": 1089,
      "##ins": 1090,
      "dem": 1091,
      "City": 1092,
      "near": 1093,
      "pass": 1094,
      "sl": 1095,
      "King": 1096,
      "non": 1097,
      "##ble": 1098,
      "mat": 1099,
      "##ired": 1100,
      "##omet": 1101,
      "##ash": 1102,
      "University": 1103,
      "cor": 1104,
      "##ize": 1105,
      "Roman": 1106,
      "By": 1107,
      "194": 1108,
      "she": 1109,
      "##yn": 1110,
      "div": 1111,
      "direct": 1112,
      "national": 1113,
      "There": 1114,
      "De": 1115,
      "memb": 1116,
      "conc": 1117,
      "##inese": 1118,
      "sing": 1119,
      "Cent": 1120,
      "em": 1121,
      "##alth": 1122,
      "conf": 1123,
      "Chinese": 1124,
      "##orts": 1125,
      "##aced": 1126,
      "example": 1127,
      "like": 1128,
      "ever": 1129,
      "##enn": 1130,
      "##ization": 1131,
      "##ges": 1132,
      "English": 1133,
      "##atic": 1134,
      "##ights": 1135,
      "states": 1136,
      "back": 1137,
      "Russ": 1138,
      "##ech": 1139,
      "##af": 1140,
      "##ences": 1141,
      "##ission": 1142,
      "Aust": 1143,
      "now": 1144,
      "ins": 1145,
      "##hem": 1146,
      "Tr": 1147,
      "military": 1148,
      "##ute": 1149,
      "cour": 1150,
      "##oci": 1151,
      "##ival": 1152,
      "av": 1153,
      "##ament": 1154,
      "ent": 1155,
      "##ai": 1156,
      "gl": 1157,
      "##ets": 1158,
      "##oot": 1159,
      "195": 1160,
      "##itions": 1161,
      "11": 1162,
      "aff": 1163,
      "season": 1164,
      "##tend": 1165,
      "##iving": 1166,
      "old": 1167,
      "##epend": 1168,
      "along": 1169,
      "##ately": 1170,
      "##hest": 1171,
      "adv": 1172,
      "even": 1173,
      "tradition": 1174,
      "##ration": 1175,
      "det": 1176,
      "##rem": 1177,
      "exper": 1178,
      "rest": 1179,
      "##apan": 1180,
      "##ven": 1181,
      "##man": 1182,
      "Gre": 1183,
      "##ik": 1184,
      "##lor": 1185,
      "human": 1186,
      "Japan": 1187,
      "open": 1188,
      "start": 1189,
      "13": 1190,
      "After": 1191,
      "process": 1192,
      "##oint": 1193,
      "##aim": 1194,
      "cr": 1195,
      "countries": 1196,
      "##ases": 1197,
      "established": 1198,
      "Cl": 1199,
      "important": 1200,
      "##dom": 1201,
      "car": 1202,
      "gre": 1203,
      "members": 1204,
      "##read": 1205,
      "grow": 1206,
      "home": 1207,
      "tem": 1208,
      "##ox": 1209,
      "pat": 1210,
      "ant": 1211,
      "water": 1212,
      "ser": 1213,
      "ter": 1214,
      "particular": 1215,
      "areas": 1216,
      "Empire": 1217,
      "##ief": 1218,
      "##ony": 1219,
      "##ivil": 1220,
      "##ency": 1221,
      "Greek": 1222,
      "level": 1223,
      "##crib": 1224,
      "person": 1225,
      "cit": 1226,
      "still": 1227,
      "perform": 1228,
      "China": 1229,
      "##son": 1230,
      "curr": 1231,
      "##ories": 1232,
      "child": 1233,
      "techn": 1234,
      "France": 1235,
      "##ret": 1236,
      "##ink": 1237,
      "development": 1238,
      "14": 1239,
      "arch": 1240,
      "Pres": 1241,
      "##idd": 1242,
      "prim": 1243,
      "imm": 1244,
      "original": 1245,
      "##pres": 1246,
      "considered": 1247,
      "##gg": 1248,
      "II": 1249,
      "##ergy": 1250,
      "Jew": 1251,
      "Pol": 1252,
      "##ured": 1253,
      "Can": 1254,
      "if": 1255,
      "##ared": 1256,
      "These": 1257,
      "During": 1258,
      "##iety": 1259,
      "##aining": 1260,
      "##get": 1261,
      "National": 1262,
      "due": 1263,
      "great": 1264,
      "become": 1265,
      "fact": 1266,
      "equ": 1267,
      "##amm": 1268,
      "##amed": 1269,
      "last": 1270,
      "popular": 1271,
      "species": 1272,
      "##ract": 1273,
      "##attle": 1274,
      "typ": 1275,
      "late": 1276,
      "run": 1277,
      "May": 1278,
      "educ": 1279,
      "They": 1280,
      "auth": 1281,
      "head": 1282,
      "##ober": 1283,
      "decl": 1284,
      "dep": 1285,
      "pub": 1286,
      "held": 1287,
      "##ected": 1288,
      "region": 1289,
      "Some": 1290,
      "local": 1291,
      "social": 1292,
      "##xt": 1293,
      "hel": 1294,
      "York": 1295,
      "##ister": 1296,
      "Lond": 1297,
      "poss": 1298,
      "##itution": 1299,
      "##oth": 1300,
      "developed": 1301,
      "##ese": 1302,
      "London": 1303,
      "opp": 1304,
      "fin": 1305,
      "Be": 1306,
      "stat": 1307,
      "##ogr": 1308,
      "ident": 1309,
      "Gen": 1310,
      "##arm": 1311,
      "life": 1312,
      "Ad": 1313,
      "ide": 1314,
      "##tal": 1315,
      "##aving": 1316,
      "Church": 1317,
      "vis": 1318,
      "Pl": 1319,
      "##astern": 1320,
      "fre": 1321,
      "##iven": 1322,
      "indust": 1323,
      "death": 1324,
      "groups": 1325,
      "less": 1326,
      "East": 1327,
      "##rodu": 1328,
      "##ged": 1329,
      "##ederal": 1330,
      "appear": 1331,
      "repres": 1332,
      "##ection": 1333,
      "##cl": 1334,
      "Ge": 1335,
      "##ody": 1336,
      "view": 1337,
      "##ball": 1338,
      "##oyal": 1339,
      "##BC": 1340,
      "##ilt": 1341,
      "##iam": 1342,
      "refer": 1343,
      "##oss": 1344,
      "effect": 1345,
      "independ": 1346,
      "193": 1347,
      "very": 1348,
      "located": 1349,
      "##ilar": 1350,
      "signific": 1351,
      "##uted": 1352,
      "place": 1353,
      "pract": 1354,
      "Gr": 1355,
      "crit": 1356,
      "Mon": 1357,
      "chang": 1358,
      "official": 1359,
      "##ek": 1360,
      "##ley": 1361,
      "addition": 1362,
      "##acy": 1363,
      "##lim": 1364,
      "##ological": 1365,
      "Which": 1366,
      "go": 1367,
      "forces": 1368,
      "present": 1369,
      "prof": 1370,
      "##br": 1371,
      "another": 1372,
      "Su": 1373,
      "histor": 1374,
      "##earch": 1375,
      "rul": 1376,
      "word": 1377,
      "##ness": 1378,
      "##ull": 1379,
      "val": 1380,
      "##ense": 1381,
      "although": 1382,
      "event": 1383,
      "Bl": 1384,
      "begin": 1385,
      "standard": 1386,
      "##ll": 1387,
      "former": 1388,
      "##lands": 1389,
      "film": 1390,
      "##ves": 1391,
      "history": 1392,
      "##ictor": 1393,
      "final": 1394,
      "arr": 1395,
      "attack": 1396,
      "##ule": 1397,
      "light": 1398,
      "Union": 1399,
      "rad": 1400,
      "north": 1401,
      "##que": 1402,
      "prev": 1403,
      "lim": 1404,
      "BC": 1405,
      "down": 1406,
      "fr": 1407,
      "percent": 1408,
      "##ator": 1409,
      "caus": 1410,
      "five": 1411,
      "##ove": 1412,
      "author": 1413,
      "##ston": 1414,
      "significant": 1415,
      "various": 1416,
      "India": 1417,
      "Sw": 1418,
      "win": 1419,
      "##cil": 1420,
      "##istic": 1421,
      "exist": 1422,
      "##wards": 1423,
      "describ": 1424,
      "using": 1425,
      "##hod": 1426,
      "eng": 1427,
      "##urther": 1428,
      "energy": 1429,
      "camp": 1430,
      "##vers": 1431,
      "Br": 1432,
      "help": 1433,
      "ro": 1434,
      "order": 1435,
      "schools": 1436,
      "25": 1437,
      "##eum": 1438,
      "enc": 1439,
      "type": 1440,
      "##anu": 1441,
      "character": 1442,
      "bus": 1443,
      "line": 1444,
      "##men": 1445,
      "##ands": 1446,
      "dev": 1447,
      "make": 1448,
      "return": 1449,
      "##iddle": 1450,
      "represent": 1451,
      "##ches": 1452,
      "bas": 1453,
      "##by": 1454,
      "##ivid": 1455,
      "##omen": 1456,
      "iss": 1457,
      "##thern": 1458,
      "Victor": 1459,
      "##rict": 1460,
      "bre": 1461,
      "##na": 1462,
      "usually": 1463,
      "Dec": 1464,
      "every": 1465,
      "Rep": 1466,
      "Ital": 1467,
      "##ogn": 1468,
      "claim": 1469,
      "191": 1470,
      "anc": 1471,
      "third": 1472,
      "2010": 1473,
      "##outhern": 1474,
      "##yl": 1475,
      "cell": 1476,
      "##ren": 1477,
      "##eration": 1478,
      "low": 1479,
      "sol": 1480,
      "however": 1481,
      "Am": 1482,
      "Ju": 1483,
      "pur": 1484,
      "religious": 1485,
      "##irc": 1486,
      "following": 1487,
      "##cast": 1488,
      "Char": 1489,
      "All": 1490,
      "Acc": 1491,
      "##lam": 1492,
      "south": 1493,
      "capital": 1494,
      "England": 1495,
      "Where": 1496,
      "built": 1497,
      "la": 1498,
      "report": 1499,
      "prop": 1500,
      "##ograph": 1501,
      "needed": 1502,
      "##gen": 1503,
      "##atural": 1504,
      "Republic": 1505,
      "civil": 1506,
      "took": 1507,
      "included": 1508,
      "##iness": 1509,
      "few": 1510,
      "conn": 1511,
      "##ination": 1512,
      "##lege": 1513,
      "##ividual": 1514,
      "##oviet": 1515,
      "port": 1516,
      "Port": 1517,
      "top": 1518,
      "lo": 1519,
      "##hern": 1520,
      "##rip": 1521,
      "similar": 1522,
      "##day": 1523,
      "introdu": 1524,
      "separ": 1525,
      "priv": 1526,
      "##ops": 1527,
      "Min": 1528,
      "##olic": 1529,
      "##ows": 1530,
      "study": 1531,
      "belie": 1532,
      "single": 1533,
      "Britain": 1534,
      "associ": 1535,
      "##ators": 1536,
      "total": 1537,
      "##ruction": 1538,
      "comb": 1539,
      "compet": 1540,
      "##ius": 1541,
      "##ison": 1542,
      "lab": 1543,
      "Soviet": 1544,
      "company": 1545,
      "##orthern": 1546,
      "without": 1547,
      "##uts": 1548,
      "treat": 1549,
      "just": 1550,
      "international": 1551,
      "aver": 1552,
      "America": 1553,
      "cop": 1554,
      "family": 1555,
      "hal": 1556,
      "100": 1557,
      "Other": 1558,
      "##ential": 1559,
      "hy": 1560,
      "Arab": 1561,
      "activ": 1562,
      "##ales": 1563,
      "##ilos": 1564,
      "po": 1565,
      "##eb": 1566,
      "individual": 1567,
      "service": 1568,
      "Ab": 1569,
      "broad": 1570,
      "mot": 1571,
      "invol": 1572,
      "init": 1573,
      "##tt": 1574,
      "##itect": 1575,
      "proble": 1576,
      "Sept": 1577,
      "##press": 1578,
      "field": 1579,
      "##isc": 1580,
      "fun": 1581,
      "##tic": 1582,
      "collect": 1583,
      "Sec": 1584,
      "relations": 1585,
      "territ": 1586,
      "##ata": 1587,
      "gu": 1588,
      "League": 1589,
      "According": 1590,
      "post": 1591,
      "sty": 1592,
      "##val": 1593,
      "feat": 1594,
      "##ested": 1595,
      "##ality": 1596,
      "Christian": 1597,
      "occur": 1598,
      "Med": 1599,
      "somet": 1600,
      "Geor": 1601,
      "192": 1602,
      "##ne": 1603,
      "##ats": 1604,
      "said": 1605,
      "##att": 1606,
      "##aged": 1607,
      "Que": 1608,
      "September": 1609,
      "His": 1610,
      "2008": 1611,
      "created": 1612,
      "team": 1613,
      "economic": 1614,
      "came": 1615,
      "fac": 1616,
      "month": 1617,
      "released": 1618,
      "mult": 1619,
      "Gu": 1620,
      "education": 1621,
      "series": 1622,
      "Islam": 1623,
      "way": 1624,
      "Aug": 1625,
      "##less": 1626,
      "2013": 1627,
      "Lib": 1628,
      "##aster": 1629,
      "##ban": 1630,
      "##raft": 1631,
      "game": 1632,
      "##asing": 1633,
      "body": 1634,
      "produced": 1635,
      "repl": 1636,
      "phys": 1637,
      "##ling": 1638,
      "six": 1639,
      "dest": 1640,
      "host": 1641,
      "pred": 1642,
      "times": 1643,
      "prom": 1644,
      "##ner": 1645,
      "earli": 1646,
      "polic": 1647,
      "culture": 1648,
      "alb": 1649,
      "##ipp": 1650,
      "##spec": 1651,
      "God": 1652,
      "##ocr": 1653,
      "Germany": 1654,
      "sour": 1655,
      "President": 1656,
      "house": 1657,
      "redu": 1658,
      "August": 1659,
      "Comp": 1660,
      "Canad": 1661,
      "30": 1662,
      "##sc": 1663,
      "##ising": 1664,
      "##ably": 1665,
      "##anuary": 1666,
      "tit": 1667,
      "take": 1668,
      "Air": 1669,
      "sold": 1670,
      "2009": 1671,
      "January": 1672,
      "attem": 1673,
      "June": 1674,
      "vers": 1675,
      "##ither": 1676,
      "Great": 1677,
      "students": 1678,
      "##iation": 1679,
      "netw": 1680,
      "mater": 1681,
      "##ements": 1682,
      "##lement": 1683,
      "##ites": 1684,
      "Oct": 1685,
      "Bo": 1686,
      "struct": 1687,
      "Ass": 1688,
      "##ances": 1689,
      "##loy": 1690,
      "##reet": 1691,
      "philos": 1692,
      "continued": 1693,
      "free": 1694,
      "admin": 1695,
      "colon": 1696,
      "2011": 1697,
      "##ify": 1698,
      "##ption": 1699,
      "##aces": 1700,
      "central": 1701,
      "##gypt": 1702,
      "Bro": 1703,
      "##atin": 1704,
      "force": 1705,
      "##ification": 1706,
      "given": 1707,
      "you": 1708,
      "July": 1709,
      "##ead": 1710,
      "arg": 1711,
      "Egypt": 1712,
      "higher": 1713,
      "strong": 1714,
      "Nov": 1715,
      "##ched": 1716,
      "One": 1717,
      "Pal": 1718,
      "Victoria": 1719,
      "##omb": 1720,
      "##hers": 1721,
      "##sequ": 1722,
      "##osp": 1723,
      "beh": 1724,
      "Many": 1725,
      "##bor": 1726,
      "short": 1727,
      "age": 1728,
      "##yr": 1729,
      "African": 1730,
      "With": 1731,
      "bi": 1732,
      "mean": 1733,
      "building": 1734,
      "##ootball": 1735,
      "produc": 1736,
      "Austral": 1737,
      "market": 1738,
      "##iers": 1739,
      "previous": 1740,
      "univers": 1741,
      "wid": 1742,
      "##specially": 1743,
      "generally": 1744,
      "Man": 1745,
      "##uan": 1746,
      "rule": 1747,
      "##utions": 1748,
      "##ode": 1749,
      "circ": 1750,
      "announ": 1751,
      "##ored": 1752,
      "General": 1753,
      "##eign": 1754,
      "throughout": 1755,
      "2007": 1756,
      "Paris": 1757,
      "natural": 1758,
      "architect": 1759,
      "Phil": 1760,
      "March": 1761,
      "En": 1762,
      "##aff": 1763,
      "Ed": 1764,
      "further": 1765,
      "anim": 1766,
      "especially": 1767,
      "role": 1768,
      "named": 1769,
      "hold": 1770,
      "king": 1771,
      "Cath": 1772,
      "##tain": 1773,
      "##xual": 1774,
      "October": 1775,
      "special": 1776,
      "##go": 1777,
      "others": 1778,
      "average": 1779,
      "cities": 1780,
      "##lear": 1781,
      "km": 1782,
      "19th": 1783,
      "Ex": 1784,
      "##incip": 1785,
      "scient": 1786,
      "##ards": 1787,
      "mar": 1788,
      "del": 1789,
      "##ae": 1790,
      "proper": 1791,
      "album": 1792,
      "Western": 1793,
      "##ental": 1794,
      "##ote": 1795,
      "production": 1796,
      "Bey": 1797,
      "##ple": 1798,
      "dyn": 1799,
      "##anish": 1800,
      "ge": 1801,
      "##udd": 1802,
      "Coun": 1803,
      "hand": 1804,
      "##enced": 1805,
      "avail": 1806,
      "parts": 1807,
      "##etic": 1808,
      "##used": 1809,
      "Bar": 1810,
      "deb": 1811,
      "systems": 1812,
      "children": 1813,
      "San": 1814,
      "##arily": 1815,
      "##lo": 1816,
      "enter": 1817,
      "vol": 1818,
      "turn": 1819,
      "club": 1820,
      "agre": 1821,
      "cover": 1822,
      "##imate": 1823,
      "temper": 1824,
      "mag": 1825,
      "2012": 1826,
      "##liament": 1827,
      "##bour": 1828,
      "should": 1829,
      "mass": 1830,
      "Will": 1831,
      "##aken": 1832,
      "recogn": 1833,
      "2014": 1834,
      "Ne": 1835,
      "##erial": 1836,
      "##ached": 1837,
      "##akes": 1838,
      "material": 1839,
      "##ertain": 1840,
      "##aul": 1841,
      "university": 1842,
      "eth": 1843,
      "Super": 1844,
      "##ript": 1845,
      "must": 1846,
      "west": 1847,
      "##ention": 1848,
      "fund": 1849,
      "domin": 1850,
      "##chol": 1851,
      "River": 1852,
      "##app": 1853,
      "sk": 1854,
      "kill": 1855,
      "##once": 1856,
      "School": 1857,
      "##imately": 1858,
      "left": 1859,
      "mer": 1860,
      "Cour": 1861,
      "##levision": 1862,
      "influence": 1863,
      "majority": 1864,
      "men": 1865,
      "##ele": 1866,
      "##exic": 1867,
      "##owl": 1868,
      "##ana": 1869,
      "research": 1870,
      "president": 1871,
      "highest": 1872,
      "employ": 1873,
      "see": 1874,
      "sent": 1875,
      "##eal": 1876,
      "Mexic": 1877,
      "lib": 1878,
      "December": 1879,
      "##lav": 1880,
      "Ant": 1881,
      "ep": 1882,
      "current": 1883,
      "army": 1884,
      "carr": 1885,
      "Ear": 1886,
      "##aries": 1887,
      "Kingdom": 1888,
      "##idence": 1889,
      "cond": 1890,
      "formed": 1891,
      "Beyonce": 1892,
      "Tib": 1893,
      "mid": 1894,
      "Const": 1895,
      "##ott": 1896,
      "##ane": 1897,
      "across": 1898,
      "growth": 1899,
      "##aven": 1900,
      "half": 1901,
      "##ering": 1902,
      "commer": 1903,
      "el": 1904,
      "Queen": 1905,
      "21": 1906,
      "Ott": 1907,
      "Council": 1908,
      "cultural": 1909,
      "languages": 1910,
      "##fact": 1911,
      "song": 1912,
      "inform": 1913,
      "fail": 1914,
      "traditional": 1915,
      "##ung": 1916,
      "App": 1917,
      "Apr": 1918,
      "won": 1919,
      "adop": 1920,
      "Ang": 1921,
      "town": 1922,
      "making": 1923,
      "press": 1924,
      "50": 1925,
      "defe": 1926,
      "frequ": 1927,
      "April": 1928,
      "##ensive": 1929,
      "##most": 1930,
      "theory": 1931,
      "method": 1932,
      "received": 1933,
      "##ece": 1934,
      "increased": 1935,
      "aut": 1936,
      "Rev": 1937,
      "November": 1938,
      "She": 1939,
      "coun": 1940,
      "black": 1941,
      "##apt": 1942,
      "Kh": 1943,
      "played": 1944,
      "##bo": 1945,
      "##ideo": 1946,
      "sometimes": 1947,
      "days": 1948,
      "##arch": 1949,
      "##rael": 1950,
      "laun": 1951,
      "##eror": 1952,
      "Although": 1953,
      "Russian": 1954,
      "offer": 1955,
      "ed": 1956,
      "sw": 1957,
      "particularly": 1958,
      "federal": 1959,
      "private": 1960,
      "##med": 1961,
      "Cal": 1962,
      "##rum": 1963,
      "having": 1964,
      "State": 1965,
      "works": 1966,
      "##ee": 1967,
      "While": 1968,
      "case": 1969,
      "Japanese": 1970,
      "Tibet": 1971,
      "2006": 1972,
      "rights": 1973,
      "##onst": 1974,
      "read": 1975,
      "##itive": 1976,
      "published": 1977,
      "rock": 1978,
      "rather": 1979,
      "princip": 1980,
      "Mad": 1981,
      "##etter": 1982,
      "party": 1983,
      "rank": 1984,
      "liter": 1985,
      "To": 1986,
      "list": 1987,
      "##uddh": 1988,
      "International": 1989,
      "##for": 1990,
      "pain": 1991,
      "##ests": 1992,
      "exec": 1993,
      "lower": 1994,
      "suff": 1995,
      "##aper": 1996,
      "establish": 1997,
      "##ength": 1998,
      "far": 1999,
      "member": 2000,
      "Muslim": 2001,
      "best": 2002,
      "##mit": 2003,
      "forms": 2004,
      "terms": 2005,
      "##asty": 2006,
      "founded": 2007,
      "##atory": 2008,
      "discover": 2009,
      "Latin": 2010,
      "Africa": 2011,
      "##uter": 2012,
      "available": 2013,
      "Spanish": 2014,
      "##yc": 2015,
      "El": 2016,
      "point": 2017,
      "Portug": 2018,
      "Buddh": 2019,
      "profess": 2020,
      "##ones": 2021,
      "Indian": 2022,
      "##oles": 2023,
      "food": 2024,
      "tro": 2025,
      "20th": 2026,
      "##ya": 2027,
      "##atter": 2028,
      "Catholic": 2029,
      "##ope": 2030,
      "range": 2031,
      "business": 2032,
      "women": 2033,
      "##rought": 2034,
      "administ": 2035,
      "cost": 2036,
      "##sel": 2037,
      "##vir": 2038,
      "itself": 2039,
      "change": 2040,
      "24": 2041,
      "##ores": 2042,
      "qual": 2043,
      "position": 2044,
      "either": 2045,
      "##jects": 2046,
      "##urg": 2047,
      "##avy": 2048,
      "church": 2049,
      "##cial": 2050,
      "##adem": 2051,
      "hun": 2052,
      "aud": 2053,
      "##la": 2054,
      "impro": 2055,
      "style": 2056,
      "respons": 2057,
      "Israel": 2058,
      "Prot": 2059,
      "outs": 2060,
      "rate": 2061,
      "##iate": 2062,
      "##ids": 2063,
      "meas": 2064,
      "##owers": 2065,
      "##chie": 2066,
      "attempt": 2067,
      "##omp": 2068,
      "Army": 2069,
      "financ": 2070,
      "court": 2071,
      "network": 2072,
      "Act": 2073,
      "perm": 2074,
      "##ware": 2075,
      "invest": 2076,
      "##ability": 2077,
      "House": 2078,
      "##ape": 2079,
      "##ama": 2080,
      "##erous": 2081,
      "College": 2082,
      "##ont": 2083,
      "estim": 2084,
      "billion": 2085,
      "##nds": 2086,
      "Val": 2087,
      "##duct": 2088,
      "##ades": 2089,
      "white": 2090,
      "Part": 2091,
      "##isl": 2092,
      "trade": 2093,
      "##fic": 2094,
      "##rote": 2095,
      "east": 2096,
      "##viron": 2097,
      "##II": 2098,
      "##anted": 2099,
      "introduced": 2100,
      "surv": 2101,
      "Pe": 2102,
      ".,": 2103,
      "ord": 2104,
      "Court": 2105,
      "announced": 2106,
      "##artment": 2107,
      "##ought": 2108,
      "successful": 2109,
      "Tur": 2110,
      "coll": 2111,
      "187": 2112,
      "occup": 2113,
      "sum": 2114,
      "trib": 2115,
      "Des": 2116,
      "Armen": 2117,
      "##hib": 2118,
      "real": 2119,
      "written": 2120,
      "ethn": 2121,
      "regard": 2122,
      "##ophy": 2123,
      "contrib": 2124,
      "provide": 2125,
      "##ean": 2126,
      "##bs": 2127,
      "##ots": 2128,
      "##lex": 2129,
      "##estic": 2130,
      "allowed": 2131,
      "concept": 2132,
      "increasing": 2133,
      "##uries": 2134,
      "southern": 2135,
      "wrote": 2136,
      "island": 2137,
      "##hood": 2138,
      "Har": 2139,
      "40": 2140,
      "followed": 2141,
      "2015": 2142,
      "certain": 2143,
      "according": 2144,
      "Bowl": 2145,
      "join": 2146,
      "schol": 2147,
      "Nap": 2148,
      "George": 2149,
      "foreign": 2150,
      "neigh": 2151,
      "Feb": 2152,
      "Govern": 2153,
      "Park": 2154,
      "##ateg": 2155,
      "designed": 2156,
      "##pite": 2157,
      "##ruary": 2158,
      "February": 2159,
      "##line": 2160,
      "hard": 2161,
      "ren": 2162,
      "achie": 2163,
      "hous": 2164,
      "##gre": 2165,
      "distin": 2166,
      "From": 2167,
      "Middle": 2168,
      "##light": 2169,
      "movement": 2170,
      "origin": 2171,
      "##alk": 2172,
      "health": 2173,
      "accept": 2174,
      "23": 2175,
      "primary": 2176,
      "##selves": 2177,
      "2005": 2178,
      "##mb": 2179,
      "Rich": 2180,
      "least": 2181,
      "industry": 2182,
      "book": 2183,
      "thought": 2184,
      "citation": 2185,
      "Han": 2186,
      "services": 2187,
      "##ask": 2188,
      "complex": 2189,
      "##ways": 2190,
      "sound": 2191,
      "##ps": 2192,
      "Cong": 2193,
      "##icro": 2194,
      "Res": 2195,
      "data": 2196,
      "television": 2197,
      "themselves": 2198,
      "##ush": 2199,
      "era": 2200,
      "fall": 2201,
      "jud": 2202,
      "Inst": 2203,
      "##quare": 2204,
      "##utch": 2205,
      "foc": 2206,
      "know": 2207,
      "relationship": 2208,
      "associated": 2209,
      "self": 2210,
      "ur": 2211,
      "##bert": 2212,
      "expl": 2213,
      "Mac": 2214,
      "##ri": 2215,
      "Jews": 2216,
      "required": 2217,
      "saw": 2218,
      "compan": 2219,
      "Bur": 2220,
      "##eter": 2221,
      "##asons": 2222,
      "entire": 2223,
      "except": 2224,
      "obs": 2225,
      "##utes": 2226,
      "##uther": 2227,
      "ke": 2228,
      "##idge": 2229,
      "Asia": 2230,
      "full": 2231,
      "##ington": 2232,
      "Most": 2233,
      "live": 2234,
      "grad": 2235,
      "##augh": 2236,
      "brought": 2237,
      "dynasty": 2238,
      "plan": 2239,
      "described": 2240,
      "##omes": 2241,
      "anal": 2242,
      "seen": 2243,
      "Pruss": 2244,
      "emer": 2245,
      "##ica": 2246,
      "190": 2247,
      "caused": 2248,
      "##alt": 2249,
      "northern": 2250,
      "##itu": 2251,
      "laws": 2252,
      "Central": 2253,
      "##ecess": 2254,
      "leading": 2255,
      "side": 2256,
      "##echan": 2257,
      "##asion": 2258,
      "minor": 2259,
      "Co": 2260,
      "increase": 2261,
      "depend": 2262,
      "whe": 2263,
      "##roy": 2264,
      "Napole": 2265,
      "remained": 2266,
      "##aves": 2267,
      "bord": 2268,
      "plants": 2269,
      "##rated": 2270,
      "##ilities": 2271,
      "Ap": 2272,
      "##co": 2273,
      "changes": 2274,
      "mount": 2275,
      "tw": 2276,
      "instit": 2277,
      "185": 2278,
      "##anding": 2279,
      "good": 2280,
      "186": 2281,
      "dig": 2282,
      "##add": 2283,
      "pot": 2284,
      "abs": 2285,
      "financial": 2286,
      "##bers": 2287,
      "access": 2288,
      "viol": 2289,
      "possible": 2290,
      "Ottoman": 2291,
      "Met": 2292,
      "almost": 2293,
      "##hi": 2294,
      "contr": 2295,
      "der": 2296,
      "Napoleon": 2297,
      "##ler": 2298,
      "upon": 2299,
      "William": 2300,
      "##ena": 2301,
      "community": 2302,
      "color": 2303,
      "express": 2304,
      "Since": 2305,
      "elev": 2306,
      "##rial": 2307,
      "trav": 2308,
      "determ": 2309,
      "respect": 2310,
      "Kore": 2311,
      "Dutch": 2312,
      "dial": 2313,
      "##ufact": 2314,
      "events": 2315,
      "Haven": 2316,
      "includes": 2317,
      "manufact": 2318,
      "Som": 2319,
      "past": 2320,
      "environ": 2321,
      "UK": 2322,
      "##iding": 2323,
      "today": 2324,
      "##reme": 2325,
      "western": 2326,
      "super": 2327,
      "engine": 2328,
      "started": 2329,
      "##orpor": 2330,
      "consist": 2331,
      "program": 2332,
      "##cul": 2333,
      "Count": 2334,
      "##ring": 2335,
      "##leg": 2336,
      "buildings": 2337,
      "select": 2338,
      "centuries": 2339,
      "##ceed": 2340,
      "right": 2341,
      "tax": 2342,
      "188": 2343,
      "##aign": 2344,
      "hour": 2345,
      "den": 2346,
      "##iew": 2347,
      "##oms": 2348,
      "Street": 2349,
      "Jewish": 2350,
      "related": 2351,
      "care": 2352,
      "##antic": 2353,
      "Royal": 2354,
      "legal": 2355,
      "##unic": 2356,
      "dog": 2357,
      "loss": 2358,
      "##omm": 2359,
      "ste": 2360,
      "tour": 2361,
      "##ips": 2362,
      "next": 2363,
      "commercial": 2364,
      "Luther": 2365,
      "Chop": 2366,
      "find": 2367,
      "##ude": 2368,
      "dom": 2369,
      "##rug": 2370,
      "coast": 2371,
      "neg": 2372,
      "##craft": 2373,
      "games": 2374,
      "189": 2375,
      "##ingu": 2376,
      "##oted": 2377,
      "meet": 2378,
      "rail": 2379,
      "whose": 2380,
      "##osition": 2381,
      "construction": 2382,
      "Center": 2383,
      "outside": 2384,
      "model": 2385,
      "##rew": 2386,
      "policy": 2387,
      "Carol": 2388,
      "means": 2389,
      "22": 2390,
      "##aps": 2391,
      "beginning": 2392,
      "##ander": 2393,
      "capt": 2394,
      "ox": 2395,
      "##now": 2396,
      "plant": 2397,
      "183": 2398,
      "provided": 2399,
      "Chopin": 2400,
      "tre": 2401,
      "defin": 2402,
      "##anded": 2403,
      "independent": 2404,
      "##lt": 2405,
      "##head": 2406,
      "##ternal": 2407,
      "science": 2408,
      "indic": 2409,
      "fav": 2410,
      "concern": 2411,
      "bird": 2412,
      "##lin": 2413,
      "##atively": 2414,
      "test": 2415,
      "sect": 2416,
      "subst": 2417,
      "##ma": 2418,
      "##..": 2419,
      "aircraft": 2420,
      "legisl": 2421,
      "ethnic": 2422,
      "mechan": 2423,
      "clos": 2424,
      "Soc": 2425,
      "bomb": 2426,
      "cases": 2427,
      "##ago": 2428,
      "space": 2429,
      "##ended": 2430,
      "never": 2431,
      "media": 2432,
      "status": 2433,
      "mig": 2434,
      "Greece": 2435,
      "ten": 2436,
      "extend": 2437,
      "reported": 2438,
      "able": 2439,
      "applic": 2440,
      "Gl": 2441,
      "White": 2442,
      "observ": 2443,
      "##rown": 2444,
      "economy": 2445,
      "typically": 2446,
      "##ership": 2447,
      "##let": 2448,
      "consum": 2449,
      "hear": 2450,
      "companies": 2451,
      "##osa": 2452,
      "##face": 2453,
      "living": 2454,
      "Mong": 2455,
      "##raw": 2456,
      "di": 2457,
      "500": 2458,
      "##NA": 2459,
      "##atives": 2460,
      "Rome": 2461,
      "Wars": 2462,
      "##asser": 2463,
      "conflic": 2464,
      "Cat": 2465,
      "Sch": 2466,
      "referred": 2467,
      "##aint": 2468,
      "center": 2469,
      "mix": 2470,
      "##ront": 2471,
      "Vir": 2472,
      "father": 2473,
      "transl": 2474,
      "##aching": 2475,
      "##eder": 2476,
      "instead": 2477,
      "Hol": 2478,
      "kind": 2479,
      "electric": 2480,
      "regul": 2481,
      "spread": 2482,
      "disp": 2483,
      "cross": 2484,
      "##ented": 2485,
      "##iated": 2486,
      "Mel": 2487,
      "##ara": 2488,
      "gener": 2489,
      "##eth": 2490,
      "attend": 2491,
      "diffic": 2492,
      "object": 2493,
      "##erc": 2494,
      "capac": 2495,
      "##itan": 2496,
      "##int": 2497,
      "lost": 2498,
      "##ords": 2499,
      "station": 2500,
      "sugg": 2501,
      "Australia": 2502,
      "Franc": 2503,
      "##ises": 2504,
      "subject": 2505,
      "##anned": 2506,
      "cause": 2507,
      "information": 2508,
      "Mongol": 2509,
      "nation": 2510,
      "##uk": 2511,
      "##itz": 2512,
      "Do": 2513,
      "fem": 2514,
      "widely": 2515,
      "reb": 2516,
      "mor": 2517,
      "instrum": 2518,
      "Revolution": 2519,
      "rap": 2520,
      "campaign": 2521,
      "##porary": 2522,
      "Del": 2523,
      "Mexico": 2524,
      "citiz": 2525,
      "difficult": 2526,
      "vict": 2527,
      "sett": 2528,
      "Her": 2529,
      "specific": 2530,
      "##isms": 2531,
      "##ensus": 2532,
      "Sam": 2533,
      "meaning": 2534,
      "Reg": 2535,
      "##asts": 2536,
      "died": 2537,
      "Eastern": 2538,
      "Rec": 2539,
      "Sy": 2540,
      "Americans": 2541,
      "##ham": 2542,
      "estimated": 2543,
      "##utive": 2544,
      "visit": 2545,
      "ancient": 2546,
      "##ximately": 2547,
      "conduct": 2548,
      "resist": 2549,
      "radio": 2550,
      "critic": 2551,
      "##hold": 2552,
      "text": 2553,
      "moved": 2554,
      "##ille": 2555,
      "##ctor": 2556,
      "##irth": 2557,
      "Battle": 2558,
      "tor": 2559,
      "Nasser": 2560,
      "troops": 2561,
      "underst": 2562,
      "##isions": 2563,
      "Bron": 2564,
      "recent": 2565,
      "La": 2566,
      "sexual": 2567,
      "##oming": 2568,
      "reached": 2569,
      "manag": 2570,
      "action": 2571,
      "eventually": 2572,
      "teams": 2573,
      "displ": 2574,
      "demonst": 2575,
      "lear": 2576,
      "Ro": 2577,
      "Rh": 2578,
      "anti": 2579,
      "settle": 2580,
      "regions": 2581,
      "ABC": 2582,
      "reform": 2583,
      "working": 2584,
      "religion": 2585,
      "bacter": 2586,
      "oil": 2587,
      "dise": 2588,
      "thus": 2589,
      "quest": 2590,
      "##idents": 2591,
      "##elling": 2592,
      "Island": 2593,
      "##eh": 2594,
      "##irm": 2595,
      "bene": 2596,
      "##ney": 2597,
      "above": 2598,
      "Paul": 2599,
      "purp": 2600,
      "prevent": 2601,
      "title": 2602,
      "football": 2603,
      "##lements": 2604,
      "Iran": 2605,
      "phot": 2606,
      "##istan": 2607,
      "ra": 2608,
      "toget": 2609,
      "opened": 2610,
      "together": 2611,
      "##ona": 2612,
      "elected": 2613,
      "##ults": 2614,
      "184": 2615,
      "environment": 2616,
      "young": 2617,
      "##50": 2618,
      "gave": 2619,
      "##ires": 2620,
      "mother": 2621,
      "taken": 2622,
      "##ledge": 2623,
      "eastern": 2624,
      "larger": 2625,
      "famous": 2626,
      "Dem": 2627,
      "pay": 2628,
      "Company": 2629,
      "destroy": 2630,
      "Wind": 2631,
      "tar": 2632,
      "##ij": 2633,
      "Parliament": 2634,
      "video": 2635,
      "lay": 2636,
      "##rest": 2637,
      "...": 2638,
      "son": 2639,
      "soft": 2640,
      "constitution": 2641,
      "Emperor": 2642,
      "##ym": 2643,
      "speed": 2644,
      "##ali": 2645,
      "office": 2646,
      "cells": 2647,
      "born": 2648,
      "##yan": 2649,
      "particip": 2650,
      "consider": 2651,
      "limited": 2652,
      "Alex": 2653,
      "First": 2654,
      "chem": 2655,
      "acqu": 2656,
      "##ios": 2657,
      "##opl": 2658,
      "account": 2659,
      "commit": 2660,
      "Islamic": 2661,
      "##onse": 2662,
      "And": 2663,
      "##ned": 2664,
      "Italy": 2665,
      "##tin": 2666,
      "Ser": 2667,
      "pun": 2668,
      "##lied": 2669,
      "dam": 2670,
      "##ference": 2671,
      "territory": 2672,
      "rout": 2673,
      "cele": 2674,
      "conqu": 2675,
      "months": 2676,
      "once": 2677,
      "##ctions": 2678,
      "subsequ": 2679,
      "replaced": 2680,
      "Canada": 2681,
      "earlier": 2682,
      "##oks": 2683,
      "##ointed": 2684,
      "commonly": 2685,
      "##esla": 2686,
      "source": 2687,
      "26": 2688,
      "##ream": 2689,
      "ancest": 2690,
      "greater": 2691,
      "lack": 2692,
      "Old": 2693,
      "site": 2694,
      "Austr": 2695,
      "High": 2696,
      "##iences": 2697,
      "##ened": 2698,
      "##itute": 2699,
      "pen": 2700,
      "##urity": 2701,
      "lik": 2702,
      "Dav": 2703,
      "Charles": 2704,
      "##ike": 2705,
      "##we": 2706,
      "##ills": 2707,
      "Bost": 2708,
      "##erry": 2709,
      "Hen": 2710,
      "##ta": 2711,
      "If": 2712,
      "ground": 2713,
      "architecture": 2714,
      "2004": 2715,
      "Tesla": 2716,
      "##acial": 2717,
      "little": 2718,
      "size": 2719,
      "##anks": 2720,
      "believed": 2721,
      "powers": 2722,
      "##wide": 2723,
      "mostly": 2724,
      "Black": 2725,
      "##ky": 2726,
      "empire": 2727,
      "scientific": 2728,
      "28": 2729,
      "numbers": 2730,
      "sat": 2731,
      "speak": 2732,
      "levels": 2733,
      "Carolina": 2734,
      "ap": 2735,
      "broadcast": 2736,
      "Eston": 2737,
      "Boston": 2738,
      "##oma": 2739,
      "##icle": 2740,
      "annual": 2741,
      "involved": 2742,
      "doc": 2743,
      "forced": 2744,
      "##ique": 2745,
      "##lymp": 2746,
      "##ino": 2747,
      "separate": 2748,
      "produce": 2749,
      "independence": 2750,
      "interest": 2751,
      "Italian": 2752,
      "date": 2753,
      "sea": 2754,
      "marr": 2755,
      "##ras": 2756,
      "response": 2757,
      "wind": 2758,
      "Mary": 2759,
      "##berg": 2760,
      "largely": 2761,
      "##obal": 2762,
      "scholars": 2763,
      "mi": 2764,
      "mand": 2765,
      "went": 2766,
      "prior": 2767,
      "Mount": 2768,
      "##ula": 2769,
      "problem": 2770,
      "election": 2771,
      "amount": 2772,
      "base": 2773,
      "##raz": 2774,
      "mem": 2775,
      "Cy": 2776,
      "eight": 2777,
      "adopted": 2778,
      "creat": 2779,
      "Atl": 2780,
      "practice": 2781,
      "say": 2782,
      "2000": 2783,
      "served": 2784,
      "distrib": 2785,
      "nearly": 2786,
      "Congress": 2787,
      "Lou": 2788,
      "primarily": 2789,
      "##20": 2790,
      "Ac": 2791,
      "close": 2792,
      "structure": 2793,
      "frie": 2794,
      "function": 2795,
      "et": 2796,
      "##itation": 2797,
      "words": 2798,
      "problems": 2799,
      "version": 2800,
      "cann": 2801,
      "passed": 2802,
      "Imp": 2803,
      "##ampions": 2804,
      "Olymp": 2805,
      "##ving": 2806,
      "##icient": 2807,
      "##ibility": 2808,
      "types": 2809,
      "put": 2810,
      "rise": 2811,
      "vir": 2812,
      "##ranch": 2813,
      "society": 2814,
      "evidence": 2815,
      "Treat": 2816,
      "##abor": 2817,
      "##wood": 2818,
      "Ire": 2819,
      "thous": 2820,
      "connect": 2821,
      "killed": 2822,
      "Ireland": 2823,
      "Dep": 2824,
      "project": 2825,
      "##ads": 2826,
      "##etro": 2827,
      "##kl": 2828,
      "Off": 2829,
      "##uel": 2830,
      "Museum": 2831,
      "fa": 2832,
      "##itor": 2833,
      "##self": 2834,
      "##iot": 2835,
      "require": 2836,
      "fig": 2837,
      "transport": 2838,
      "remain": 2839,
      "experim": 2840,
      "variety": 2841,
      "personal": 2842,
      "whether": 2843,
      "##ems": 2844,
      "approximately": 2845,
      "compon": 2846,
      "philosophy": 2847,
      "##bon": 2848,
      "norm": 2849,
      "##urs": 2850,
      "communic": 2851,
      "release": 2852,
      "##rary": 2853,
      "cho": 2854,
      "famil": 2855,
      "Bel": 2856,
      "Bell": 2857,
      "directly": 2858,
      "domestic": 2859,
      "##enh": 2860,
      "##ift": 2861,
      "animals": 2862,
      "studies": 2863,
      "urban": 2864,
      "27": 2865,
      "Federal": 2866,
      "active": 2867,
      "Cub": 2868,
      "Hist": 2869,
      "continu": 2870,
      "necess": 2871,
      "James": 2872,
      "##ayed": 2873,
      "earth": 2874,
      "Protest": 2875,
      "Party": 2876,
      "react": 2877,
      "Under": 2878,
      "regular": 2879,
      "stations": 2880,
      "multip": 2881,
      "##odox": 2882,
      "Grand": 2883,
      "rapid": 2884,
      "##heast": 2885,
      "institutions": 2886,
      "Mu": 2887,
      "elements": 2888,
      "threat": 2889,
      "##ropol": 2890,
      "neighbor": 2891,
      "##urches": 2892,
      "fut": 2893,
      "universities": 2894,
      "Wash": 2895,
      "leader": 2896,
      "race": 2897,
      "##igen": 2898,
      "authority": 2899,
      "##anced": 2900,
      "##olved": 2901,
      "whom": 2902,
      "Arch": 2903,
      "citizens": 2904,
      "Pers": 2905,
      "##abit": 2906,
      "attract": 2907,
      "We": 2908,
      "fire": 2909,
      "wood": 2910,
      "reason": 2911,
      "UN": 2912,
      "key": 2913,
      "nature": 2914,
      "police": 2915,
      "docum": 2916,
      "my": 2917,
      "##ger": 2918,
      "##onna": 2919,
      "Commun": 2920,
      "Art": 2921,
      "seven": 2922,
      "birth": 2923,
      "Apple": 2924,
      "##thodox": 2925,
      "kingdom": 2926,
      "temperature": 2927,
      "##10": 2928,
      "##oon": 2929,
      "influenced": 2930,
      "##adium": 2931,
      "himself": 2932,
      "distinct": 2933,
      "originally": 2934,
      "Earth": 2935,
      "##afi": 2936,
      "Not": 2937,
      "situ": 2938,
      "##arter": 2939,
      "Ir": 2940,
      "##ck": 2941,
      "##ster": 2942,
      "might": 2943,
      "maint": 2944,
      "Gal": 2945,
      "You": 2946,
      "inte": 2947,
      "climate": 2948,
      "##cript": 2949,
      "prec": 2950,
      "band": 2951,
      "come": 2952,
      "Gadd": 2953,
      "##throp": 2954,
      "cust": 2955,
      "conver": 2956,
      "##ricult": 2957,
      "Russia": 2958,
      "technology": 2959,
      "hyd": 2960,
      "##ych": 2961,
      "rain": 2962,
      "##usion": 2963,
      "numerous": 2964,
      "remains": 2965,
      "bar": 2966,
      "away": 2967,
      "supported": 2968,
      "week": 2969,
      "mainly": 2970,
      "Thom": 2971,
      "##cend": 2972,
      "60": 2973,
      "clear": 2974,
      "##iel": 2975,
      "sil": 2976,
      "##has": 2977,
      "recorded": 2978,
      "smaller": 2979,
      "36": 2980,
      "get": 2981,
      "Washington": 2982,
      "lines": 2983,
      "arm": 2984,
      "longer": 2985,
      "Sun": 2986,
      "cred": 2987,
      "cat": 2988,
      "ess": 2989,
      "##mar": 2990,
      "##arian": 2991,
      "##iter": 2992,
      "stated": 2993,
      "##ha": 2994,
      "experience": 2995,
      "##ownt": 2996,
      "##nal": 2997,
      "##undred": 2998,
      "asp": 2999,
      "emb": 3000,
      "Associ": 3001,
      "No": 3002,
      "cal": 3003,
      "too": 3004,
      "expans": 3005,
      "bit": 3006,
      "##umb": 3007,
      "exc": 3008,
      "Flor": 3009,
      "glass": 3010,
      "log": 3011,
      "declared": 3012,
      "##elled": 3013,
      "##encies": 3014,
      "Per": 3015,
      "##oor": 3016,
      "##ying": 3017,
      "organization": 3018,
      "Chic": 3019,
      "symb": 3020,
      "divided": 3021,
      "##istics": 3022,
      "added": 3023,
      "returned": 3024,
      "nob": 3025,
      "income": 3026,
      "operations": 3027,
      "##to": 3028,
      "features": 3029,
      "Id": 3030,
      "electr": 3031,
      "poor": 3032,
      "contem": 3033,
      "drug": 3034,
      "royal": 3035,
      "##hel": 3036,
      "uses": 3037,
      "contain": 3038,
      "carry": 3039,
      "focus": 3040,
      "altern": 3041,
      "future": 3042,
      "##iang": 3043,
      "teac": 3044,
      "defined": 3045,
      "Hy": 3046,
      "##19": 3047,
      "##iction": 3048,
      "oldest": 3049,
      "##ques": 3050,
      "Rober": 3051,
      "##ygen": 3052,
      "concent": 3053,
      "Another": 3054,
      "Gaddafi": 3055,
      "league": 3056,
      "records": 3057,
      "AD": 3058,
      "deal": 3059,
      "interp": 3060,
      "Chicago": 3061,
      "square": 3062,
      "##oid": 3063,
      "green": 3064,
      "behav": 3065,
      "centre": 3066,
      "classical": 3067,
      "create": 3068,
      "##aval": 3069,
      "surround": 3070,
      "Saint": 3071,
      "##ken": 3072,
      "computer": 3073,
      "##airs": 3074,
      "##ties": 3075,
      "##iest": 3076,
      "highly": 3077,
      "mach": 3078,
      "Henry": 3079,
      "lived": 3080,
      "promin": 3081,
      "sem": 3082,
      "emot": 3083,
      "ult": 3084,
      "nuc": 3085,
      "regional": 3086,
      "##ida": 3087,
      "battle": 3088,
      "historical": 3089,
      "##isation": 3090,
      "earliest": 3091,
      "##ounds": 3092,
      "##cel": 3093,
      "Pac": 3094,
      "wide": 3095,
      "Slav": 3096,
      "award": 3097,
      "##ession": 3098,
      "relatively": 3099,
      "##bourne": 3100,
      "knowledge": 3101,
      "Atlantic": 3102,
      "protect": 3103,
      "ranked": 3104,
      "Cup": 3105,
      "Yale": 3106,
      "collection": 3107,
      "##arsh": 3108,
      "wealth": 3109,
      "Ma": 3110,
      "##ropolitan": 3111,
      "##owntown": 3112,
      "scale": 3113,
      "##klah": 3114,
      "vac": 3115,
      "money": 3116,
      "physical": 3117,
      "sens": 3118,
      "previously": 3119,
      "quality": 3120,
      "Its": 3121,
      "2003": 3122,
      "surface": 3123,
      "miss": 3124,
      "Oklah": 3125,
      "##estival": 3126,
      "resulting": 3127,
      "birds": 3128,
      "##cean": 3129,
      "##ulation": 3130,
      "Law": 3131,
      "towards": 3132,
      "artists": 3133,
      "via": 3134,
      "ens": 3135,
      "responsible": 3136,
      "remov": 3137,
      "path": 3138,
      "##pts": 3139,
      "##ulf": 3140,
      "chlor": 3141,
      "dou": 3142,
      "##gn": 3143,
      "prime": 3144,
      "Spain": 3145,
      "Rom": 3146,
      "product": 3147,
      "##ume": 3148,
      "##vention": 3149,
      "Fre": 3150,
      "Mod": 3151,
      "Sup": 3152,
      "##ocratic": 3153,
      "launched": 3154,
      "resulted": 3155,
      "Madonna": 3156,
      "paper": 3157,
      "Conf": 3158,
      "Red": 3159,
      "Albert": 3160,
      "campus": 3161,
      "Louis": 3162,
      "cut": 3163,
      "peace": 3164,
      "Eis": 3165,
      "##back": 3166,
      "track": 3167,
      "move": 3168,
      "##alls": 3169,
      "##izing": 3170,
      "miles": 3171,
      "division": 3172,
      "Bec": 3173,
      "##rain": 3174,
      "insp": 3175,
      "islands": 3176,
      "##izations": 3177,
      "professional": 3178,
      "torch": 3179,
      "inh": 3180,
      "activity": 3181,
      "Melbourne": 3182,
      "##west": 3183,
      "##ror": 3184,
      "##igned": 3185,
      "conflict": 3186,
      "reflect": 3187,
      "##iles": 3188,
      "##iforn": 3189,
      "##war": 3190,
      "Univers": 3191,
      "Mal": 3192,
      "occurred": 3193,
      "middle": 3194,
      "Oklahoma": 3195,
      "break": 3196,
      "border": 3197,
      "Follow": 3198,
      "ris": 3199,
      "##acters": 3200,
      "unc": 3201,
      "Second": 3202,
      "hon": 3203,
      "big": 3204,
      "##gar": 3205,
      "Stud": 3206,
      "ended": 3207,
      "Cor": 3208,
      "discovered": 3209,
      "parties": 3210,
      "Californ": 3211,
      "soon": 3212,
      "##ready": 3213,
      "changed": 3214,
      "##ging": 3215,
      "discuss": 3216,
      "travel": 3217,
      "rat": 3218,
      "##win": 3219,
      "orient": 3220,
      "##pper": 3221,
      "18th": 3222,
      "##tee": 3223,
      "players": 3224,
      "feature": 3225,
      "currently": 3226,
      "Portugues": 3227,
      "Following": 3228,
      "##enth": 3229,
      "Du": 3230,
      "gold": 3231,
      "##uit": 3232,
      "churches": 3233,
      "##iger": 3234,
      "Minister": 3235,
      "counter": 3236,
      "performance": 3237,
      "expansion": 3238,
      "front": 3239,
      "##ze": 3240,
      "officially": 3241,
      "claimed": 3242,
      "value": 3243,
      "anten": 3244,
      "identity": 3245,
      "##ternet": 3246,
      "industrial": 3247,
      "Cap": 3248,
      "purch": 3249,
      "##onom": 3250,
      "##isis": 3251,
      "##aded": 3252,
      "Hou": 3253,
      "Jose": 3254,
      "administration": 3255,
      "Thomas": 3256,
      "Jes": 3257,
      "hot": 3258,
      "##anj": 3259,
      "##iance": 3260,
      "Warsaw": 3261,
      "##rogen": 3262,
      "sources": 3263,
      "Rhine": 3264,
      "Ber": 3265,
      "##atures": 3266,
      "characters": 3267,
      "always": 3268,
      "already": 3269,
      "communities": 3270,
      "student": 3271,
      "reject": 3272,
      "##rupt": 3273,
      "pressure": 3274,
      "Supreme": 3275,
      "kil": 3276,
      "Hall": 3277,
      "incorpor": 3278,
      "compared": 3279,
      "Tu": 3280,
      "latter": 3281,
      "Times": 3282,
      "subs": 3283,
      "Sea": 3284,
      "individuals": 3285,
      "Portuguese": 3286,
      "##acts": 3287,
      "##ocks": 3288,
      "placed": 3289,
      "agricult": 3290,
      "ill": 3291,
      "Pacific": 3292,
      "##of": 3293,
      "likely": 3294,
      "hundred": 3295,
      "better": 3296,
      "gas": 3297,
      "academ": 3298,
      "complete": 3299,
      "proposed": 3300,
      "humans": 3301,
      "imperial": 3302,
      "heavy": 3303,
      "2001": 3304,
      "Just": 3305,
      "night": 3306,
      "##lying": 3307,
      "products": 3308,
      "literature": 3309,
      "AC": 3310,
      "Dar": 3311,
      "Southern": 3312,
      "hours": 3313,
      "Sim": 3314,
      "god": 3315,
      "pattern": 3316,
      "ideas": 3317,
      "Institute": 3318,
      "programm": 3319,
      "##rect": 3320,
      "##imum": 3321,
      "becoming": 3322,
      "names": 3323,
      "monarch": 3324,
      "agreement": 3325,
      "celebr": 3326,
      "##otton": 3327,
      "Sal": 3328,
      "##hu": 3329,
      "cannot": 3330,
      "integr": 3331,
      "California": 3332,
      "Sum": 3333,
      "programs": 3334,
      "TV": 3335,
      "Khan": 3336,
      "hunting": 3337,
      "##bit": 3338,
      "300": 3339,
      "conv": 3340,
      "presence": 3341,
      "signed": 3342,
      "##anta": 3343,
      "revolution": 3344,
      "##ford": 3345,
      "Why": 3346,
      "##anning": 3347,
      "worldwide": 3348,
      "categ": 3349,
      "spok": 3350,
      "Music": 3351,
      "Treaty": 3352,
      "iP": 3353,
      "micro": 3354,
      "##ube": 3355,
      "quick": 3356,
      "helped": 3357,
      "Virgin": 3358,
      "Association": 3359,
      "ft": 3360,
      "III": 3361,
      "##ieval": 3362,
      "diss": 3363,
      "Windows": 3364,
      "##oul": 3365,
      "Polish": 3366,
      "populations": 3367,
      "prob": 3368,
      "Commission": 3369,
      "conditions": 3370,
      "80": 3371,
      "Bay": 3372,
      "units": 3373,
      "Constitution": 3374,
      "transfer": 3375,
      "fight": 3376,
      "Canadian": 3377,
      "Houston": 3378,
      "give": 3379,
      "ability": 3380,
      "conserv": 3381,
      "Pat": 3382,
      "tend": 3383,
      "County": 3384,
      "Cr": 3385,
      "inn": 3386,
      "immig": 3387,
      "treaty": 3388,
      "keep": 3389,
      "bank": 3390,
      "global": 3391,
      "##astic": 3392,
      "issue": 3393,
      "##ito": 3394,
      "summer": 3395,
      "Cypr": 3396,
      "##uman": 3397,
      "reserv": 3398,
      "##igenous": 3399,
      "vo": 3400,
      "##rate": 3401,
      "blood": 3402,
      "basis": 3403,
      "Te": 3404,
      "##mouth": 3405,
      "doct": 3406,
      "Eisenh": 3407,
      "Mor": 3408,
      "31": 3409,
      "fif": 3410,
      "appointed": 3411,
      "29": 3412,
      "cer": 3413,
      "1980s": 3414,
      "Robert": 3415,
      "antib": 3416,
      "Fort": 3417,
      "Die": 3418,
      "decre": 3419,
      "Eisenhower": 3420,
      "Qu": 3421,
      "##ching": 3422,
      "Ag": 3423,
      "NA": 3424,
      "deg": 3425,
      "notable": 3426,
      "contains": 3427,
      "performed": 3428,
      "magn": 3429,
      "compar": 3430,
      "length": 3431,
      "evolution": 3432,
      "musical": 3433,
      "##aily": 3434,
      "construct": 3435,
      "encour": 3436,
      "link": 3437,
      "Apoll": 3438,
      "stop": 3439,
      "emphas": 3440,
      "growing": 3441,
      "potential": 3442,
      "##ES": 3443,
      "##ension": 3444,
      "software": 3445,
      "Northern": 3446,
      "native": 3447,
      "##ining": 3448,
      "ver": 3449,
      "prin": 3450,
      "share": 3451,
      "Dist": 3452,
      "##ville": 3453,
      "45": 3454,
      "serve": 3455,
      "Orthodox": 3456,
      "Mc": 3457,
      "##agn": 3458,
      "##amb": 3459,
      "##uda": 3460,
      "granted": 3461,
      "Dig": 3462,
      "don": 3463,
      "##uck": 3464,
      "sequ": 3465,
      "Prem": 3466,
      "##inary": 3467,
      "chann": 3468,
      "museum": 3469,
      "competition": 3470,
      "contrast": 3471,
      "chemical": 3472,
      "defeated": 3473,
      "##ici": 3474,
      "below": 3475,
      "bound": 3476,
      "completed": 3477,
      "failed": 3478,
      "immed": 3479,
      "lic": 3480,
      "saf": 3481,
      "##key": 3482,
      "##embly": 3483,
      "benef": 3484,
      "idea": 3485,
      "jour": 3486,
      "owned": 3487,
      "##lers": 3488,
      "Despite": 3489,
      "Nor": 3490,
      "nations": 3491,
      "motor": 3492,
      "Kerry": 3493,
      "hom": 3494,
      "opt": 3495,
      "degree": 3496,
      "##atre": 3497,
      "##itude": 3498,
      "##oses": 3499,
      "dip": 3500,
      "##umn": 3501,
      "accomp": 3502,
      "1970s": 3503,
      "35": 3504,
      "reduced": 3505,
      "female": 3506,
      "##ivity": 3507,
      "residents": 3508,
      "mosa": 3509,
      "##irit": 3510,
      "##ita": 3511,
      "Protestant": 3512,
      "ball": 3513,
      "##pton": 3514,
      "oxygen": 3515,
      "90": 3516,
      "percentage": 3517,
      "behind": 3518,
      "gun": 3519,
      "decision": 3520,
      "##put": 3521,
      "applied": 3522,
      "argued": 3523,
      "Norm": 3524,
      "river": 3525,
      "families": 3526,
      "32": 3527,
      "formal": 3528,
      "ast": 3529,
      "##yt": 3530,
      "##mond": 3531,
      "decided": 3532,
      "additional": 3533,
      "assist": 3534,
      "sense": 3535,
      "##onic": 3536,
      "##ously": 3537,
      "invasion": 3538,
      "matter": 3539,
      "coin": 3540,
      "##sych": 3541,
      "effects": 3542,
      "fell": 3543,
      "rang": 3544,
      "issues": 3545,
      "Nations": 3546,
      "##ump": 3547,
      "copper": 3548,
      "territories": 3549,
      "speaking": 3550,
      "People": 3551,
      "Government": 3552,
      "Richard": 3553,
      "belief": 3554,
      "disease": 3555,
      "Aven": 3556,
      "##lies": 3557,
      "David": 3558,
      "##iff": 3559,
      "contract": 3560,
      "Department": 3561,
      "stage": 3562,
      "impact": 3563,
      "medical": 3564,
      "Ply": 3565,
      "##ether": 3566,
      "##ronic": 3567,
      "But": 3568,
      "2002": 3569,
      "ine": 3570,
      "ruled": 3571,
      "##uls": 3572,
      "noted": 3573,
      "mathem": 3574,
      "aim": 3575,
      "soldiers": 3576,
      "progress": 3577,
      "Mich": 3578,
      "##ls": 3579,
      "Imperial": 3580,
      "multiple": 3581,
      "182": 3582,
      "quant": 3583,
      "Scot": 3584,
      "definition": 3585,
      "Bill": 3586,
      "Lu": 3587,
      "##sh": 3588,
      "wides": 3589,
      "##uge": 3590,
      "complet": 3591,
      "marked": 3592,
      "solar": 3593,
      "More": 3594,
      "vote": 3595,
      "newsp": 3596,
      "shar": 3597,
      "Prince": 3598,
      "brother": 3599,
      "digital": 3600,
      "Jesus": 3601,
      "board": 3602,
      "writing": 3603,
      "question": 3604,
      "##ols": 3605,
      "compos": 3606,
      "resour": 3607,
      "tele": 3608,
      "##itness": 3609,
      "Irish": 3610,
      "Dr": 3611,
      "activities": 3612,
      "Day": 3613,
      "Football": 3614,
      "180": 3615,
      "Sever": 3616,
      "eas": 3617,
      "##olk": 3618,
      "attacks": 3619,
      "content": 3620,
      "Because": 3621,
      "cotton": 3622,
      "therefore": 3623,
      "fourth": 3624,
      "Hell": 3625,
      "Elect": 3626,
      "Sm": 3627,
      "implement": 3628,
      "##oints": 3629,
      "wee": 3630,
      "controlled": 3631,
      "perman": 3632,
      "province": 3633,
      "initially": 3634,
      "CD": 3635,
      "fle": 3636,
      "pal": 3637,
      "devices": 3638,
      "##ography": 3639,
      "hit": 3640,
      "##iami": 3641,
      "##itzer": 3642,
      "sus": 3643,
      "chief": 3644,
      "appeared": 3645,
      "gained": 3646,
      "Mont": 3647,
      "Premier": 3648,
      "##pread": 3649,
      "##otes": 3650,
      "Secret": 3651,
      "MP": 3652,
      "bur": 3653,
      "che": 3654,
      "##iage": 3655,
      "faith": 3656,
      "purpose": 3657,
      "reign": 3658,
      "metal": 3659,
      "colonial": 3660,
      "Mil": 3661,
      "##ground": 3662,
      "direction": 3663,
      "##resp": 3664,
      "believe": 3665,
      "##side": 3666,
      "##ellig": 3667,
      "contemporary": 3668,
      "whole": 3669,
      "agreed": 3670,
      "Korea": 3671,
      "Apollo": 3672,
      "400": 3673,
      "##van": 3674,
      "grew": 3675,
      "format": 3676,
      "administr": 3677,
      "spoken": 3678,
      "Turk": 3679,
      "##rim": 3680,
      "consists": 3681,
      "continue": 3682,
      "Civil": 3683,
      "Inter": 3684,
      "leaders": 3685,
      "sports": 3686,
      "element": 3687,
      "Green": 3688,
      "Bu": 3689,
      "##oples": 3690,
      "crisis": 3691,
      "mole": 3692,
      "command": 3693,
      "bacteria": 3694,
      "Pop": 3695,
      "films": 3696,
      "Class": 3697,
      "bul": 3698,
      "##FL": 3699,
      "houses": 3700,
      "derived": 3701,
      "sun": 3702,
      "Miami": 3703,
      "mission": 3704,
      "Portugal": 3705,
      "cod": 3706,
      "##ki": 3707,
      "##azi": 3708,
      "Frank": 3709,
      "district": 3710,
      "##uate": 3711,
      "DNA": 3712,
      "Scott": 3713,
      "##sen": 3714,
      "##aging": 3715,
      "##thing": 3716,
      "headqu": 3717,
      "featured": 3718,
      "shows": 3719,
      "Diego": 3720,
      "##change": 3721,
      "1990s": 3722,
      "officials": 3723,
      "widespread": 3724,
      "##istry": 3725,
      "reven": 3726,
      "overs": 3727,
      "exhib": 3728,
      "##board": 3729,
      "joined": 3730,
      "##western": 3731,
      "##inated": 3732,
      "##igation": 3733,
      "labor": 3734,
      "##TV": 3735,
      "examples": 3736,
      "quickly": 3737,
      "bor": 3738,
      "Div": 3739,
      "Cons": 3740,
      "Marsh": 3741,
      "story": 3742,
      ".)": 3743,
      "cur": 3744,
      "##ald": 3745,
      "results": 3746,
      "provides": 3747,
      "block": 3748,
      "running": 3749,
      "und": 3750,
      "von": 3751,
      "##ED": 3752,
      "Ste": 3753,
      "rules": 3754,
      "target": 3755,
      "##ampionship": 3756,
      "##roup": 3757,
      "##etroit": 3758,
      "destroyed": 3759,
      "##use": 3760,
      "bring": 3761,
      "expanded": 3762,
      "##aut": 3763,
      "Detroit": 3764,
      "store": 3765,
      "training": 3766,
      "location": 3767,
      "secondary": 3768,
      "Sir": 3769,
      "theor": 3770,
      "##arters": 3771,
      "##ieties": 3772,
      "Common": 3773,
      "Mo": 3774,
      "settlement": 3775,
      "excl": 3776,
      "property": 3777,
      "##aught": 3778,
      "Plymouth": 3779,
      "Avenue": 3780,
      "PC": 3781,
      "sal": 3782,
      "##edic": 3783,
      "Asian": 3784,
      "Florida": 3785,
      "Islands": 3786,
      "##greg": 3787,
      "songs": 3788,
      "Lord": 3789,
      "sales": 3790,
      "voc": 3791,
      "college": 3792,
      "Tibetan": 3793,
      "clubs": 3794,
      "think": 3795,
      "stru": 3796,
      "iPod": 3797,
      "Several": 3798,
      "Over": 3799,
      "##orial": 3800,
      "Force": 3801,
      "peoples": 3802,
      "##very": 3803,
      "chloropl": 3804,
      "taking": 3805,
      "##rine": 3806,
      "star": 3807,
      "lands": 3808,
      "custom": 3809,
      "wat": 3810,
      "##fall": 3811,
      "##ranium": 3812,
      "basic": 3813,
      "resistance": 3814,
      "op": 3815,
      "affil": 3816,
      "identified": 3817,
      "##15": 3818,
      "##ampton": 3819,
      "##hedral": 3820,
      "Doctor": 3821,
      "##ounts": 3822,
      "Av": 3823,
      "metropolitan": 3824,
      "represented": 3825,
      "Jack": 3826,
      "nine": 3827,
      "##12": 3828,
      "70": 3829,
      "brain": 3830,
      "1960s": 3831,
      "decline": 3832,
      "Niger": 3833,
      "shown": 3834,
      "descend": 3835,
      "minority": 3836,
      "##iations": 3837,
      "memory": 3838,
      "BBC": 3839,
      "books": 3840,
      "Switzer": 3841,
      "colonies": 3842,
      "##iting": 3843,
      "true": 3844,
      "goal": 3845,
      "compr": 3846,
      "Of": 3847,
      "respectively": 3848,
      "##rants": 3849,
      "internal": 3850,
      "despite": 3851,
      "Gold": 3852,
      "blue": 3853,
      "medic": 3854,
      "Tem": 3855,
      "##mission": 3856,
      "prominent": 3857,
      "Switzerland": 3858,
      "Sa": 3859,
      "creation": 3860,
      "look": 3861,
      "combined": 3862,
      "Academ": 3863,
      "Hay": 3864,
      "##ees": 3865,
      "##ils": 3866,
      "worked": 3867,
      "meant": 3868,
      "animal": 3869,
      "carried": 3870,
      "hap": 3871,
      "##osing": 3872,
      "allows": 3873,
      "System": 3874,
      "cyc": 3875,
      "Sen": 3876,
      "install": 3877,
      "quarter": 3878,
      "differences": 3879,
      "methods": 3880,
      "mill": 3881,
      "nov": 3882,
      "##burg": 3883,
      "##edom": 3884,
      "Qur": 3885,
      "repe": 3886,
      "adoles": 3887,
      "##hens": 3888,
      "offered": 3889,
      "review": 3890,
      "increasingly": 3891,
      "let": 3892,
      "enough": 3893,
      "neighborhood": 3894,
      "Two": 3895,
      "Bronx": 3896,
      "antenna": 3897,
      "favor": 3898,
      "##antine": 3899,
      "approach": 3900,
      "audio": 3901,
      "Catal": 3902,
      "##ading": 3903,
      "distingu": 3904,
      "Ming": 3905,
      "Palace": 3906,
      "Serv": 3907,
      "giving": 3908,
      "assum": 3909,
      "weap": 3910,
      "remaining": 3911,
      "dogs": 3912,
      "Hellen": 3913,
      "aid": 3914,
      "Trans": 3915,
      "older": 3916,
      "Dell": 3917,
      "##CA": 3918,
      "##adel": 3919,
      "Poland": 3920,
      "##rovers": 3921,
      "composed": 3922,
      "thousands": 3923,
      "##inn": 3924,
      "address": 3925,
      "cand": 3926,
      "##bed": 3927,
      "##olin": 3928,
      "supply": 3929,
      "Armenian": 3930,
      "kilomet": 3931,
      "##respond": 3932,
      "dro": 3933,
      "33": 3934,
      "psych": 3935,
      "heav": 3936,
      "##ploy": 3937,
      "Prussia": 3938,
      "Me": 3939,
      "poll": 3940,
      "vary": 3941,
      "practices": 3942,
      "Mart": 3943,
      "parliament": 3944,
      "dens": 3945,
      "##field": 3946,
      "##80": 3947,
      "Society": 3948,
      "Olympic": 3949,
      "card": 3950,
      "course": 3951,
      "Braz": 3952,
      "occupied": 3953,
      "doll": 3954,
      "republic": 3955,
      "Cont": 3956,
      "household": 3957,
      "mixed": 3958,
      "Kar": 3959,
      "secret": 3960,
      "issued": 3961,
      "recently": 3962,
      "attrib": 3963,
      "winter": 3964,
      "heart": 3965,
      "##inet": 3966,
      "bey": 3967,
      "recover": 3968,
      "grand": 3969,
      "allowing": 3970,
      "Buddhism": 3971,
      "Both": 3972,
      "##ias": 3973,
      "anthrop": 3974,
      "transmit": 3975,
      "##vin": 3976,
      "##luded": 3977,
      "workers": 3978,
      "##like": 3979,
      "Def": 3980,
      "cast": 3981,
      "sen": 3982,
      "##ortun": 3983,
      "rot": 3984,
      "correspond": 3985,
      "starting": 3986,
      "Dis": 3987,
      "makes": 3988,
      "our": 3989,
      "District": 3990,
      "withd": 3991,
      "syn": 3992,
      "detail": 3993,
      "downtown": 3994,
      "sac": 3995,
      "##azine": 3996,
      "existence": 3997,
      "Delhi": 3998,
      "##ply": 3999,
      "beyond": 4000,
      "rates": 4001,
      "indigenous": 4002,
      "efforts": 4003,
      "Best": 4004,
      "job": 4005,
      "fort": 4006,
      "critical": 4007,
      "##ective": 4008,
      "advant": 4009,
      "victory": 4010,
      "Mass": 4011,
      "effective": 4012,
      "Sax": 4013,
      "park": 4014,
      "decade": 4015,
      "temperatures": 4016,
      "Tuc": 4017,
      "organizations": 4018,
      "Tucson": 4019,
      "deep": 4020,
      "places": 4021,
      "constant": 4022,
      "refused": 4023,
      "ask": 4024,
      "##ospital": 4025,
      "recognized": 4026,
      "suggest": 4027,
      "##ett": 4028,
      "materials": 4029,
      "executive": 4030,
      "Ash": 4031,
      "frequently": 4032,
      "planned": 4033,
      "extended": 4034,
      "letter": 4035,
      "prote": 4036,
      "Play": 4037,
      "Mah": 4038,
      "round": 4039,
      "##orks": 4040,
      "Charl": 4041,
      "##oke": 4042,
      "ago": 4043,
      "flag": 4044,
      "Valenc": 4045,
      "Bal": 4046,
      "har": 4047,
      "preserv": 4048,
      "sex": 4049,
      "peak": 4050,
      "operating": 4051,
      "bal": 4052,
      "##anic": 4053,
      "Seattle": 4054,
      "accepted": 4055,
      "adj": 4056,
      "insects": 4057,
      "##rid": 4058,
      "instance": 4059,
      "Southampton": 4060,
      "Oper": 4061,
      "##rea": 4062,
      "Histor": 4063,
      "nuclear": 4064,
      "developing": 4065,
      "security": 4066,
      "Rock": 4067,
      "##BM": 4068,
      "##ros": 4069,
      "controvers": 4070,
      "esc": 4071,
      "organisms": 4072,
      "earthqu": 4073,
      "establishment": 4074,
      "Ages": 4075,
      "mut": 4076,
      "belong": 4077,
      "intended": 4078,
      "##outheast": 4079,
      "Bas": 4080,
      "##bn": 4081,
      "##aker": 4082,
      "ship": 4083,
      "transition": 4084,
      "Commit": 4085,
      "Ter": 4086,
      "##than": 4087,
      "##unicip": 4088,
      "racial": 4089,
      "article": 4090,
      "sought": 4091,
      "##ables": 4092,
      "department": 4093,
      "standards": 4094,
      "capacity": 4095,
      "##rick": 4096,
      "elections": 4097,
      "governments": 4098,
      "feed": 4099,
      "cultures": 4100,
      "wrest": 4101,
      "ther": 4102,
      "receive": 4103,
      "reduce": 4104,
      "Airport": 4105,
      "sector": 4106,
      "##hy": 4107,
      "genetic": 4108,
      "##enna": 4109,
      "measure": 4110,
      "Idol": 4111,
      "ec": 4112,
      "##och": 4113,
      "yet": 4114,
      "##uting": 4115,
      "interact": 4116,
      "Ann": 4117,
      "Im": 4118,
      "ships": 4119,
      "Nanj": 4120,
      "vill": 4121,
      "##18": 4122,
      "divers": 4123,
      "##pped": 4124,
      "interpret": 4125,
      "sover": 4126,
      "##SA": 4127,
      "Darwin": 4128,
      "##ysis": 4129,
      "Reform": 4130,
      "Byz": 4131,
      "Universal": 4132,
      "Scotland": 4133,
      "Nanjing": 4134,
      "stre": 4135,
      "county": 4136,
      "arrang": 4137,
      "suffered": 4138,
      "gather": 4139,
      "##lom": 4140,
      "##asc": 4141,
      "serious": 4142,
      "promot": 4143,
      "tribes": 4144,
      "carbon": 4145,
      "Pope": 4146,
      "code": 4147,
      "pharm": 4148,
      "raised": 4149,
      "##off": 4150,
      "##iny": 4151,
      "academic": 4152,
      "Den": 4153,
      "hop": 4154,
      "opposed": 4155,
      "uranium": 4156,
      "##14": 4157,
      "appar": 4158,
      "Hill": 4159,
      "##ael": 4160,
      "subur": 4161,
      "pi": 4162,
      "##BS": 4163,
      "prefer": 4164,
      "Cz": 4165,
      "##ming": 4166,
      "1990": 4167,
      "done": 4168,
      "fix": 4169,
      "##arct": 4170,
      "##aches": 4171,
      "reach": 4172,
      "Australian": 4173,
      "pack": 4174,
      "##oughly": 4175,
      "finally": 4176,
      "defeat": 4177,
      "Hel": 4178,
      "Christians": 4179,
      "Whitehead": 4180,
      "cerem": 4181,
      "##the": 4182,
      "simple": 4183,
      "Angel": 4184,
      "points": 4185,
      "##abad": 4186,
      "##illed": 4187,
      "hor": 4188,
      "##elt": 4189,
      "##ulated": 4190,
      "expected": 4191,
      "##ographic": 4192,
      "factors": 4193,
      "##eas": 4194,
      "Egyptian": 4195,
      "Qing": 4196,
      "importance": 4197,
      "branch": 4198,
      "##bre": 4199,
      "##intend": 4200,
      "Thus": 4201,
      "1991": 4202,
      "Modern": 4203,
      "farm": 4204,
      "mm": 4205,
      "male": 4206,
      "##hamm": 4207,
      "##erson": 4208,
      "entered": 4209,
      "attempted": 4210,
      "generation": 4211,
      "captured": 4212,
      "instruments": 4213,
      "reasons": 4214,
      "dialect": 4215,
      "mob": 4216,
      "flu": 4217,
      "playing": 4218,
      "##ibly": 4219,
      "turned": 4220,
      "zinc": 4221,
      "chall": 4222,
      "mountain": 4223,
      "necessary": 4224,
      "LED": 4225,
      "##ients": 4226,
      "Armenia": 4227,
      "##iant": 4228,
      "Christianity": 4229,
      "heat": 4230,
      "Cro": 4231,
      "cru": 4232,
      "Also": 4233,
      "objects": 4234,
      "road": 4235,
      "principle": 4236,
      "##ogen": 4237,
      "synt": 4238,
      "learning": 4239,
      "mathemat": 4240,
      "##uris": 4241,
      "enfor": 4242,
      "classes": 4243,
      "appearance": 4244,
      "Hug": 4245,
      "max": 4246,
      "speech": 4247,
      "equal": 4248,
      "purs": 4249,
      "Sat": 4250,
      "##osy": 4251,
      "showed": 4252,
      "absor": 4253,
      "##ception": 4254,
      "street": 4255,
      "decades": 4256,
      "##iques": 4257,
      "##ully": 4258,
      "km2": 4259,
      "EU": 4260,
      "Sol": 4261,
      "die": 4262,
      "lif": 4263,
      "wear": 4264,
      "slow": 4265,
      "dialects": 4266,
      "risk": 4267,
      "player": 4268,
      "Bern": 4269,
      "##ella": 4270,
      "gain": 4271,
      "##CC": 4272,
      "spl": 4273,
      "council": 4274,
      "Muslims": 4275,
      "Austria": 4276,
      "satell": 4277,
      "wild": 4278,
      "##etry": 4279,
      "limit": 4280,
      "Burke": 4281,
      "substant": 4282,
      "virt": 4283,
      "ways": 4284,
      "##ruption": 4285,
      "upd": 4286,
      "##tainment": 4287,
      "launch": 4288,
      "fields": 4289,
      "exclus": 4290,
      "75": 4291,
      "Cast": 4292,
      "section": 4293,
      "ut": 4294,
      "script": 4295,
      "Richmond": 4296,
      "Czech": 4297,
      "Festival": 4298,
      "spirit": 4299,
      "colle": 4300,
      "tur": 4301,
      "##alle": 4302,
      "##itors": 4303,
      "toward": 4304,
      "##ellect": 4305,
      "##odies": 4306,
      "permanent": 4307,
      "signal": 4308,
      "snow": 4309,
      "teaching": 4310,
      "##osis": 4311,
      "opening": 4312,
      "management": 4313,
      "elim": 4314,
      "##hing": 4315,
      "##iber": 4316,
      "traff": 4317,
      "##ifying": 4318,
      "towns": 4319,
      "wars": 4320,
      "corpor": 4321,
      "##ocracy": 4322,
      "meeting": 4323,
      "##isters": 4324,
      "resources": 4325,
      "Their": 4326,
      "##ishing": 4327,
      "match": 4328,
      "##ero": 4329,
      "influential": 4330,
      "probably": 4331,
      "iron": 4332,
      "conce": 4333,
      "phase": 4334,
      "acts": 4335,
      "simply": 4336,
      "significantly": 4337,
      "Estonia": 4338,
      "##iring": 4339,
      "Time": 4340,
      "seasons": 4341,
      "34": 4342,
      "##che": 4343,
      "##izes": 4344,
      "medieval": 4345,
      "passeng": 4346,
      "courts": 4347,
      "Brazil": 4348,
      "Techn": 4349,
      "##contin": 4350,
      "Greeks": 4351,
      "regarded": 4352,
      "subsequent": 4353,
      "cloth": 4354,
      "genes": 4355,
      "greatest": 4356,
      "Mag": 4357,
      "pan": 4358,
      "##box": 4359,
      "1999": 4360,
      "reveal": 4361,
      "paid": 4362,
      "behavior": 4363,
      "##nel": 4364,
      "##inate": 4365,
      "##hester": 4366,
      "Cam": 4367,
      "##olf": 4368,
      "179": 4369,
      "Columb": 4370,
      "labour": 4371,
      "Four": 4372,
      "##SR": 4373,
      "##abeth": 4374,
      "pron": 4375,
      "prem": 4376,
      "emerged": 4377,
      "Em": 4378,
      "extrem": 4379,
      "structures": 4380,
      "dominant": 4381,
      "damage": 4382,
      "##ault": 4383,
      "##vement": 4384,
      "flight": 4385,
      "officers": 4386,
      "USB": 4387,
      "extensive": 4388,
      "##ada": 4389,
      "ang": 4390,
      "comment": 4391,
      "note": 4392,
      "unit": 4393,
      "opposition": 4394,
      "Antarct": 4395,
      "Alexander": 4396,
      "##andon": 4397,
      "actually": 4398,
      "17th": 4399,
      "achieved": 4400,
      "Santa": 4401,
      "protection": 4402,
      "##icial": 4403,
      "device": 4404,
      "settled": 4405,
      "opportun": 4406,
      "##ceeded": 4407,
      "contest": 4408,
      "##phia": 4409,
      "dominated": 4410,
      "Prussian": 4411,
      "candid": 4412,
      "##apers": 4413,
      "news": 4414,
      "600": 4415,
      "Tenn": 4416,
      "##tered": 4417,
      "##iately": 4418,
      "##DP": 4419,
      "relay": 4420,
      "creating": 4421,
      "resident": 4422,
      "overall": 4423,
      "##insula": 4424,
      "##gor": 4425,
      "formation": 4426,
      "Joseph": 4427,
      "Rel": 4428,
      "Rad": 4429,
      "minister": 4430,
      "steam": 4431,
      "Pre": 4432,
      "mention": 4433,
      "initial": 4434,
      "##ari": 4435,
      "##ologists": 4436,
      "Philadel": 4437,
      "happen": 4438,
      "Internet": 4439,
      "charge": 4440,
      "hyp": 4441,
      "##uty": 4442,
      "arts": 4443,
      "components": 4444,
      "Tex": 4445,
      "movements": 4446,
      "inhabit": 4447,
      "flow": 4448,
      "Edward": 4449,
      "Philadelphia": 4450,
      "things": 4451,
      "explor": 4452,
      "ideal": 4453,
      "Academy": 4454,
      "##itch": 4455,
      "exam": 4456,
      "Later": 4457,
      "feel": 4458,
      "immune": 4459,
      "suggested": 4460,
      "upper": 4461,
      "authorities": 4462,
      "awarded": 4463,
      "weeks": 4464,
      "##ishop": 4465,
      "completely": 4466,
      "Tw": 4467,
      "##hetic": 4468,
      "Prime": 4469,
      "Tuval": 4470,
      "##onian": 4471,
      "beer": 4472,
      "Secretary": 4473,
      "Ca": 4474,
      "Domin": 4475,
      "census": 4476,
      "##FA": 4477,
      "infr": 4478,
      "##lighten": 4479,
      "fully": 4480,
      "##acing": 4481,
      "##ivals": 4482,
      "tex": 4483,
      "organized": 4484,
      "##osen": 4485,
      "178": 4486,
      "operation": 4487,
      "Yuan": 4488,
      "notably": 4489,
      "attention": 4490,
      "liberal": 4491,
      "route": 4492,
      "er": 4493,
      "##16": 4494,
      "artist": 4495,
      "yards": 4496,
      "##ycl": 4497,
      "plans": 4498,
      "closely": 4499,
      "acquired": 4500,
      "##ederation": 4501,
      "##irect": 4502,
      "Eliz": 4503,
      "##lightenment": 4504,
      "decor": 4505,
      "##byter": 4506,
      "Ken": 4507,
      "Organ": 4508,
      "understanding": 4509,
      "phen": 4510,
      "##ye": 4511,
      "unique": 4512,
      "positive": 4513,
      "1989": 4514,
      "ordered": 4515,
      "lin": 4516,
      "Spec": 4517,
      "historic": 4518,
      "situation": 4519,
      "draw": 4520,
      "##ansk": 4521,
      "recording": 4522,
      "Add": 4523,
      "##PA": 4524,
      "strength": 4525,
      "Lee": 4526,
      "Game": 4527,
      "That": 4528,
      "transform": 4529,
      "airport": 4530,
      "150": 4531,
      "greatly": 4532,
      "existing": 4533,
      "epis": 4534,
      "Ocean": 4535,
      "negot": 4536,
      "##aur": 4537,
      "portion": 4538,
      "policies": 4539,
      "##cription": 4540,
      "dim": 4541,
      "##40": 4542,
      "dead": 4543,
      "effort": 4544,
      "Wil": 4545,
      "##onia": 4546,
      "advanced": 4547,
      "maintained": 4548,
      "Elizabeth": 4549,
      "selling": 4550,
      "Along": 4551,
      "1997": 4552,
      "Tito": 4553,
      "ple": 4554,
      "powerful": 4555,
      "Year": 4556,
      "consequ": 4557,
      "institution": 4558,
      "ve": 4559,
      "Virginia": 4560,
      "texts": 4561,
      "CE": 4562,
      "Human": 4563,
      "Syr": 4564,
      "##ening": 4565,
      "Inc": 4566,
      "##ression": 4567,
      "treatment": 4568,
      "applications": 4569,
      "maintain": 4570,
      "revers": 4571,
      "housing": 4572,
      "Scottish": 4573,
      "##eds": 4574,
      "##olid": 4575,
      "prepar": 4576,
      "coal": 4577,
      "traditions": 4578,
      "Mark": 4579,
      "evolved": 4580,
      "Spiel": 4581,
      "extin": 4582,
      "Swiss": 4583,
      "describe": 4584,
      "denomin": 4585,
      "removed": 4586,
      "novel": 4587,
      "Goth": 4588,
      "veh": 4589,
      "##oe": 4590,
      "1998": 4591,
      "##entially": 4592,
      "##amic": 4593,
      "intellect": 4594,
      "Spielberg": 4595,
      "##ipment": 4596,
      "Science": 4597,
      "strateg": 4598,
      "Slavic": 4599,
      "##SP": 4600,
      "uns": 4601,
      "defense": 4602,
      "claims": 4603,
      "gradually": 4604,
      "operated": 4605,
      "Among": 4606,
      "volt": 4607,
      "renew": 4608,
      "ice": 4609,
      "##elligence": 4610,
      "Bapt": 4611,
      "Further": 4612,
      "career": 4613,
      "Jackson": 4614,
      "mis": 4615,
      "covered": 4616,
      "autom": 4617,
      "Az": 4618,
      "newly": 4619,
      "frequency": 4620,
      "##ulate": 4621,
      "Early": 4622,
      "Turkish": 4623,
      "##wer": 4624,
      "##BI": 4625,
      "degre": 4626,
      "abandon": 4627,
      "Committee": 4628,
      "degrees": 4629,
      "Int": 4630,
      "Persian": 4631,
      "surrounding": 4632,
      "municip": 4633,
      "##ris": 4634,
      "Ira": 4635,
      "daily": 4636,
      "##oud": 4637,
      "experi": 4638,
      "##oral": 4639,
      "providing": 4640,
      "subsequently": 4641,
      "Pak": 4642,
      "##17": 4643,
      "BCE": 4644,
      "punk": 4645,
      "##rel": 4646,
      "Freder": 4647,
      "175": 4648,
      "Dan": 4649,
      "wave": 4650,
      "##be": 4651,
      "isol": 4652,
      "refers": 4653,
      "presented": 4654,
      "kept": 4655,
      "constructed": 4656,
      "earthquake": 4657,
      "Tod": 4658,
      "##orage": 4659,
      "##istered": 4660,
      "Barcel": 4661,
      "distribution": 4662,
      "Barcelona": 4663,
      "##ua": 4664,
      "##iment": 4665,
      "##vert": 4666,
      "negative": 4667,
      "image": 4668,
      "Public": 4669,
      "inher": 4670,
      "encod": 4671,
      "Holy": 4672,
      "headquarters": 4673,
      "##ilding": 4674,
      "Nintend": 4675,
      "##oslav": 4676,
      "avoid": 4677,
      "alternative": 4678,
      "split": 4679,
      "Mid": 4680,
      "vast": 4681,
      "##ST": 4682,
      "##het": 4683,
      "inj": 4684,
      "prey": 4685,
      "listed": 4686,
      "##iary": 4687,
      "##attan": 4688,
      "Hyder": 4689,
      "Justice": 4690,
      "strugg": 4691,
      "FA": 4692,
      "##oys": 4693,
      "Carn": 4694,
      "slaves": 4695,
      "formerly": 4696,
      "##stream": 4697,
      "tried": 4698,
      "Chief": 4699,
      "adult": 4700,
      "affected": 4701,
      "Records": 4702,
      "hydrogen": 4703,
      "Nintendo": 4704,
      "Micro": 4705,
      "bill": 4706,
      "lamp": 4707,
      "shared": 4708,
      "Georg": 4709,
      "electrical": 4710,
      "mind": 4711,
      "contact": 4712,
      "coup": 4713,
      "Korean": 4714,
      "friends": 4715,
      "##rd": 4716,
      "##grad": 4717,
      "scientists": 4718,
      "ancestry": 4719,
      "Iraq": 4720,
      "Ev": 4721,
      "gall": 4722,
      "exchange": 4723,
      "respond": 4724,
      "##castle": 4725,
      "friend": 4726,
      "rejected": 4727,
      "proport": 4728,
      "##ranean": 4729,
      "adapt": 4730,
      "application": 4731,
      "Hot": 4732,
      "roughly": 4733,
      "concert": 4734,
      "facilities": 4735,
      "Governor": 4736,
      "mandolin": 4737,
      "HD": 4738,
      "comes": 4739,
      "winning": 4740,
      "Newcastle": 4741,
      "1950s": 4742,
      "Group": 4743,
      "##iar": 4744,
      "##BA": 4745,
      "##aser": 4746,
      "##usal": 4747,
      "suc": 4748,
      "floor": 4749,
      "characteristics": 4750,
      "Arabic": 4751,
      "conducted": 4752,
      "alone": 4753,
      "##teen": 4754,
      "label": 4755,
      "Educ": 4756,
      "Los": 4757,
      "fought": 4758,
      "Broad": 4759,
      "Ben": 4760,
      "##itage": 4761,
      "machine": 4762,
      "Nether": 4763,
      "Lod": 4764,
      "fifth": 4765,
      "Gall": 4766,
      "nomin": 4767,
      "recomm": 4768,
      "equipment": 4769,
      "##ensions": 4770,
      "values": 4771,
      "arrived": 4772,
      "##isco": 4773,
      "Hisp": 4774,
      "Philip": 4775,
      "literary": 4776,
      "determined": 4777,
      "Hung": 4778,
      "Lake": 4779,
      "fear": 4780,
      "##iano": 4781,
      "defend": 4782,
      "administrative": 4783,
      "Bank": 4784,
      "##icles": 4785,
      "relative": 4786,
      "16th": 4787,
      "Fin": 4788,
      "##mark": 4789,
      "fundament": 4790,
      "Somali": 4791,
      "Kath": 4792,
      "Hayek": 4793,
      "##osure": 4794,
      "properties": 4795,
      "##ifically": 4796,
      "Conn": 4797,
      "Mountains": 4798,
      "Hyderabad": 4799,
      "Sand": 4800,
      "Up": 4801,
      "lingu": 4802,
      "Alask": 4803,
      "connected": 4804,
      "##iciency": 4805,
      "##hammad": 4806,
      "vide": 4807,
      "##za": 4808,
      "extent": 4809,
      "advantage": 4810,
      "Merc": 4811,
      "Sansk": 4812,
      "##ola": 4813,
      "##ocated": 4814,
      "spect": 4815,
      "union": 4816,
      "Valley": 4817,
      "Marshall": 4818,
      "Sub": 4819,
      "politics": 4820,
      "environmental": 4821,
      "Sanskrit": 4822,
      "feet": 4823,
      "brief": 4824,
      "Club": 4825,
      "##iterranean": 4826,
      "incorporated": 4827,
      "Cyprus": 4828,
      "Byzantine": 4829,
      "Each": 4830,
      "Arts": 4831,
      "magazine": 4832,
      "Tenness": 4833,
      "stores": 4834,
      "enem": 4835,
      "phon": 4836,
      "autonom": 4837,
      "##wan": 4838,
      "leaving": 4839,
      "techniques": 4840,
      "orientation": 4841,
      "heavily": 4842,
      "Tuvalu": 4843,
      "takes": 4844,
      "spring": 4845,
      "##ste": 4846,
      "##umen": 4847,
      "##sole": 4848,
      "commission": 4849,
      "analysis": 4850,
      "rapidly": 4851,
      "38": 4852,
      "scre": 4853,
      "Libya": 4854,
      "dedic": 4855,
      "##va": 4856,
      "leadership": 4857,
      "##senal": 4858,
      "rival": 4859,
      "##osh": 4860,
      "communication": 4861,
      "traffic": 4862,
      "Order": 4863,
      "depart": 4864,
      "viewed": 4865,
      "Mexican": 4866,
      "antibiot": 4867,
      "Berm": 4868,
      "Native": 4869,
      "##mosp": 4870,
      "##haps": 4871,
      "Stadium": 4872,
      "philosop": 4873,
      "Square": 4874,
      "foot": 4875,
      "Three": 4876,
      "closed": 4877,
      "married": 4878,
      "rein": 4879,
      "##itionally": 4880,
      "Assembly": 4881,
      "##ety": 4882,
      "##hesis": 4883,
      "possess": 4884,
      "sport": 4885,
      "Through": 4886,
      "causes": 4887,
      "innov": 4888,
      "journal": 4889,
      "FBI": 4890,
      "##13": 4891,
      "##ext": 4892,
      "contributed": 4893,
      "Harv": 4894,
      "Romans": 4895,
      "Raj": 4896,
      "##uj": 4897,
      "prison": 4898,
      "cycle": 4899,
      "Hin": 4900,
      "##onn": 4901,
      "1994": 4902,
      "marriage": 4903,
      "Viet": 4904,
      "table": 4905,
      "##den": 4906,
      "78": 4907,
      "titles": 4908,
      "##alia": 4909,
      "##ician": 4910,
      "users": 4911,
      "emperor": 4912,
      "runs": 4913,
      "clothing": 4914,
      "juris": 4915,
      "projects": 4916,
      "Presbyter": 4917,
      "Mediterranean": 4918,
      "##wealth": 4919,
      "essential": 4920,
      "Division": 4921,
      "dance": 4922,
      "##gest": 4923,
      "classified": 4924,
      "equival": 4925,
      "visited": 4926,
      "figures": 4927,
      "##ache": 4928,
      "Tennessee": 4929,
      "Camp": 4930,
      "wife": 4931,
      "##eston": 4932,
      "perce": 4933,
      "defence": 4934,
      "proved": 4935,
      "1992": 4936,
      "patent": 4937,
      "##ymn": 4938,
      "exerc": 4939,
      "price": 4940,
      "##issance": 4941,
      "theories": 4942,
      "1996": 4943,
      "functions": 4944,
      "vacu": 4945,
      "operate": 4946,
      "##gger": 4947,
      "manufacturing": 4948,
      "37": 4949,
      "VI": 4950,
      "##ishes": 4951,
      "continues": 4952,
      "normal": 4953,
      "inspired": 4954,
      "letters": 4955,
      "inhabitants": 4956,
      "Maced": 4957,
      "##inces": 4958,
      "Democratic": 4959,
      "weapons": 4960,
      "ce": 4961,
      "nut": 4962,
      "spent": 4963,
      "neut": 4964,
      "actual": 4965,
      "freedom": 4966,
      "occurs": 4967,
      "Book": 4968,
      "pure": 4969,
      "##itable": 4970,
      "##ecutive": 4971,
      "pros": 4972,
      "favour": 4973,
      "Social": 4974,
      "gard": 4975,
      "##orters": 4976,
      "staff": 4977,
      "Independ": 4978,
      "popularity": 4979,
      "Dame": 4980,
      "inside": 4981,
      "newspaper": 4982,
      "mom": 4983,
      "##more": 4984,
      "##iced": 4985,
      "##yright": 4986,
      "document": 4987,
      "adolesc": 4988,
      "wanted": 4989,
      "trial": 4990,
      "177": 4991,
      "##tr": 4992,
      "##mand": 4993,
      "approved": 4994,
      "ultimately": 4995,
      "double": 4996,
      "Duke": 4997,
      "##wise": 4998,
      "seg": 4999,
      "emerg": 5000,
      "twent": 5001,
      "fast": 5002,
      "##osexual": 5003,
      "discip": 5004,
      "propos": 5005,
      "architectural": 5006,
      "Office": 5007,
      "Texas": 5008,
      "##overs": 5009,
      "box": 5010,
      "refere": 5011,
      "traditionally": 5012,
      "##warz": 5013,
      "Major": 5014,
      "daugh": 5015,
      "Near": 5016,
      "egg": 5017,
      "##ef": 5018,
      "##icians": 5019,
      "weight": 5020,
      "##hou": 5021,
      "factor": 5022,
      "holds": 5023,
      "Anglo": 5024,
      "Today": 5025,
      "##ners": 5026,
      "milit": 5027,
      "Method": 5028,
      "doctrine": 5029,
      "Pakistan": 5030,
      "harm": 5031,
      "##miss": 5032,
      "failure": 5033,
      "##hol": 5034,
      "##lig": 5035,
      "atmosp": 5036,
      "Princ": 5037,
      "density": 5038,
      "##chest": 5039,
      "spend": 5040,
      "constitutional": 5041,
      "bud": 5042,
      "Arsenal": 5043,
      "studio": 5044,
      "USA": 5045,
      "Commonwealth": 5046,
      "nick": 5047,
      "##uters": 5048,
      "Child": 5049,
      "whereas": 5050,
      "crime": 5051,
      "employed": 5052,
      "actions": 5053,
      "diverse": 5054,
      "Found": 5055,
      "dark": 5056,
      "woman": 5057,
      "##house": 5058,
      "director": 5059,
      "adopt": 5060,
      "##icted": 5061,
      "##raf": 5062,
      "Enlightenment": 5063,
      "seem": 5064,
      "drive": 5065,
      "Philipp": 5066,
      "ven": 5067,
      "governor": 5068,
      "requires": 5069,
      "entirely": 5070,
      "Navy": 5071,
      "face": 5072,
      "##ship": 5073,
      "colony": 5074,
      "improved": 5075,
      "regarding": 5076,
      "symbol": 5077,
      "##iform": 5078,
      "managed": 5079,
      "120": 5080,
      "##edy": 5081,
      "seek": 5082,
      "##ressed": 5083,
      "migration": 5084,
      "inequ": 5085,
      "65": 5086,
      "##YU": 5087,
      "step": 5088,
      "occasion": 5089,
      "Quran": 5090,
      "43": 5091,
      "taught": 5092,
      "zone": 5093,
      "moving": 5094,
      "Schwarz": 5095,
      "Pan": 5096,
      "sust": 5097,
      "chosen": 5098,
      "apart": 5099,
      "##ao": 5100,
      "principles": 5101,
      "converted": 5102,
      "39": 5103,
      "Long": 5104,
      "banks": 5105,
      "Pen": 5106,
      "Tai": 5107,
      "##aped": 5108,
      "channel": 5109,
      "44": 5110,
      "Pun": 5111,
      "online": 5112,
      "##anner": 5113,
      "diplom": 5114,
      "Census": 5115,
      "Fil": 5116,
      "##down": 5117,
      "trading": 5118,
      "55": 5119,
      "Go": 5120,
      "il": 5121,
      "convers": 5122,
      "##phone": 5123,
      "Buddhist": 5124,
      "intellectual": 5125,
      "Age": 5126,
      "rural": 5127,
      "##60": 5128,
      "##lem": 5129,
      "##ugoslav": 5130,
      "dram": 5131,
      "slight": 5132,
      "Netherlands": 5133,
      "Like": 5134,
      "selection": 5135,
      "##ux": 5136,
      "##enegger": 5137,
      "Notre": 5138,
      "immediately": 5139,
      "maximum": 5140,
      "Schwarzenegger": 5141,
      "tree": 5142,
      "teachers": 5143,
      "storage": 5144,
      "reference": 5145,
      "versions": 5146,
      "extremely": 5147,
      "secular": 5148,
      "styles": 5149,
      "expressed": 5150,
      "BYU": 5151,
      "ign": 5152,
      "##inals": 5153,
      "models": 5154,
      "Kn": 5155,
      "Lab": 5156,
      "legislation": 5157,
      "translation": 5158,
      "etc": 5159,
      "Vietn": 5160,
      "rich": 5161,
      "ones": 5162,
      "correct": 5163,
      "##ipped": 5164,
      "component": 5165,
      "My": 5166,
      "Uk": 5167,
      "Xbox": 5168,
      "##imal": 5169,
      "spons": 5170,
      "speakers": 5171,
      "Yugoslav": 5172,
      "##ancy": 5173,
      "Brown": 5174,
      "display": 5175,
      "Catalan": 5176,
      "drop": 5177,
      "##lines": 5178,
      "##velopment": 5179,
      "attacked": 5180,
      "drugs": 5181,
      "Rail": 5182,
      "Sur": 5183,
      "##cement": 5184,
      "##illa": 5185,
      "indu": 5186,
      "discovery": 5187,
      "##uen": 5188,
      "##ato": 5189,
      "formally": 5190,
      "declined": 5191,
      "introduction": 5192,
      "800": 5193,
      "Between": 5194,
      "##ellow": 5195,
      "Michael": 5196,
      "experienced": 5197,
      "Zeal": 5198,
      "cab": 5199,
      "Kathmand": 5200,
      "Ukrain": 5201,
      "Bible": 5202,
      "Sing": 5203,
      "armed": 5204,
      "height": 5205,
      "##ologies": 5206,
      "library": 5207,
      "GDP": 5208,
      "##rich": 5209,
      "1970": 5210,
      "Angeles": 5211,
      "Hindu": 5212,
      "##opol": 5213,
      "cold": 5214,
      "periods": 5215,
      "demand": 5216,
      "Gothic": 5217,
      "Education": 5218,
      "ir": 5219,
      "tun": 5220,
      "##ped": 5221,
      "stadium": 5222,
      "2016": 5223,
      "vacuum": 5224,
      "Zealand": 5225,
      "()": 5226,
      "Jer": 5227,
      "Peter": 5228,
      "serving": 5229,
      "##encing": 5230,
      "difference": 5231,
      "Microso": 5232,
      "Kathmandu": 5233,
      "##ione": 5234,
      "touch": 5235,
      "Research": 5236,
      "depending": 5237,
      "Sl": 5238,
      "Sky": 5239,
      "##ka": 5240,
      "##ican": 5241,
      "##avel": 5242,
      "infect": 5243,
      "1979": 5244,
      "Manh": 5245,
      "satellite": 5246,
      "48": 5247,
      "som": 5248,
      "##uing": 5249,
      "accur": 5250,
      "offices": 5251,
      "permit": 5252,
      "investig": 5253,
      "provinces": 5254,
      "slave": 5255,
      "Muhammad": 5256,
      "Stat": 5257,
      "Though": 5258,
      "movie": 5259,
      "broke": 5260,
      "concluded": 5261,
      "principal": 5262,
      "##III": 5263,
      "reforms": 5264,
      "Wal": 5265,
      "bands": 5266,
      "##gun": 5267,
      "##arrow": 5268,
      "enj": 5269,
      "debate": 5270,
      "revealed": 5271,
      "Microsoft": 5272,
      "Land": 5273,
      "teach": 5274,
      "Germanic": 5275,
      "affect": 5276,
      "Awards": 5277,
      "nom": 5278,
      "abol": 5279,
      "1940": 5280,
      "causing": 5281,
      "mosaic": 5282,
      "cas": 5283,
      "##ping": 5284,
      "##gress": 5285,
      "output": 5286,
      "achieve": 5287,
      "Manhattan": 5288,
      "cool": 5289,
      "##uration": 5290,
      "successfully": 5291,
      "Martin": 5292,
      "Bus": 5293,
      "tu": 5294,
      "allies": 5295,
      "stress": 5296,
      "educational": 5297,
      "1988": 5298,
      "Swed": 5299,
      "Germans": 5300,
      "1995": 5301,
      "room": 5302,
      "Croat": 5303,
      "Song": 5304,
      "reports": 5305,
      "crop": 5306,
      "mess": 5307,
      "ring": 5308,
      "Mill": 5309,
      "##urai": 5310,
      "News": 5311,
      "Comcast": 5312,
      "Ashken": 5313,
      "master": 5314,
      "##rations": 5315,
      "silver": 5316,
      "cry": 5317,
      "diet": 5318,
      "mort": 5319,
      "##atically": 5320,
      "##ano": 5321,
      "agriculture": 5322,
      "Free": 5323,
      "##ga": 5324,
      "Newton": 5325,
      "measures": 5326,
      "Nigeria": 5327,
      "lives": 5328,
      "naval": 5329,
      "##cer": 5330,
      "continent": 5331,
      "wall": 5332,
      "contained": 5333,
      "restrict": 5334,
      "Freem": 5335,
      "Alaska": 5336,
      "00": 5337,
      "Ep": 5338,
      "obt": 5339,
      "Hun": 5340,
      "san": 5341,
      "sites": 5342,
      "##cing": 5343,
      "nearby": 5344,
      "exception": 5345,
      "licens": 5346,
      "##atch": 5347,
      "##irmed": 5348,
      "typical": 5349,
      "attempts": 5350,
      "##mir": 5351,
      "directed": 5352,
      "Amaz": 5353,
      "volume": 5354,
      "saying": 5355,
      "Nob": 5356,
      "sell": 5357,
      "##imon": 5358,
      "plat": 5359,
      "Theatre": 5360,
      "alt": 5361,
      "discrim": 5362,
      "producer": 5363,
      "dedicated": 5364,
      "Neum": 5365,
      "mel": 5366,
      "Library": 5367,
      "predomin": 5368,
      "focused": 5369,
      "honor": 5370,
      "Norman": 5371,
      "##road": 5372,
      "surre": 5373,
      "producing": 5374,
      "core": 5375,
      "##ini": 5376,
      "transmission": 5377,
      "parents": 5378,
      "protest": 5379,
      "1945": 5380,
      "Republican": 5381,
      "Manch": 5382,
      "49": 5383,
      "Vi": 5384,
      "dates": 5385,
      "felt": 5386,
      "##iana": 5387,
      "##erve": 5388,
      "Constant": 5389,
      "##cules": 5390,
      "Miss": 5391,
      "sq": 5392,
      "deploy": 5393,
      "paralle": 5394,
      "promoted": 5395,
      "relationships": 5396,
      "mamm": 5397,
      "##mn": 5398,
      "##erate": 5399,
      "Road": 5400,
      "figure": 5401,
      "revenue": 5402,
      "IBM": 5403,
      "Life": 5404,
      "fat": 5405,
      "processes": 5406,
      "##attles": 5407,
      "fighting": 5408,
      "##orter": 5409,
      "##ulpt": 5410,
      "leave": 5411,
      "foundation": 5412,
      "views": 5413,
      "audience": 5414,
      "47": 5415,
      "##ichuan": 5416,
      "positions": 5417,
      "distance": 5418,
      "annually": 5419,
      "distinction": 5420,
      "originated": 5421,
      "engineering": 5422,
      "voltage": 5423,
      "Hong": 5424,
      "##agon": 5425,
      "markets": 5426,
      "connection": 5427,
      "coastal": 5428,
      "repeated": 5429,
      "52": 5430,
      "##etr": 5431,
      "console": 5432,
      "unp": 5433,
      "appoint": 5434,
      "biological": 5435,
      "burn": 5436,
      "lat": 5437,
      "Station": 5438,
      "Tor": 5439,
      "dry": 5440,
      "compounds": 5441,
      "weak": 5442,
      "Erit": 5443,
      "Sil": 5444,
      "bodies": 5445,
      "mur": 5446,
      "##ii": 5447,
      "containing": 5448,
      "retail": 5449,
      "copyright": 5450,
      "fundamental": 5451,
      "64": 5452,
      "Sony": 5453,
      "pict": 5454,
      "##ogue": 5455,
      "Arist": 5456,
      "Beij": 5457,
      "astron": 5458,
      "Valencia": 5459,
      "Huguen": 5460,
      "Os": 5461,
      "gene": 5462,
      "choice": 5463,
      "##hat": 5464,
      "##isted": 5465,
      "##ocide": 5466,
      "Iranian": 5467,
      "Rena": 5468,
      "##ca": 5469,
      "alle": 5470,
      "invented": 5471,
      "networks": 5472,
      "Wales": 5473,
      "philosoph": 5474,
      "demonstrated": 5475,
      "jurisd": 5476,
      "joint": 5477,
      "##ayer": 5478,
      "efficient": 5479,
      "going": 5480,
      "Alexand": 5481,
      "schem": 5482,
      "lowest": 5483,
      "kilometres": 5484,
      "dropped": 5485,
      "Pant": 5486,
      "##11": 5487,
      "##ours": 5488,
      "Ham": 5489,
      "Ob": 5490,
      "Power": 5491,
      "##mph": 5492,
      "amb": 5493,
      "combination": 5494,
      "credit": 5495,
      "homes": 5496,
      "sides": 5497,
      "##roc": 5498,
      "sug": 5499,
      "Health": 5500,
      "medicine": 5501,
      "Nam": 5502,
      "hands": 5503,
      "advert": 5504,
      "serves": 5505,
      "longest": 5506,
      "enjoy": 5507,
      "Beijing": 5508,
      "cle": 5509,
      "sacr": 5510,
      "##erts": 5511,
      "invent": 5512,
      "Neumann": 5513,
      "##St": 5514,
      "##ument": 5515,
      "renamed": 5516,
      "Tower": 5517,
      "CBS": 5518,
      "external": 5519,
      "collabor": 5520,
      "consumption": 5521,
      "diversity": 5522,
      "sam": 5523,
      "##eed": 5524,
      "##akh": 5525,
      "##rone": 5526,
      "publication": 5527,
      "limits": 5528,
      "concerns": 5529,
      "##ria": 5530,
      "##era": 5531,
      "stone": 5532,
      "plays": 5533,
      "Nept": 5534,
      "goods": 5535,
      "Bermuda": 5536,
      "surrender": 5537,
      "matches": 5538,
      "historians": 5539,
      "inequality": 5540,
      "So": 5541,
      "rose": 5542,
      "##olt": 5543,
      "alco": 5544,
      "colleges": 5545,
      "##stein": 5546,
      "budget": 5547,
      "webs": 5548,
      "simpl": 5549,
      "phenomen": 5550,
      "Lad": 5551,
      "Sund": 5552,
      "samp": 5553,
      "##ologist": 5554,
      "capable": 5555,
      "writers": 5556,
      "Estonian": 5557,
      "Service": 5558,
      "Award": 5559,
      "cable": 5560,
      "compl": 5561,
      "subjects": 5562,
      "technical": 5563,
      "observed": 5564,
      "agencies": 5565,
      "##alend": 5566,
      "retained": 5567,
      "##ropical": 5568,
      "effectively": 5569,
      "mountains": 5570,
      "manufactur": 5571,
      "46": 5572,
      "42": 5573,
      "Wall": 5574,
      "aro": 5575,
      "##chers": 5576,
      "Conference": 5577,
      "safety": 5578,
      "sculpt": 5579,
      "preced": 5580,
      "grant": 5581,
      "strate": 5582,
      "separated": 5583,
      "merch": 5584,
      "Presbyterian": 5585,
      "##wh": 5586,
      "strongly": 5587,
      "fleet": 5588,
      "Bush": 5589,
      "176": 5590,
      "teacher": 5591,
      "##oo": 5592,
      "societies": 5593,
      "visible": 5594,
      "penal": 5595,
      "##theless": 5596,
      "##iable": 5597,
      "perhaps": 5598,
      "Fl": 5599,
      "hosted": 5600,
      "conquered": 5601,
      "Harvard": 5602,
      "strategy": 5603,
      "Jul": 5604,
      "##30": 5605,
      "constit": 5606,
      "Northwestern": 5607,
      "standing": 5608,
      "1930s": 5609,
      "considerable": 5610,
      "##iy": 5611,
      "##SC": 5612,
      "1985": 5613,
      "##ashion": 5614,
      "experiment": 5615,
      "sle": 5616,
      "##bur": 5617,
      "send": 5618,
      "##ricts": 5619,
      "investment": 5620,
      "fest": 5621,
      "##yp": 5622,
      "immigrants": 5623,
      "##umin": 5624,
      "electricity": 5625,
      "Due": 5626,
      "dang": 5627,
      "firm": 5628,
      "chair": 5629,
      "efficiency": 5630,
      "copies": 5631,
      "circum": 5632,
      "precip": 5633,
      "Renaissance": 5634,
      "Field": 5635,
      "##otic": 5636,
      "procl": 5637,
      "Championship": 5638,
      "founding": 5639,
      "armies": 5640,
      "##itt": 5641,
      "Stand": 5642,
      "initi": 5643,
      "Charleston": 5644,
      "Econom": 5645,
      "fair": 5646,
      "##TO": 5647,
      "attended": 5648,
      "therm": 5649,
      "95": 5650,
      "races": 5651,
      "Russians": 5652,
      "resear": 5653,
      "##ailed": 5654,
      "##pression": 5655,
      "Cop": 5656,
      "Corpor": 5657,
      "Town": 5658,
      "items": 5659,
      "Anc": 5660,
      "severe": 5661,
      "Before": 5662,
      "doub": 5663,
      "Senate": 5664,
      "moment": 5665,
      "Mem": 5666,
      "squ": 5667,
      "forming": 5668,
      "corruption": 5669,
      "1950": 5670,
      "solid": 5671,
      "Don": 5672,
      "otherwise": 5673,
      "association": 5674,
      "asked": 5675,
      "equivalent": 5676,
      "Er": 5677,
      "narrow": 5678,
      "##ura": 5679,
      "specifically": 5680,
      "depos": 5681,
      "fres": 5682,
      "laid": 5683,
      "##state": 5684,
      "##eces": 5685,
      "##ultan": 5686,
      "crew": 5687,
      "membership": 5688,
      "immun": 5689,
      "multi": 5690,
      "opin": 5691,
      "bran": 5692,
      "##reg": 5693,
      "##licit": 5694,
      "setting": 5695,
      "##cher": 5696,
      "##ois": 5697,
      "##bury": 5698,
      "Billboard": 5699,
      "Southeast": 5700,
      "shif": 5701,
      "acid": 5702,
      "testing": 5703,
      "subsid": 5704,
      "agricultural": 5705,
      "##udes": 5706,
      "Chap": 5707,
      "##ureau": 5708,
      "360": 5709,
      "rare": 5710,
      "##ih": 5711,
      "##ien": 5712,
      "Command": 5713,
      "Turkey": 5714,
      "consisting": 5715,
      "palace": 5716,
      "Hellenistic": 5717,
      "XX": 5718,
      "medium": 5719,
      "annex": 5720,
      "persons": 5721,
      "railway": 5722,
      "Cubs": 5723,
      "aspects": 5724,
      "streets": 5725,
      "Neptune": 5726,
      "battles": 5727,
      "##fect": 5728,
      "12th": 5729,
      "Abd": 5730,
      "determine": 5731,
      "Communist": 5732,
      "prices": 5733,
      "glac": 5734,
      "reaction": 5735,
      "Games": 5736,
      "##hedul": 5737,
      "scene": 5738,
      "neighbour": 5739,
      "daughter": 5740,
      "raid": 5741,
      "1939": 5742,
      "Francisco": 5743,
      "fuel": 5744,
      "##unc": 5745,
      "##ectic": 5746,
      "##achus": 5747,
      "drink": 5748,
      "industries": 5749,
      "motion": 5750,
      "Frederick": 5751,
      "somew": 5752,
      "99": 5753,
      "Even": 5754,
      "##urt": 5755,
      "1993": 5756,
      "possibly": 5757,
      "NBC": 5758,
      "Win": 5759,
      "##roph": 5760,
      "##uses": 5761,
      "instrument": 5762,
      "municipal": 5763,
      "Such": 5764,
      "Tele": 5765,
      "##ims": 5766,
      "pra": 5767,
      "arms": 5768,
      "consc": 5769,
      "elevator": 5770,
      "patterns": 5771,
      "##acks": 5772,
      "write": 5773,
      "purposes": 5774,
      "##well": 5775,
      "seat": 5776,
      "indicate": 5777,
      "kingdoms": 5778,
      "borough": 5779,
      "substantial": 5780,
      "update": 5781,
      "##oa": 5782,
      "mentioned": 5783,
      "700": 5784,
      "Je": 5785,
      "habit": 5786,
      "pair": 5787,
      "wire": 5788,
      "##edd": 5789,
      "expensive": 5790,
      "restaur": 5791,
      "characterized": 5792,
      "condition": 5793,
      "selected": 5794,
      "##ala": 5795,
      "lies": 5796,
      "##oring": 5797,
      "##ighter": 5798,
      "alongside": 5799,
      "presidential": 5800,
      "##unications": 5801,
      "##EC": 5802,
      "##itnesses": 5803,
      "Aristot": 5804,
      "Ox": 5805,
      "exped": 5806,
      "benefit": 5807,
      "withdraw": 5808,
      "##amin": 5809,
      "scen": 5810,
      "supporters": 5811,
      "goals": 5812,
      "combat": 5813,
      "nobility": 5814,
      "##utation": 5815,
      "weather": 5816,
      "Hispanic": 5817,
      "##know": 5818,
      "##oting": 5819,
      "continental": 5820,
      "universal": 5821,
      "Athan": 5822,
      "becomes": 5823,
      "violence": 5824,
      "generated": 5825,
      "computers": 5826,
      "context": 5827,
      "decisions": 5828,
      "treaties": 5829,
      "Pu": 5830,
      "Ut": 5831,
      "eld": 5832,
      "##apes": 5833,
      "chain": 5834,
      "regime": 5835,
      "sole": 5836,
      "funding": 5837,
      "semi": 5838,
      "Rights": 5839,
      "nort": 5840,
      "##aring": 5841,
      "##ador": 5842,
      "##emic": 5843,
      "##unction": 5844,
      "pil": 5845,
      "pet": 5846,
      "onto": 5847,
      "Leg": 5848,
      "152": 5849,
      "minutes": 5850,
      "origins": 5851,
      "1974": 5852,
      "Belg": 5853,
      "Athanas": 5854,
      "Balk": 5855,
      "Card": 5856,
      "##ersey": 5857,
      "studied": 5858,
      "Wood": 5859,
      "calend": 5860,
      "##ses": 5861,
      "##itar": 5862,
      "##omic": 5863,
      "##ado": 5864,
      "sciences": 5865,
      "schedul": 5866,
      "theme": 5867,
      "funds": 5868,
      "absol": 5869,
      "losses": 5870,
      "du": 5871,
      "massive": 5872,
      "Aut": 5873,
      "Ta": 5874,
      "cam": 5875,
      "nor": 5876,
      "##arn": 5877,
      "##rehens": 5878,
      "##agement": 5879,
      "desert": 5880,
      "electron": 5881,
      "##ram": 5882,
      "variation": 5883,
      "neutral": 5884,
      "Fox": 5885,
      "Love": 5886,
      "Spe": 5887,
      "gir": 5888,
      "train": 5889,
      "##ographical": 5890,
      "improve": 5891,
      "twice": 5892,
      "Bra": 5893,
      "##avery": 5894,
      "##bey": 5895,
      "##esides": 5896,
      "slavery": 5897,
      "breed": 5898,
      "accompan": 5899,
      "strict": 5900,
      "##ibb": 5901,
      "linked": 5902,
      "DC": 5903,
      "Ven": 5904,
      "liqu": 5905,
      "13th": 5906,
      "featuring": 5907,
      "reduction": 5908,
      "##stone": 5909,
      "1986": 5910,
      "practical": 5911,
      "orders": 5912,
      "succeeded": 5913,
      "##ifications": 5914,
      "refuge": 5915,
      "##cos": 5916,
      "##oz": 5917,
      "##usc": 5918,
      "##inally": 5919,
      "##eyn": 5920,
      "survey": 5921,
      "settlers": 5922,
      "thousand": 5923,
      "##Tube": 5924,
      "##ushed": 5925,
      "publish": 5926,
      "concerned": 5927,
      "YouTube": 5928,
      "Tom": 5929,
      "voted": 5930,
      "##asions": 5931,
      "worth": 5932,
      "usage": 5933,
      "offers": 5934,
      "driven": 5935,
      "critics": 5936,
      "Conserv": 5937,
      "##ider": 5938,
      "protests": 5939,
      "Development": 5940,
      "calcul": 5941,
      "gods": 5942,
      "encouraged": 5943,
      "Carnival": 5944,
      "54": 5945,
      "authors": 5946,
      "protein": 5947,
      "73": 5948,
      "hub": 5949,
      "pig": 5950,
      "enrol": 5951,
      "Greater": 5952,
      "Namib": 5953,
      "Gard": 5954,
      "Penn": 5955,
      "##inity": 5956,
      "shift": 5957,
      "useful": 5958,
      "##aleigh": 5959,
      "districts": 5960,
      "##mitted": 5961,
      "conquest": 5962,
      "Myan": 5963,
      "Raleigh": 5964,
      "soul": 5965,
      "##aming": 5966,
      "notes": 5967,
      "interv": 5968,
      "founder": 5969,
      "Berlin": 5970,
      "Similar": 5971,
      "Cross": 5972,
      "cm": 5973,
      "kings": 5974,
      "diseases": 5975,
      "coming": 5976,
      "exact": 5977,
      "appears": 5978,
      "biggest": 5979,
      "slightly": 5980,
      "Mer": 5981,
      "rivers": 5982,
      "##istration": 5983,
      "populous": 5984,
      "costs": 5985,
      "IV": 5986,
      "Loc": 5987,
      "here": 5988,
      "pap": 5989,
      "##iled": 5990,
      "##acement": 5991,
      "chrom": 5992,
      "disob": 5993,
      "appeal": 5994,
      "radical": 5995,
      "Enter": 5996,
      "criticized": 5997,
      "anthropology": 5998,
      "Disney": 5999,
      "barr": 6000,
      "congreg": 6001,
      "##ota": 6002,
      "Third": 6003,
      "##ports": 6004,
      "successor": 6005,
      "existed": 6006,
      "separation": 6007,
      "carriers": 6008,
      "executed": 6009,
      "celebrated": 6010,
      "Crown": 6011,
      "Lis": 6012,
      "##apse": 6013,
      "Blue": 6014,
      "Board": 6015,
      "##rete": 6016,
      "##rod": 6017,
      "##odes": 6018,
      "##ghis": 6019,
      "##heng": 6020,
      "alliance": 6021,
      "Security": 6022,
      "hundreds": 6023,
      "ceremony": 6024,
      "illeg": 6025,
      "Non": 6026,
      "Nep": 6027,
      "tons": 6028,
      "want": 6029,
      "grounds": 6030,
      "acknow": 6031,
      "1973": 6032,
      "identify": 6033,
      "solo": 6034,
      "Summer": 6035,
      "emphasis": 6036,
      "Baptist": 6037,
      "parallel": 6038,
      "Good": 6039,
      "mad": 6040,
      "##uz": 6041,
      "##lar": 6042,
      "convent": 6043,
      "Convention": 6044,
      "legislative": 6045,
      "mechanical": 6046,
      "normally": 6047,
      "programming": 6048,
      "chloroplast": 6049,
      "samurai": 6050,
      "Tour": 6051,
      "160": 6052,
      "##gests": 6053,
      "Medical": 6054,
      "Myanmar": 6055,
      "Alps": 6056,
      "1949": 6057,
      "background": 6058,
      "poetry": 6059,
      "purchased": 6060,
      "Athanasius": 6061,
      "Che": 6062,
      "Ly": 6063,
      "##phalt": 6064,
      "something": 6065,
      "hosts": 6066,
      "debt": 6067,
      "Hospital": 6068,
      "infring": 6069,
      "foss": 6070,
      "##heastern": 6071,
      "sovereign": 6072,
      "proportion": 6073,
      "Nic": 6074,
      "Ur": 6075,
      "dated": 6076,
      "1941": 6077,
      "affairs": 6078,
      "changing": 6079,
      "edition": 6080,
      "guns": 6081,
      "Um": 6082,
      "ath": 6083,
      "##rawn": 6084,
      "perceived": 6085,
      "##estig": 6086,
      "occurr": 6087,
      "Dev": 6088,
      "oppon": 6089,
      "Princess": 6090,
      "branches": 6091,
      "Mos": 6092,
      "dating": 6093,
      "walls": 6094,
      "##aria": 6095,
      "user": 6096,
      "centers": 6097,
      "Prov": 6098,
      "editor": 6099,
      "Israeli": 6100,
      "sequence": 6101,
      "interpretation": 6102,
      "suggests": 6103,
      "##band": 6104,
      "##atab": 6105,
      "sup": 6106,
      "score": 6107,
      "1980": 6108,
      "##aimed": 6109,
      "##ora": 6110,
      "forward": 6111,
      "##agan": 6112,
      "skin": 6113,
      "fixed": 6114,
      "Columbia": 6115,
      "Rus": 6116,
      "amp": 6117,
      "tall": 6118,
      "##life": 6119,
      "proced": 6120,
      "##iots": 6121,
      "appropr": 6122,
      "Cathedral": 6123,
      "categories": 6124,
      "Additionally": 6125,
      "nickn": 6126,
      "NFL": 6127,
      "eat": 6128,
      "##ilia": 6129,
      "##unt": 6130,
      "clock": 6131,
      "interests": 6132,
      "Genghis": 6133,
      "susp": 6134,
      "spiritual": 6135,
      "fresh": 6136,
      "##come": 6137,
      "##thur": 6138,
      "sufficient": 6139,
      "documents": 6140,
      "penalty": 6141,
      "Bureau": 6142,
      "Top": 6143,
      "trip": 6144,
      "universe": 6145,
      "##Station": 6146,
      "Kong": 6147,
      "Ts": 6148,
      "rit": 6149,
      "##omer": 6150,
      "resemb": 6151,
      "agency": 6152,
      "finished": 6153,
      "encoun": 6154,
      "albums": 6155,
      "debut": 6156,
      "Bon": 6157,
      "Hu": 6158,
      "Mat": 6159,
      "ban": 6160,
      "intelligence": 6161,
      "##orms": 6162,
      "##aza": 6163,
      "designated": 6164,
      "circuit": 6165,
      "ensure": 6166,
      "Manc": 6167,
      "seats": 6168,
      "1978": 6169,
      "landing": 6170,
      "tempor": 6171,
      "molec": 6172,
      "##ictions": 6173,
      "superior": 6174,
      "trees": 6175,
      "Austrian": 6176,
      "abandoned": 6177,
      "Ho": 6178,
      "##mas": 6179,
      "##han": 6180,
      "##eck": 6181,
      "expect": 6182,
      "Indust": 6183,
      "##ructure": 6184,
      "divisions": 6185,
      "membran": 6186,
      "About": 6187,
      "ratio": 6188,
      "Est": 6189,
      "invaded": 6190,
      "web": 6191,
      "organism": 6192,
      "divine": 6193,
      "paint": 6194,
      "judges": 6195,
      "tourism": 6196,
      "criticism": 6197,
      "PlayStation": 6198,
      "Syria": 6199,
      "Ver": 6200,
      "mechanism": 6201,
      "59": 6202,
      "bott": 6203,
      "votes": 6204,
      "##ture": 6205,
      "##iration": 6206,
      "##ghan": 6207,
      "genome": 6208,
      "##asonry": 6209,
      "increases": 6210,
      "Johnson": 6211,
      "historically": 6212,
      "challeng": 6213,
      "Corporation": 6214,
      "corn": 6215,
      "##icia": 6216,
      "reality": 6217,
      "begun": 6218,
      "##lectric": 6219,
      "earned": 6220,
      "ending": 6221,
      "##azz": 6222,
      "1969": 6223,
      "protected": 6224,
      "Serb": 6225,
      "56": 6226,
      "##inations": 6227,
      "##ani": 6228,
      "Chi": 6229,
      "shop": 6230,
      "exposure": 6231,
      "##hips": 6232,
      "ruler": 6233,
      "capture": 6234,
      "Men": 6235,
      "faced": 6236,
      "gives": 6237,
      "##uments": 6238,
      "alcohol": 6239,
      "57": 6240,
      "##aug": 6241,
      "##iling": 6242,
      "shape": 6243,
      "phr": 6244,
      "electronic": 6245,
      "officer": 6246,
      "14th": 6247,
      "Standard": 6248,
      "Far": 6249,
      "gross": 6250,
      "rar": 6251,
      "##eries": 6252,
      "needs": 6253,
      "molecules": 6254,
      "residential": 6255,
      "##bes": 6256,
      "##antry": 6257,
      "Str": 6258,
      "##erals": 6259,
      "consult": 6260,
      "Forces": 6261,
      "crim": 6262,
      "conservative": 6263,
      "dollar": 6264,
      "disobed": 6265,
      "crown": 6266,
      "yard": 6267,
      "##organ": 6268,
      "##abled": 6269,
      "quite": 6270,
      "writes": 6271,
      "250": 6272,
      "Digimon": 6273,
      "Taiwan": 6274,
      "platform": 6275,
      "66": 6276,
      "Ever": 6277,
      "Sichuan": 6278,
      "##etts": 6279,
      "##ricted": 6280,
      "shel": 6281,
      "Antarctica": 6282,
      "ocean": 6283,
      "piano": 6284,
      "Only": 6285,
      "operates": 6286,
      "physics": 6287,
      "composition": 6288,
      "statement": 6289,
      "destruction": 6290,
      "scholar": 6291,
      "predominant": 6292,
      "68": 6293,
      "Fam": 6294,
      "##eded": 6295,
      "##icism": 6296,
      "thir": 6297,
      "##ipping": 6298,
      "obtained": 6299,
      "Amazon": 6300,
      "Mov": 6301,
      "##vements": 6302,
      "##eria": 6303,
      "##inem": 6304,
      "##prising": 6305,
      "##bridge": 6306,
      "veget": 6307,
      "##iege": 6308,
      "assumed": 6309,
      "screen": 6310,
      "##amber": 6311,
      "##aya": 6312,
      "graph": 6313,
      "1968": 6314,
      "ruling": 6315,
      "collapse": 6316,
      "History": 6317,
      "Big": 6318,
      "Eth": 6319,
      "##DS": 6320,
      "Americas": 6321,
      "flat": 6322,
      "1984": 6323,
      "questions": 6324,
      "jobs": 6325,
      "hypot": 6326,
      "Ibn": 6327,
      "Var": 6328,
      "ran": 6329,
      "promp": 6330,
      "democracy": 6331,
      "sixth": 6332,
      "Jud": 6333,
      "##rian": 6334,
      "forest": 6335,
      "Bridge": 6336,
      "concentrated": 6337,
      "Manchester": 6338,
      "covers": 6339,
      "##erb": 6340,
      "beat": 6341,
      "exem": 6342,
      "leads": 6343,
      "representatives": 6344,
      "Radio": 6345,
      "Mot": 6346,
      "Pict": 6347,
      "franch": 6348,
      "##iat": 6349,
      "Star": 6350,
      "governed": 6351,
      "roots": 6352,
      "coverage": 6353,
      "##ype": 6354,
      "colors": 6355,
      "affirm": 6356,
      "radiation": 6357,
      "employees": 6358,
      "bond": 6359,
      "##uties": 6360,
      "comprehens": 6361,
      "Afghan": 6362,
      "Vietnam": 6363,
      "##orph": 6364,
      "seems": 6365,
      "enh": 6366,
      "Thuring": 6367,
      "Prize": 6368,
      "Maria": 6369,
      "establishing": 6370,
      "analy": 6371,
      "page": 6372,
      "chap": 6373,
      "##ucing": 6374,
      "transportation": 6375,
      "easily": 6376,
      "Foundation": 6377,
      "Ke": 6378,
      "1960": 6379,
      "ranging": 6380,
      "roles": 6381,
      "##under": 6382,
      "exceed": 6383,
      "assent": 6384,
      "1975": 6385,
      "approval": 6386,
      "Francis": 6387,
      "Cork": 6388,
      "ports": 6389,
      "##rates": 6390,
      "##alent": 6391,
      "compression": 6392,
      "classification": 6393,
      "Mongols": 6394,
      "understand": 6395,
      "strategic": 6396,
      "eggs": 6397,
      "cu": 6398,
      "1900": 6399,
      "genocide": 6400,
      "undergrad": 6401,
      "1972": 6402,
      "Methodist": 6403,
      "ritual": 6404,
      "63": 6405,
      "fert": 6406,
      "##itudes": 6407,
      "##ico": 6408,
      "orchest": 6409,
      "1967": 6410,
      "rulers": 6411,
      "requirements": 6412,
      "tox": 6413,
      "##ighth": 6414,
      "disapp": 6415,
      "Jac": 6416,
      "Link": 6417,
      "Taj": 6418,
      "grown": 6419,
      "vess": 6420,
      "##itarian": 6421,
      "why": 6422,
      "matters": 6423,
      "##bourg": 6424,
      "gender": 6425,
      "##intosh": 6426,
      "attributed": 6427,
      "Low": 6428,
      "oblig": 6429,
      "performances": 6430,
      "Constantin": 6431,
      "3rd": 6432,
      "loyal": 6433,
      "##pass": 6434,
      "##olith": 6435,
      "##ulty": 6436,
      "accused": 6437,
      "Prof": 6438,
      "extra": 6439,
      "terror": 6440,
      "##going": 6441,
      "Vol": 6442,
      "##uated": 6443,
      "describes": 6444,
      "reading": 6445,
      "mosaics": 6446,
      "uniform": 6447,
      "technologies": 6448,
      "northwest": 6449,
      "motors": 6450,
      "2nd": 6451,
      "cul": 6452,
      "dress": 6453,
      "pione": 6454,
      "##yes": 6455,
      "##gets": 6456,
      "##har": 6457,
      "##etball": 6458,
      "Unlike": 6459,
      "Alf": 6460,
      "enemy": 6461,
      "##acle": 6462,
      "comics": 6463,
      "restored": 6464,
      "recognition": 6465,
      "Popper": 6466,
      "Sunday": 6467,
      "##uits": 6468,
      "##ira": 6469,
      "planning": 6470,
      "##ultane": 6471,
      "doing": 6472,
      "emotion": 6473,
      "chloroplasts": 6474,
      "Connectic": 6475,
      "locations": 6476,
      "receiving": 6477,
      "lasted": 6478,
      "broadc": 6479,
      "Community": 6480,
      "Building": 6481,
      "Connecticut": 6482,
      "prohib": 6483,
      "##ishops": 6484,
      "accounts": 6485,
      "begins": 6486,
      "winner": 6487,
      "Mr": 6488,
      "##ait": 6489,
      "##idal": 6490,
      "expand": 6491,
      "Gram": 6492,
      "AA": 6493,
      "PS": 6494,
      "fashion": 6495,
      "Sports": 6496,
      "frag": 6497,
      "occupation": 6498,
      "pieces": 6499,
      "mal": 6500,
      "sed": 6501,
      "visitors": 6502,
      "researchers": 6503,
      "##cht": 6504,
      "15th": 6505,
      "1987": 6506,
      "quantum": 6507,
      "happened": 6508,
      "Ancient": 6509,
      "accompanied": 6510,
      "happ": 6511,
      "##ais": 6512,
      "##mon": 6513,
      "##igan": 6514,
      "##place": 6515,
      "wider": 6516,
      "LEDs": 6517,
      "Kenya": 6518,
      "Lodge": 6519,
      "datab": 6520,
      "##jiang": 6521,
      "##icon": 6522,
      "##minster": 6523,
      "profession": 6524,
      "installed": 6525,
      "Dal": 6526,
      "bad": 6527,
      "bombing": 6528,
      "purchase": 6529,
      "preferred": 6530,
      "tim": 6531,
      "##lusion": 6532,
      "shot": 6533,
      "argue": 6534,
      "myth": 6535,
      "channels": 6536,
      "search": 6537,
      "##hew": 6538,
      "##oration": 6539,
      "##arant": 6540,
      "##ellion": 6541,
      "rooms": 6542,
      "warr": 6543,
      "##jab": 6544,
      "orbit": 6545,
      "chart": 6546,
      "##bercul": 6547,
      "##pring": 6548,
      "Buddha": 6549,
      "85": 6550,
      "theat": 6551,
      "unable": 6552,
      "Croatian": 6553,
      "discrimination": 6554,
      "somewhat": 6555,
      "Jeff": 6556,
      "Sem": 6557,
      "##acent": 6558,
      "request": 6559,
      "Helena": 6560,
      "unf": 6561,
      "descent": 6562,
      "assess": 6563,
      "confirmed": 6564,
      "beliefs": 6565,
      "Sah": 6566,
      "cart": 6567,
      "##ansas": 6568,
      "reprodu": 6569,
      "signals": 6570,
      "antibiotics": 6571,
      "liquid": 6572,
      "##eynman": 6573,
      "##erto": 6574,
      "1976": 6575,
      "oppos": 6576,
      "Allied": 6577,
      "else": 6578,
      "Punjab": 6579,
      "Namibia": 6580,
      "Li": 6581,
      "vert": 6582,
      "##astructure": 6583,
      "flour": 6584,
      "religions": 6585,
      "experiences": 6586,
      "manager": 6587,
      "Offic": 6588,
      "Confeder": 6589,
      "Peninsula": 6590,
      "Live": 6591,
      "##enge": 6592,
      "##orate": 6593,
      "stages": 6594,
      "resolution": 6595,
      "1948": 6596,
      "Centre": 6597,
      "holding": 6598,
      "regulations": 6599,
      "Us": 6600,
      "##ndum": 6601,
      "stating": 6602,
      "##ulg": 6603,
      "Europeans": 6604,
      "entr": 6605,
      "advance": 6606,
      "Macintosh": 6607,
      "dependent": 6608,
      "behavi": 6609,
      "calendar": 6610,
      "##sew": 6611,
      "represents": 6612,
      "##gu": 6613,
      "asphalt": 6614,
      "stim": 6615,
      "##abul": 6616,
      "excess": 6617,
      "intens": 6618,
      "metaph": 6619,
      "Leon": 6620,
      "##ucas": 6621,
      "lighting": 6622,
      "Television": 6623,
      "MP3": 6624,
      "mathematics": 6625,
      "love": 6626,
      "##ayana": 6627,
      "exists": 6628,
      "##ounced": 6629,
      "Technology": 6630,
      "##IA": 6631,
      "Contin": 6632,
      "warm": 6633,
      "promote": 6634,
      "borders": 6635,
      "vocal": 6636,
      "##TC": 6637,
      "##rog": 6638,
      "alph": 6639,
      "1914": 6640,
      "Guard": 6641,
      "##apping": 6642,
      "analog": 6643,
      "##hyth": 6644,
      "Business": 6645,
      "77": 6646,
      "Area": 6647,
      "Feynman": 6648,
      "folk": 6649,
      "##itals": 6650,
      "reaching": 6651,
      "mayor": 6652,
      "literal": 6653,
      "Water": 6654,
      "##no": 6655,
      "##com": 6656,
      "##oper": 6657,
      "##umes": 6658,
      "spoke": 6659,
      "Arm": 6660,
      "##oking": 6661,
      "metres": 6662,
      "recept": 6663,
      "avo": 6664,
      "expression": 6665,
      "End": 6666,
      "Rog": 6667,
      "##isp": 6668,
      "enact": 6669,
      "##rows": 6670,
      "1963": 6671,
      "##ograp": 6672,
      "marine": 6673,
      "Broncos": 6674,
      "##achusetts": 6675,
      "ment": 6676,
      "outer": 6677,
      "says": 6678,
      "##ati": 6679,
      "##letic": 6680,
      "##ithuan": 6681,
      "restricted": 6682,
      "replace": 6683,
      "condem": 6684,
      "responsibility": 6685,
      "Classical": 6686,
      "Massachusetts": 6687,
      "Constantinople": 6688,
      "Mand": 6689,
      "Tim": 6690,
      "Als": 6691,
      "twenty": 6692,
      "wr": 6693,
      "##omy": 6694,
      "developments": 6695,
      "Westminster": 6696,
      "Monte": 6697,
      "voice": 6698,
      "Montana": 6699,
      "balance": 6700,
      "##gil": 6701,
      "stay": 6702,
      "mainstream": 6703,
      "violent": 6704,
      "rainfall": 6705,
      "opposite": 6706,
      "Light": 6707,
      "Post": 6708,
      "lod": 6709,
      "plague": 6710,
      "##angel": 6711,
      "commander": 6712,
      "businesses": 6713,
      "committed": 6714,
      "punish": 6715,
      "opportunity": 6716,
      "DST": 6717,
      "Never": 6718,
      "gymn": 6719,
      "##writ": 6720,
      "##ocol": 6721,
      "bitumen": 6722,
      "transferred": 6723,
      "passengers": 6724,
      "Fire": 6725,
      "bought": 6726,
      "##eenth": 6727,
      "agree": 6728,
      "Ali": 6729,
      "cultiv": 6730,
      "insect": 6731,
      "overseas": 6732,
      "descendants": 6733,
      "festival": 6734,
      "males": 6735,
      "##ima": 6736,
      "Guine": 6737,
      "complexity": 6738,
      "Ashkenazi": 6739,
      "festivals": 6740,
      "Jean": 6741,
      "Mes": 6742,
      "cogn": 6743,
      "##pm": 6744,
      "stock": 6745,
      "1964": 6746,
      "Carl": 6747,
      "1944": 6748,
      "patron": 6749,
      "initiated": 6750,
      "monarchy": 6751,
      "Bab": 6752,
      "thing": 6753,
      "1982": 6754,
      "bridge": 6755,
      "referendum": 6756,
      "adap": 6757,
      "Prior": 6758,
      "amounts": 6759,
      "flood": 6760,
      "1983": 6761,
      "entertainment": 6762,
      "offering": 6763,
      "Smith": 6764,
      "Juda": 6765,
      "perception": 6766,
      "meat": 6767,
      "##orne": 6768,
      "influences": 6769,
      "valley": 6770,
      "Medic": 6771,
      "sections": 6772,
      "Norf": 6773,
      "isolated": 6774,
      "throne": 6775,
      "##unk": 6776,
      "sevent": 6777,
      "empir": 6778,
      "##fully": 6779,
      "conversion": 6780,
      "##bal": 6781,
      "##SO": 6782,
      "##abet": 6783,
      "Real": 6784,
      "1981": 6785,
      "Within": 6786,
      "53": 6787,
      "championship": 6788,
      "Saxon": 6789,
      "Fer": 6790,
      "##fare": 6791,
      "##ingham": 6792,
      "stored": 6793,
      "shall": 6794,
      "assass": 6795,
      "1971": 6796,
      "Minor": 6797,
      "graduate": 6798,
      "concentration": 6799,
      "immediate": 6800,
      "##while": 6801,
      "5th": 6802,
      "62": 6803,
      "rely": 6804,
      "##olas": 6805,
      "heritage": 6806,
      "constitu": 6807,
      "writings": 6808,
      "1966": 6809,
      "##engt": 6810,
      "involving": 6811,
      "committee": 6812,
      "pestic": 6813,
      "rising": 6814,
      "##eness": 6815,
      "experiments": 6816,
      "IP": 6817,
      "Labor": 6818,
      "##orous": 6819,
      "##esty": 6820,
      "##osm": 6821,
      "##aints": 6822,
      "Inf": 6823,
      "ordinary": 6824,
      "bacterial": 6825,
      "noble": 6826,
      "1st": 6827,
      "Cult": 6828,
      "Kenn": 6829,
      "mouth": 6830,
      "supposed": 6831,
      "judicial": 6832,
      "Burma": 6833,
      "extinction": 6834,
      "Yugoslavia": 6835,
      "4th": 6836,
      "FI": 6837,
      "rhyth": 6838,
      "##gent": 6839,
      "##ader": 6840,
      "##tenoph": 6841,
      "images": 6842,
      "Admin": 6843,
      "##sewhere": 6844,
      "wing": 6845,
      "##rant": 6846,
      "theatre": 6847,
      "1961": 6848,
      "1962": 6849,
      "amongst": 6850,
      "singer": 6851,
      "Palest": 6852,
      "execution": 6853,
      "emotions": 6854,
      "ranges": 6855,
      "bringing": 6856,
      "occasionally": 6857,
      "website": 6858,
      "rarely": 6859,
      "79": 6860,
      "consolid": 6861,
      "export": 6862,
      "reducing": 6863,
      "motiv": 6864,
      "neighborhoods": 6865,
      "franchise": 6866,
      "solution": 6867,
      "told": 6868,
      "##oked": 6869,
      "1977": 6870,
      "##cribed": 6871,
      "Hanover": 6872,
      "Reserve": 6873,
      "6th": 6874,
      "Direct": 6875,
      "heter": 6876,
      "##pine": 6877,
      "##abil": 6878,
      "##iph": 6879,
      "counties": 6880,
      "fled": 6881,
      "##iveness": 6882,
      "util": 6883,
      "Sic": 6884,
      "##rowd": 6885,
      "11th": 6886,
      "deliv": 6887,
      "McC": 6888,
      "episode": 6889,
      "proposal": 6890,
      "Aff": 6891,
      "Jay": 6892,
      "mist": 6893,
      "##illery": 6894,
      "assemb": 6895,
      "recordings": 6896,
      "legit": 6897,
      "Democr": 6898,
      "NES": 6899,
      "##vis": 6900,
      "##aments": 6901,
      "##asses": 6902,
      "##tebr": 6903,
      "Conc": 6904,
      "guarant": 6905,
      "sounds": 6906,
      "explan": 6907,
      "threatened": 6908,
      "Panthers": 6909,
      "dict": 6910,
      "fru": 6911,
      "sister": 6912,
      "##inian": 6913,
      "##lets": 6914,
      "##abilities": 6915,
      "truth": 6916,
      "residence": 6917,
      "obtain": 6918,
      "measured": 6919,
      "estimates": 6920,
      "carrying": 6921,
      "##berculosis": 6922,
      "RA": 6923,
      "##alin": 6924,
      "inaug": 6925,
      "##anda": 6926,
      "##usted": 6927,
      "imposed": 6928,
      "integrated": 6929,
      "infrastructure": 6930,
      "Profess": 6931,
      "Dur": 6932,
      "##comm": 6933,
      "worship": 6934,
      "partly": 6935,
      "extreme": 6936,
      "portr": 6937,
      "Video": 6938,
      "pick": 6939,
      "##iful": 6940,
      "simultane": 6941,
      "predators": 6942,
      "senior": 6943,
      "village": 6944,
      "Witnesses": 6945,
      "##inth": 6946,
      "minimum": 6947,
      "21st": 6948,
      "Shell": 6949,
      "judge": 6950,
      "steel": 6951,
      "consumer": 6952,
      "layer": 6953,
      "machines": 6954,
      "precipitation": 6955,
      "Gulf": 6956,
      "Netw": 6957,
      "Rob": 6958,
      "awards": 6959,
      "##urric": 6960,
      "##uns": 6961,
      "inches": 6962,
      "Marvel": 6963,
      "planet": 6964,
      "Young": 6965,
      "benefits": 6966,
      "##burgh": 6967,
      "absolute": 6968,
      "mas": 6969,
      "##zhou": 6970,
      "##kins": 6971,
      "thick": 6972,
      "render": 6973,
      "##ayy": 6974,
      "2000s": 6975,
      "casual": 6976,
      "fish": 6977,
      "##kn": 6978,
      "clim": 6979,
      "publicly": 6980,
      "profit": 6981,
      "##ripts": 6982,
      "legislature": 6983,
      "displayed": 6984,
      "cathedral": 6985,
      "aspect": 6986,
      "huge": 6987,
      "lie": 6988,
      "losing": 6989,
      "##ET": 6990,
      "##ails": 6991,
      "Indo": 6992,
      "musc": 6993,
      "parks": 6994,
      "archae": 6995,
      "carrier": 6996,
      "implemented": 6997,
      "distinguished": 6998,
      "Tajik": 6999,
      "Jeh": 7000,
      "characteristic": 7001,
      "1920s": 7002,
      "mammals": 7003,
      "Max": 7004,
      "vent": 7005,
      "##uation": 7006,
      "##isher": 7007,
      "##gend": 7008,
      "parent": 7009,
      "roads": 7010,
      "##gorith": 7011,
      "opinion": 7012,
      "Judaism": 7013,
      "Kub": 7014,
      "walk": 7015,
      "##anye": 7016,
      "symp": 7017,
      "##arked": 7018,
      "infl": 7019,
      "instruct": 7020,
      "coord": 7021,
      "comparison": 7022,
      "varying": 7023,
      "Defence": 7024,
      "Freemasonry": 7025,
      "Puerto": 7026,
      "##olithic": 7027,
      "Hear": 7028,
      "peas": 7029,
      "produces": 7030,
      "passing": 7031,
      "##raction": 7032,
      "Guam": 7033,
      "Capital": 7034,
      "900": 7035,
      "gro": 7036,
      "internet": 7037,
      "conference": 7038,
      "##illing": 7039,
      "plate": 7040,
      "infection": 7041,
      "##ika": 7042,
      "composer": 7043,
      "Vienna": 7044,
      "philosophical": 7045,
      "Sk": 7046,
      "batter": 7047,
      "##RA": 7048,
      "##obe": 7049,
      "accel": 7050,
      "1918": 7051,
      "privile": 7052,
      "Anglic": 7053,
      "damaged": 7054,
      "diplomatic": 7055,
      "Afghanistan": 7056,
      "DV": 7057,
      "net": 7058,
      "pup": 7059,
      "calls": 7060,
      "string": 7061,
      "funded": 7062,
      "category": 7063,
      "Electric": 7064,
      "Guinea": 7065,
      "CA": 7066,
      "Nag": 7067,
      "ministers": 7068,
      "suffering": 7069,
      "printed": 7070,
      "Territ": 7071,
      "fans": 7072,
      "Stras": 7073,
      "writer": 7074,
      "##onym": 7075,
      "Philippines": 7076,
      "##rey": 7077,
      "##etime": 7078,
      "##adian": 7079,
      "##oven": 7080,
      "Report": 7081,
      "Sele": 7082,
      "headed": 7083,
      "collaps": 7084,
      "regularly": 7085,
      "mobile": 7086,
      "Labour": 7087,
      "Pur": 7088,
      "##range": 7089,
      "boundaries": 7090,
      "controversy": 7091,
      "alleged": 7092,
      "##engthen": 7093,
      "##FC": 7094,
      "##enses": 7095,
      "##iously": 7096,
      "polar": 7097,
      "merely": 7098,
      "swit": 7099,
      "explained": 7100,
      "Ast": 7101,
      "##uff": 7102,
      "##de": 7103,
      "##EG": 7104,
      "acting": 7105,
      "nothing": 7106,
      "powered": 7107,
      "Furthermore": 7108,
      "Mic": 7109,
      "crowd": 7110,
      "designs": 7111,
      "temporary": 7112,
      "Brother": 7113,
      "survived": 7114,
      "Fore": 7115,
      "Kie": 7116,
      "Zh": 7117,
      "##cy": 7118,
      "##pool": 7119,
      "##etical": 7120,
      "advent": 7121,
      "genre": 7122,
      "arrival": 7123,
      "Nepal": 7124,
      "Bond": 7125,
      "Laser": 7126,
      "##water": 7127,
      "pries": 7128,
      "trig": 7129,
      "##ovah": 7130,
      "##awa": 7131,
      "Heb": 7132,
      "Orig": 7133,
      "singles": 7134,
      "courses": 7135,
      "Instead": 7136,
      "settlements": 7137,
      "adjacent": 7138,
      "Special": 7139,
      "waves": 7140,
      "stories": 7141,
      "assets": 7142,
      "persp": 7143,
      "routes": 7144,
      "74": 7145,
      "Gra": 7146,
      "Main": 7147,
      "Sar": 7148,
      "rational": 7149,
      "##erated": 7150,
      "##itects": 7151,
      "retain": 7152,
      "attracted": 7153,
      "Norfolk": 7154,
      "dub": 7155,
      "diam": 7156,
      "##eig": 7157,
      "##utical": 7158,
      "##assic": 7159,
      "diff": 7160,
      "engaged": 7161,
      "distributed": 7162,
      "credited": 7163,
      "suspend": 7164,
      "scheme": 7165,
      "76": 7166,
      "##nership": 7167,
      "##iology": 7168,
      "##avian": 7169,
      "##nty": 7170,
      "adults": 7171,
      "broken": 7172,
      "entry": 7173,
      "frame": 7174,
      "involves": 7175,
      "Baltic": 7176,
      "concepts": 7177,
      "adolescents": 7178,
      "Strasbourg": 7179,
      "Jones": 7180,
      "sort": 7181,
      "##idden": 7182,
      "aimed": 7183,
      "households": 7184,
      "pharmac": 7185,
      "Aristotle": 7186,
      "Jehovah": 7187,
      "Lithuan": 7188,
      "sn": 7189,
      "abst": 7190,
      "boys": 7191,
      "##prise": 7192,
      "##iversary": 7193,
      "encomp": 7194,
      "guard": 7195,
      "Somalia": 7196,
      "Sumer": 7197,
      "Reformation": 7198,
      "promotion": 7199,
      "comprehensive": 7200,
      "hospital": 7201,
      "##gers": 7202,
      "##emen": 7203,
      "##ager": 7204,
      "##overty": 7205,
      "Trade": 7206,
      "facility": 7207,
      "illegal": 7208,
      "Bre": 7209,
      "bishops": 7210,
      "got": 7211,
      "##erted": 7212,
      "Spect": 7213,
      "164": 7214,
      "Galicia": 7215,
      "reflected": 7216,
      "##continent": 7217,
      "Haw": 7218,
      "Kanye": 7219,
      "##rons": 7220,
      "##umber": 7221,
      "assembly": 7222,
      "buy": 7223,
      "musicians": 7224,
      "1953": 7225,
      "Ministry": 7226,
      "killing": 7227,
      "suburbs": 7228,
      "videos": 7229,
      "autonomy": 7230,
      "sustain": 7231,
      "##ilation": 7232,
      "stream": 7233,
      "interior": 7234,
      "merged": 7235,
      "Code": 7236,
      "Lit": 7237,
      "file": 7238,
      "algorith": 7239,
      "deleg": 7240,
      "##udi": 7241,
      "adher": 7242,
      "amend": 7243,
      "Police": 7244,
      "campaigns": 7245,
      "coalition": 7246,
      "Seleuc": 7247,
      "Fe": 7248,
      "Hal": 7249,
      "Late": 7250,
      "Six": 7251,
      "vow": 7252,
      "yellow": 7253,
      "##arc": 7254,
      "Fres": 7255,
      "Alb": 7256,
      "supplies": 7257,
      "temple": 7258,
      "##unciation": 7259,
      "98": 7260,
      "talk": 7261,
      "##cts": 7262,
      "resc": 7263,
      "charter": 7264,
      "engines": 7265,
      "nucle": 7266,
      "atmosphere": 7267,
      "cant": 7268,
      "##bird": 7269,
      "##olve": 7270,
      "##agues": 7271,
      "compound": 7272,
      "##lication": 7273,
      "assigned": 7274,
      "patents": 7275,
      "Polit": 7276,
      "independently": 7277,
      "##usalem": 7278,
      "roll": 7279,
      "sav": 7280,
      "##elve": 7281,
      "##istical": 7282,
      "neither": 7283,
      "follows": 7284,
      "assistance": 7285,
      "controversial": 7286,
      "vehicles": 7287,
      "phrase": 7288,
      "Network": 7289,
      "Cold": 7290,
      "lun": 7291,
      "borrow": 7292,
      "segment": 7293,
      "Chihu": 7294,
      "ble": 7295,
      "##lai": 7296,
      "##eless": 7297,
      "artific": 7298,
      "files": 7299,
      "visual": 7300,
      "homosexual": 7301,
      "exclusive": 7302,
      "candidates": 7303,
      "Jerusalem": 7304,
      "restaurants": 7305,
      "disobedience": 7306,
      "Father": 7307,
      "Fair": 7308,
      "Jr": 7309,
      "Sultan": 7310,
      "mir": 7311,
      "Space": 7312,
      "advoc": 7313,
      "Plan": 7314,
      "frequent": 7315,
      "ranking": 7316,
      "celeb": 7317,
      "revolutionary": 7318,
      "struggle": 7319,
      "recommended": 7320,
      "cryst": 7321,
      "Entertainment": 7322,
      "##eignty": 7323,
      "51": 7324,
      "bind": 7325,
      "sale": 7326,
      "##CO": 7327,
      "##urance": 7328,
      "stret": 7329,
      "trying": 7330,
      "Once": 7331,
      "USSR": 7332,
      "shell": 7333,
      "elite": 7334,
      "criminal": 7335,
      "Lar": 7336,
      "Much": 7337,
      "Master": 7338,
      "theology": 7339,
      "Stalin": 7340,
      "enth": 7341,
      "##annel": 7342,
      "artillery": 7343,
      "surviving": 7344,
      "reinfor": 7345,
      "bapt": 7346,
      "hus": 7347,
      "tiss": 7348,
      "task": 7349,
      "##wing": 7350,
      "##work": 7351,
      "##alled": 7352,
      "##rition": 7353,
      "reconst": 7354,
      "troph": 7355,
      "neighboring": 7356,
      "expedition": 7357,
      "Pt": 7358,
      "fine": 7359,
      "ans": 7360,
      "Inv": 7361,
      "incident": 7362,
      "explicit": 7363,
      "charged": 7364,
      "Brook": 7365,
      "continuous": 7366,
      "piece": 7367,
      "restrictions": 7368,
      "Bos": 7369,
      "ties": 7370,
      "forb": 7371,
      "##opes": 7372,
      "shaped": 7373,
      "contributions": 7374,
      "denied": 7375,
      "translated": 7376,
      "connections": 7377,
      "emotional": 7378,
      "Nevertheless": 7379,
      "ninet": 7380,
      "pul": 7381,
      "##izona": 7382,
      "disag": 7383,
      "Arizona": 7384,
      "relation": 7385,
      "sets": 7386,
      "1965": 7387,
      "elsewhere": 7388,
      "lamps": 7389,
      "Disc": 7390,
      "Ol": 7391,
      "##onial": 7392,
      "##standing": 7393,
      "stable": 7394,
      "compat": 7395,
      "organic": 7396,
      "tracks": 7397,
      "41": 7398,
      "ru": 7399,
      "wavel": 7400,
      "##iological": 7401,
      "breaking": 7402,
      "##apped": 7403,
      "communications": 7404,
      "affirmative": 7405,
      "Chihuah": 7406,
      "Lo": 7407,
      "##auc": 7408,
      "compens": 7409,
      "##luding": 7410,
      "##erty": 7411,
      "variations": 7412,
      "classic": 7413,
      "##incial": 7414,
      "recognised": 7415,
      "thermal": 7416,
      "scheduled": 7417,
      "acknowled": 7418,
      "wavelength": 7419,
      "Ku": 7420,
      "##aris": 7421,
      "trained": 7422,
      "encl": 7423,
      "apply": 7424,
      "##teenth": 7425,
      "supporting": 7426,
      "emit": 7427,
      "trend": 7428,
      "essentially": 7429,
      "##osynt": 7430,
      "NP": 7431,
      "##oic": 7432,
      "##rav": 7433,
      "##IV": 7434,
      "##char": 7435,
      "arist": 7436,
      "Nobel": 7437,
      "69": 7438,
      "Dou": 7439,
      "Nort": 7440,
      "##uous": 7441,
      "##ecution": 7442,
      "##ilit": 7443,
      "##ulum": 7444,
      "##andy": 7445,
      "flows": 7446,
      "taxes": 7447,
      "cuis": 7448,
      "##time": 7449,
      "thr": 7450,
      "proceed": 7451,
      "dismiss": 7452,
      "registered": 7453,
      "passage": 7454,
      "newspapers": 7455,
      "apparent": 7456,
      "##break": 7457,
      "Foreign": 7458,
      "your": 7459,
      "##xi": 7460,
      "##DA": 7461,
      "prol": 7462,
      "##inder": 7463,
      "owner": 7464,
      "processing": 7465,
      "performing": 7466,
      "hardware": 7467,
      "conflicts": 7468,
      "learn": 7469,
      "targets": 7470,
      "interpre": 7471,
      "dollars": 7472,
      "wrestling": 7473,
      "Organization": 7474,
      "discipline": 7475,
      "arose": 7476,
      "sleep": 7477,
      "Bh": 7478,
      "Mur": 7479,
      "##rating": 7480,
      "##inger": 7481,
      "shoot": 7482,
      "pope": 7483,
      "historian": 7484,
      "1911": 7485,
      "1000": 7486,
      "necessarily": 7487,
      "clean": 7488,
      "CBC": 7489,
      "nav": 7490,
      "copy": 7491,
      "circumst": 7492,
      "Ron": 7493,
      "manner": 7494,
      "##hma": 7495,
      "##aceutical": 7496,
      "##ampion": 7497,
      "elabor": 7498,
      "Virgil": 7499,
      "passenger": 7500,
      "scenes": 7501,
      "8th": 7502,
      "Dest": 7503,
      "##iac": 7504,
      "waste": 7505,
      "rebu": 7506,
      "logo": 7507,
      "exclusively": 7508,
      "Castle": 7509,
      "Cru": 7510,
      "Dyn": 7511,
      "Mean": 7512,
      "ster": 7513,
      "##nes": 7514,
      "##ette": 7515,
      "Unic": 7516,
      "10th": 7517,
      "Somers": 7518,
      "Ptole": 7519,
      "Jim": 7520,
      "voting": 7521,
      "commem": 7522,
      "remove": 7523,
      "Project": 7524,
      "bright": 7525,
      "claiming": 7526,
      "digest": 7527,
      "participated": 7528,
      "mutual": 7529,
      "Out": 7530,
      "drawn": 7531,
      "##set": 7532,
      "relief": 7533,
      "acres": 7534,
      "gramm": 7535,
      "telephone": 7536,
      "customers": 7537,
      "recovered": 7538,
      "Film": 7539,
      "abolished": 7540,
      "58": 7541,
      "Jersey": 7542,
      "cinem": 7543,
      "Artic": 7544,
      "personnel": 7545,
      "bed": 7546,
      "cert": 7547,
      "siege": 7548,
      "tact": 7549,
      "confer": 7550,
      "##ells": 7551,
      "##erald": 7552,
      "soil": 7553,
      "1951": 7554,
      "consisted": 7555,
      "magnetic": 7556,
      "Buck": 7557,
      "ly": 7558,
      "##iro": 7559,
      "##zen": 7560,
      "##kt": 7561,
      "##itic": 7562,
      "##acles": 7563,
      "prestig": 7564,
      "thereby": 7565,
      "warfare": 7566,
      "loan": 7567,
      "spectrum": 7568,
      "exercise": 7569,
      "culmin": 7570,
      "AFL": 7571,
      "Fund": 7572,
      "UE": 7573,
      "mile": 7574,
      "pump": 7575,
      "##MS": 7576,
      "##70": 7577,
      "##anes": 7578,
      "try": 7579,
      "enabled": 7580,
      "shut": 7581,
      "centres": 7582,
      "mainland": 7583,
      "varies": 7584,
      "discs": 7585,
      "168": 7586,
      "coron": 7587,
      "valid": 7588,
      "Caes": 7589,
      "Ford": 7590,
      "Jur": 7591,
      "Jam": 7592,
      "##oric": 7593,
      "toler": 7594,
      "clergy": 7595,
      "unlike": 7596,
      "explo": 7597,
      "strengthen": 7598,
      "varieties": 7599,
      "deaths": 7600,
      "banned": 7601,
      "poverty": 7602,
      "inner": 7603,
      "1958": 7604,
      "representing": 7605,
      "surrounded": 7606,
      "Avic": 7607,
      "Denver": 7608,
      "86": 7609,
      "Nich": 7610,
      "diver": 7611,
      "rob": 7612,
      "##escent": 7613,
      "##idel": 7614,
      "fewer": 7615,
      "distinctive": 7616,
      "missions": 7617,
      "programme": 7618,
      "Golden": 7619,
      "denominations": 7620,
      "CP": 7621,
      "Cab": 7622,
      "Natural": 7623,
      "Op": 7624,
      "Wu": 7625,
      "sin": 7626,
      "##lywood": 7627,
      "situated": 7628,
      "oriented": 7629,
      "crops": 7630,
      "Alexandria": 7631,
      "molecular": 7632,
      "casualties": 7633,
      "Cel": 7634,
      "Daily": 7635,
      "Ha": 7636,
      "Mas": 7637,
      "##una": 7638,
      "shipping": 7639,
      "Arena": 7640,
      "paras": 7641,
      "anniversary": 7642,
      "structural": 7643,
      "Olympics": 7644,
      "nickname": 7645,
      "Ba": 7646,
      "BS": 7647,
      "##iants": 7648,
      "artistic": 7649,
      "1956": 7650,
      "Monica": 7651,
      "employment": 7652,
      "summ": 7653,
      "turb": 7654,
      "paintings": 7655,
      "Nazi": 7656,
      "rpm": 7657,
      "##iqu": 7658,
      "##rison": 7659,
      "provision": 7660,
      "emig": 7661,
      "##affe": 7662,
      "Coast": 7663,
      "Metro": 7664,
      "participate": 7665,
      "contestants": 7666,
      "invention": 7667,
      "ownership": 7668,
      "1943": 7669,
      "##ennium": 7670,
      "faculty": 7671,
      "Imm": 7672,
      "virtually": 7673,
      "##iams": 7674,
      "##nding": 7675,
      "##iland": 7676,
      "leaves": 7677,
      "populated": 7678,
      "flower": 7679,
      "Sciences": 7680,
      "broadcasting": 7681,
      "northeast": 7682,
      "Are": 7683,
      "Around": 7684,
      "Until": 7685,
      "fly": 7686,
      "rub": 7687,
      "##pro": 7688,
      "##recht": 7689,
      "reputation": 7690,
      "1920": 7691,
      "decreased": 7692,
      "suburban": 7693,
      "Obama": 7694,
      "72": 7695,
      "Way": 7696,
      "##oster": 7697,
      "1957": 7698,
      "representative": 7699,
      "elevation": 7700,
      "wealthy": 7701,
      "Michigan": 7702,
      "sovereignty": 7703,
      "mathematical": 7704,
      "tuberculosis": 7705,
      "96": 7706,
      "Rod": 7707,
      "Sina": 7708,
      "da": 7709,
      "##ears": 7710,
      "varied": 7711,
      "filament": 7712,
      "patients": 7713,
      "##avalry": 7714,
      "immigration": 7715,
      "proclaimed": 7716,
      "Kent": 7717,
      "Zhe": 7718,
      "thin": 7719,
      "##ulating": 7720,
      "Arbor": 7721,
      "##ylvan": 7722,
      "geographical": 7723,
      "Revolutionary": 7724,
      "learned": 7725,
      "choose": 7726,
      "evolutionary": 7727,
      "horse": 7728,
      "candidate": 7729,
      "7th": 7730,
      "88": 7731,
      "Open": 7732,
      "filled": 7733,
      "##oes": 7734,
      "##ooth": 7735,
      "##mm": 7736,
      "##ibl": 7737,
      "calling": 7738,
      "assert": 7739,
      "termin": 7740,
      "Media": 7741,
      "explain": 7742,
      "##gal": 7743,
      "stead": 7744,
      "Stone": 7745,
      "Caribb": 7746,
      "Caribbean": 7747,
      "Tay": 7748,
      "bron": 7749,
      "Channel": 7750,
      "technique": 7751,
      "Global": 7752,
      "manufacturers": 7753,
      "Similarly": 7754,
      "Chihuahua": 7755,
      "Jour": 7756,
      "Nik": 7757,
      "yield": 7758,
      "1954": 7759,
      "advis": 7760,
      "evening": 7761,
      "Mercury": 7762,
      "Avicenna": 7763,
      "vice": 7764,
      "couple": 7765,
      "humid": 7766,
      "connecting": 7767,
      "##rupted": 7768,
      "waters": 7769,
      "Relig": 7770,
      "Memorial": 7771,
      "toxic": 7772,
      "database": 7773,
      "##abulary": 7774,
      "Mach": 7775,
      "hier": 7776,
      "##tery": 7777,
      "pubs": 7778,
      "compete": 7779,
      "Williams": 7780,
      "moral": 7781,
      "safe": 7782,
      "Luft": 7783,
      "challenge": 7784,
      "Boy": 7785,
      "drew": 7786,
      "ranks": 7787,
      "acids": 7788,
      "monaster": 7789,
      "entity": 7790,
      "##ossible": 7791,
      "arrested": 7792,
      "bask": 7793,
      "blacks": 7794,
      "investigation": 7795,
      "panel": 7796,
      "Eritrea": 7797,
      "Besides": 7798,
      "fib": 7799,
      "youth": 7800,
      "tra": 7801,
      "clearly": 7802,
      "buried": 7803,
      "affiliated": 7804,
      "##asm": 7805,
      "accum": 7806,
      "capita": 7807,
      "argues": 7808,
      "Country": 7809,
      "bombers": 7810,
      "victims": 7811,
      "vacc": 7812,
      "spending": 7813,
      "##arks": 7814,
      "##chang": 7815,
      "Christmas": 7816,
      "shortly": 7817,
      "dramatic": 7818,
      "jurisdiction": 7819,
      "##ylvania": 7820,
      "Matt": 7821,
      "##ny": 7822,
      "inland": 7823,
      "##icks": 7824,
      "Ins": 7825,
      "##ouses": 7826,
      "cloud": 7827,
      "Arthur": 7828,
      "poly": 7829,
      "column": 7830,
      "phyl": 7831,
      "define": 7832,
      "civilian": 7833,
      "regulation": 7834,
      "prosper": 7835,
      "##ja": 7836,
      "Init": 7837,
      "##unes": 7838,
      "chronic": 7839,
      "##akers": 7840,
      "grav": 7841,
      "##ancing": 7842,
      "minute": 7843,
      "representation": 7844,
      "collections": 7845,
      "crossed": 7846,
      "rainfor": 7847,
      "Studies": 7848,
      "philosopher": 7849,
      "Everton": 7850,
      "undergraduate": 7851,
      "UEFA": 7852,
      "ctenoph": 7853,
      "sail": 7854,
      "resigned": 7855,
      "recip": 7856,
      "Victorian": 7857,
      "adoption": 7858,
      "drinking": 7859,
      "Harr": 7860,
      "hol": 7861,
      "##esters": 7862,
      "convention": 7863,
      "Inn": 7864,
      "Priv": 7865,
      "secure": 7866,
      "##acterial": 7867,
      "deter": 7868,
      "busiest": 7869,
      "Corps": 7870,
      "reserves": 7871,
      "unsu": 7872,
      "Utrecht": 7873,
      "Ah": 7874,
      "Kansas": 7875,
      "Manu": 7876,
      "##itled": 7877,
      "##acular": 7878,
      "landsc": 7879,
      "1942": 7880,
      "survive": 7881,
      "revenues": 7882,
      "Georgia": 7883,
      "Walter": 7884,
      "Women": 7885,
      "cited": 7886,
      "##lined": 7887,
      "##ifies": 7888,
      "Staff": 7889,
      "alloy": 7890,
      "doctor": 7891,
      "detect": 7892,
      "arrest": 7893,
      "engineers": 7894,
      "closer": 7895,
      "Series": 7896,
      "peninsula": 7897,
      "Hebrew": 7898,
      "Unicode": 7899,
      "Bat": 7900,
      "Downtown": 7901,
      "##eg": 7902,
      "##ista": 7903,
      "scr": 7904,
      "governing": 7905,
      "1947": 7906,
      "publ": 7907,
      "skills": 7908,
      "Sweden": 7909,
      "Thuringia": 7910,
      "duty": 7911,
      "lake": 7912,
      "##ethe": 7913,
      "##etary": 7914,
      "##etically": 7915,
      "##emed": 7916,
      "Indones": 7917,
      "competitions": 7918,
      "vehicle": 7919,
      "Independence": 7920,
      "appropriate": 7921,
      "lob": 7922,
      "##sor": 7923,
      "##sey": 7924,
      "evac": 7925,
      "172": 7926,
      "receives": 7927,
      "1952": 7928,
      "predecess": 7929,
      "Executive": 7930,
      "Anton": 7931,
      "tourists": 7932,
      "treated": 7933,
      "museums": 7934,
      "coins": 7935,
      "Montev": 7936,
      "##known": 7937,
      "CO": 7938,
      "Jon": 7939,
      "Jin": 7940,
      "Line": 7941,
      "root": 7942,
      "##uates": 7943,
      "earn": 7944,
      "colour": 7945,
      "subd": 7946,
      "educated": 7947,
      "recognize": 7948,
      "layers": 7949,
      "Alfred": 7950,
      "##SE": 7951,
      "atomic": 7952,
      "Step": 7953,
      "passes": 7954,
      "entities": 7955,
      "Barb": 7956,
      "Peace": 7957,
      "indicated": 7958,
      "understood": 7959,
      "Hungary": 7960,
      "Lower": 7961,
      "faster": 7962,
      "##ila": 7963,
      "##ilight": 7964,
      "strik": 7965,
      "Shah": 7966,
      "depends": 7967,
      "elevators": 7968,
      "distinguish": 7969,
      "shopping": 7970,
      "vessels": 7971,
      "Montevideo": 7972,
      "##pa": 7973,
      "##eland": 7974,
      "##osph": 7975,
      "##andescent": 7976,
      "##ibilities": 7977,
      "plain": 7978,
      "revival": 7979,
      "epic": 7980,
      "females": 7981,
      "teachings": 7982,
      "Anglican": 7983,
      "##ilater": 7984,
      "conven": 7985,
      "Start": 7986,
      "agent": 7987,
      "1912": 7988,
      "meetings": 7989,
      "Pet": 7990,
      "tropical": 7991,
      "whites": 7992,
      "overth": 7993,
      "particles": 7994,
      "respective": 7995,
      "discussed": 7996,
      "printing": 7997,
      "sharing": 7998,
      "curric": 7999,
      "prepared": 8000,
      "responded": 8001,
      "Penns": 8002,
      "literally": 8003,
      "Zhejiang": 8004,
      "Sud": 8005,
      "mac": 8006,
      "none": 8007,
      "storm": 8008,
      "alleg": 8009,
      "alumn": 8010,
      "##aga": 8011,
      "unless": 8012,
      "undert": 8013,
      "Progr": 8014,
      "identical": 8015,
      "loans": 8016,
      "##ushing": 8017,
      "detailed": 8018,
      "interactions": 8019,
      "##dam": 8020,
      "##iture": 8021,
      "##oto": 8022,
      "partially": 8023,
      "electrom": 8024,
      "##iox": 8025,
      "succession": 8026,
      "singing": 8027,
      "administered": 8028,
      "experimental": 8029,
      "Slavs": 8030,
      "Oh": 8031,
      "duties": 8032,
      "hence": 8033,
      "nit": 8034,
      "##eda": 8035,
      "Champions": 8036,
      "worst": 8037,
      "owners": 8038,
      "goes": 8039,
      "covering": 8040,
      "swe": 8041,
      "##agnetic": 8042,
      "husband": 8043,
      "84": 8044,
      "Ray": 8045,
      "vin": 8046,
      "##after": 8047,
      "##fl": 8048,
      "##GB": 8049,
      "##aly": 8050,
      "tools": 8051,
      "beaut": 8052,
      "intent": 8053,
      "Liberal": 8054,
      "twelve": 8055,
      "ratings": 8056,
      "Military": 8057,
      "details": 8058,
      "bottom": 8059,
      "Spectre": 8060,
      "Cre": 8061,
      "Dam": 8062,
      "Test": 8063,
      "Wii": 8064,
      "##wers": 8065,
      "##lus": 8066,
      "theater": 8067,
      "##ifice": 8068,
      "Front": 8069,
      "##anners": 8070,
      "Lev": 8071,
      "possibility": 8072,
      "NATO": 8073,
      "Temple": 8074,
      "Umayy": 8075,
      "Pennsylvania": 8076,
      "Every": 8077,
      "hall": 8078,
      "##iop": 8079,
      "##ares": 8080,
      "operational": 8081,
      "Therefore": 8082,
      "younger": 8083,
      "continuing": 8084,
      "farmers": 8085,
      "metaphys": 8086,
      "hair": 8087,
      "##yth": 8088,
      "##erors": 8089,
      "uncon": 8090,
      "centered": 8091,
      "canon": 8092,
      "modified": 8093,
      "democratic": 8094,
      "Russell": 8095,
      "facilit": 8096,
      "links": 8097,
      "philosophers": 8098,
      "Railway": 8099,
      "deposits": 8100,
      "Alsace": 8101,
      "Somerset": 8102,
      "Caesar": 8103,
      "Di": 8104,
      "lose": 8105,
      "##me": 8106,
      "sphere": 8107,
      "##izon": 8108,
      "invited": 8109,
      "civilians": 8110,
      "Architect": 8111,
      "thinking": 8112,
      "parliamentary": 8113,
      "Van": 8114,
      "flying": 8115,
      "##ework": 8116,
      "consecutive": 8117,
      "attached": 8118,
      "Economic": 8119,
      "circumstances": 8120,
      "Liver": 8121,
      "wine": 8122,
      "##kin": 8123,
      "inch": 8124,
      "Trad": 8125,
      "1937": 8126,
      "infrared": 8127,
      "sponsored": 8128,
      "picture": 8129,
      "Auth": 8130,
      "tent": 8131,
      "##room": 8132,
      "Stan": 8133,
      "clin": 8134,
      "##ounded": 8135,
      "##kee": 8136,
      "##ologically": 8137,
      "metab": 8138,
      "1917": 8139,
      "morning": 8140,
      "habitat": 8141,
      "opponents": 8142,
      "Schol": 8143,
      "ha": 8144,
      "pav": 8145,
      "##jan": 8146,
      "##employ": 8147,
      "##unte": 8148,
      "clar": 8149,
      "mode": 8150,
      "heads": 8151,
      "1910": 8152,
      "competing": 8153,
      "substance": 8154,
      "difficulty": 8155,
      "##ulsion": 8156,
      "commissioned": 8157,
      "DVD": 8158,
      "Fresno": 8159,
      "Taylor": 8160,
      "Il": 8161,
      "map": 8162,
      "southeast": 8163,
      "tied": 8164,
      "metals": 8165,
      "extension": 8166,
      "occurring": 8167,
      "##etics": 8168,
      "spot": 8169,
      "170": 8170,
      "##levant": 8171,
      "1955": 8172,
      "Mayor": 8173,
      "explos": 8174,
      "Ak": 8175,
      "Eton": 8176,
      "draft": 8177,
      "##uay": 8178,
      "##ho": 8179,
      "##idency": 8180,
      "ongoing": 8181,
      "##ockey": 8182,
      "Argent": 8183,
      "offensive": 8184,
      "##athan": 8185,
      "charges": 8186,
      "advice": 8187,
      "epid": 8188,
      "hunter": 8189,
      "shares": 8190,
      "PS3": 8191,
      "Kublai": 8192,
      "Meanwhile": 8193,
      "Tang": 8194,
      "lect": 8195,
      "##ez": 8196,
      "##aws": 8197,
      "##tees": 8198,
      "exposed": 8199,
      "Head": 8200,
      "economics": 8201,
      "citizenship": 8202,
      "imperialism": 8203,
      "enforcement": 8204,
      "Balkans": 8205,
      "Jefferson": 8206,
      "Dire": 8207,
      "Hit": 8208,
      "dual": 8209,
      "atoms": 8210,
      "controls": 8211,
      "photosynt": 8212,
      "windows": 8213,
      "Protestants": 8214,
      "Twilight": 8215,
      "reverse": 8216,
      "cuisine": 8217,
      "Home": 8218,
      "##MA": 8219,
      "tourist": 8220,
      "laboratory": 8221,
      "breeding": 8222,
      "corner": 8223,
      "vertical": 8224,
      "Manning": 8225,
      "mild": 8226,
      "##equ": 8227,
      "##abited": 8228,
      "##ocon": 8229,
      "##orship": 8230,
      "lock": 8231,
      "obst": 8232,
      "rebels": 8233,
      "premi": 8234,
      "Industrial": 8235,
      "Gor": 8236,
      "##xim": 8237,
      "##waffe": 8238,
      "##TA": 8239,
      "##istence": 8240,
      "intermed": 8241,
      "drum": 8242,
      "1936": 8243,
      "Energy": 8244,
      "stopped": 8245,
      "asthma": 8246,
      "92": 8247,
      "OS": 8248,
      "af": 8249,
      "hits": 8250,
      "pir": 8251,
      "pointed": 8252,
      "##illy": 8253,
      "##abb": 8254,
      "notion": 8255,
      "impossible": 8256,
      "flo": 8257,
      "130": 8258,
      "Calvin": 8259,
      "Hollywood": 8260,
      "chromos": 8261,
      "IC": 8262,
      "hip": 8263,
      "mental": 8264,
      "salt": 8265,
      "##aine": 8266,
      "overw": 8267,
      "interface": 8268,
      "##ocking": 8269,
      "##archy": 8270,
      "preserved": 8271,
      "Hotel": 8272,
      "Garden": 8273,
      "Ath": 8274,
      "cars": 8275,
      "rating": 8276,
      "chose": 8277,
      "154": 8278,
      "prevented": 8279,
      "conservation": 8280,
      "encourage": 8281,
      "arrangement": 8282,
      "slowly": 8283,
      "broadcasts": 8284,
      "Ga": 8285,
      "Night": 8286,
      "SN": 8287,
      "vul": 8288,
      "##oque": 8289,
      "##gl": 8290,
      "##icts": 8291,
      "##isition": 8292,
      "##olics": 8293,
      "priest": 8294,
      "##licated": 8295,
      "ends": 8296,
      "improvements": 8297,
      "LaserD": 8298,
      "FM": 8299,
      "fer": 8300,
      "input": 8301,
      "##operation": 8302,
      "adding": 8303,
      "1946": 8304,
      "geomet": 8305,
      "opportunities": 8306,
      "interview": 8307,
      "adapted": 8308,
      "Medicine": 8309,
      "Liverpool": 8310,
      "Luc": 8311,
      "Tal": 8312,
      "rac": 8313,
      "sit": 8314,
      "tract": 8315,
      "desire": 8316,
      "noise": 8317,
      "backed": 8318,
      "##hemical": 8319,
      "edge": 8320,
      "tribe": 8321,
      "decrease": 8322,
      "recommend": 8323,
      "Memb": 8324,
      "currency": 8325,
      "Medieval": 8326,
      "Armenians": 8327,
      "Mugh": 8328,
      "Digital": 8329,
      "pronunciation": 8330,
      "consequence": 8331,
      "murder": 8332,
      "Bah": 8333,
      "Cas": 8334,
      "Pass": 8335,
      "furn": 8336,
      "1800": 8337,
      "Engine": 8338,
      "arranged": 8339,
      "prisoners": 8340,
      "emergence": 8341,
      "sacrifice": 8342,
      "EC": 8343,
      "RO": 8344,
      "SA": 8345,
      "print": 8346,
      "##ector": 8347,
      "champion": 8348,
      "strike": 8349,
      "viewers": 8350,
      "1938": 8351,
      "Edison": 8352,
      "brothers": 8353,
      "corporate": 8354,
      "deployed": 8355,
      "girls": 8356,
      "FIFA": 8357,
      "enthus": 8358,
      "LaserDisc": 8359,
      "Fun": 8360,
      "Tam": 8361,
      "Wild": 8362,
      "icon": 8363,
      "##rical": 8364,
      "##eals": 8365,
      "##bar": 8366,
      "intercept": 8367,
      "Att": 8368,
      "MPEG": 8369,
      "Franklin": 8370,
      "proteins": 8371,
      "Broadway": 8372,
      "Bou": 8373,
      "din": 8374,
      "save": 8375,
      "##ev": 8376,
      "##ortion": 8377,
      "neuro": 8378,
      "subt": 8379,
      "Jacksonville": 8380,
      "Tajikistan": 8381,
      "Yang": 8382,
      "sugar": 8383,
      "##ogens": 8384,
      "unity": 8385,
      "description": 8386,
      "capabilities": 8387,
      "commerce": 8388,
      "maintaining": 8389,
      "Throughout": 8390,
      "rainforest": 8391,
      "Turn": 8392,
      "sons": 8393,
      "##IC": 8394,
      "##onies": 8395,
      "##oln": 8396,
      "plus": 8397,
      "Those": 8398,
      "Lutheran": 8399,
      "Solar": 8400,
      "emergency": 8401,
      "Grammy": 8402,
      "Tre": 8403,
      "cyl": 8404,
      "lot": 8405,
      "stem": 8406,
      "intr": 8407,
      "allied": 8408,
      "Death": 8409,
      "Others": 8410,
      "funeral": 8411,
      "Crime": 8412,
      "##ytechn": 8413,
      "Corn": 8414,
      "##roe": 8415,
      "##adesh": 8416,
      "Congo": 8417,
      "capacitors": 8418,
      "morph": 8419,
      "Andrew": 8420,
      "Dominican": 8421,
      "conventional": 8422,
      "Luftwaffe": 8423,
      "Fle": 8424,
      "PA": 8425,
      "narr": 8426,
      "rocks": 8427,
      "indirect": 8428,
      "empires": 8429,
      "imag": 8430,
      "complement": 8431,
      "1919": 8432,
      "customs": 8433,
      "encoding": 8434,
      "Lady": 8435,
      "chairman": 8436,
      "##irts": 8437,
      "conj": 8438,
      "spin": 8439,
      "united": 8440,
      "##acteria": 8441,
      "Phys": 8442,
      "1931": 8443,
      "familiar": 8444,
      "Mahayana": 8445,
      "departments": 8446,
      "Rajas": 8447,
      "refugees": 8448,
      "overwhel": 8449,
      "ahead": 8450,
      "trou": 8451,
      "##hr": 8452,
      "canc": 8453,
      "door": 8454,
      "accident": 8455,
      "Leban": 8456,
      "signs": 8457,
      "Anat": 8458,
      "Forbes": 8459,
      "crimes": 8460,
      "weekly": 8461,
      "easy": 8462,
      "absorbed": 8463,
      "Antarctic": 8464,
      "infringement": 8465,
      "cavalry": 8466,
      "tests": 8467,
      "##anz": 8468,
      "beings": 8469,
      "agents": 8470,
      "stands": 8471,
      "entitled": 8472,
      "technological": 8473,
      "titled": 8474,
      "entering": 8475,
      "hunters": 8476,
      "capacitor": 8477,
      "NASA": 8478,
      "Mend": 8479,
      "ju": 8480,
      "cler": 8481,
      "unemploy": 8482,
      "territorial": 8483,
      "Catholics": 8484,
      "Turks": 8485,
      "eliminated": 8486,
      "prompted": 8487,
      "Po": 8488,
      "##bra": 8489,
      "##omans": 8490,
      "##lyn": 8491,
      "##amework": 8492,
      "##irms": 8493,
      "##othe": 8494,
      "intense": 8495,
      "expanding": 8496,
      "upgr": 8497,
      "##lik": 8498,
      "Clin": 8499,
      "architects": 8500,
      "judg": 8501,
      "Interstate": 8502,
      "Karl": 8503,
      "corresponding": 8504,
      "synthes": 8505,
      "Daniel": 8506,
      "collapsed": 8507,
      "97": 8508,
      "Curr": 8509,
      "bases": 8510,
      "eyes": 8511,
      "##can": 8512,
      "##eto": 8513,
      "##arte": 8514,
      "incandescent": 8515,
      "unus": 8516,
      "grade": 8517,
      "feud": 8518,
      "opera": 8519,
      "protesters": 8520,
      "Arabs": 8521,
      "involve": 8522,
      "professor": 8523,
      "manufactured": 8524,
      "ethnicity": 8525,
      "discussion": 8526,
      "annexed": 8527,
      "Continental": 8528,
      "unsuccess": 8529,
      "KU": 8530,
      "158": 8531,
      "nationalism": 8532,
      "returning": 8533,
      "replacement": 8534,
      "dominance": 8535,
      "frequencies": 8536,
      "Burm": 8537,
      "Historic": 8538,
      "dielectric": 8539,
      "Rajasthan": 8540,
      "67": 8541,
      "Trib": 8542,
      "##orf": 8543,
      "##aled": 8544,
      "tower": 8545,
      "spaces": 8546,
      "##aka": 8547,
      "stronger": 8548,
      "codes": 8549,
      "Belgium": 8550,
      "Now": 8551,
      "##RC": 8552,
      "##ighters": 8553,
      "##aste": 8554,
      "##lications": 8555,
      "Examp": 8556,
      "sentence": 8557,
      "oxide": 8558,
      "linear": 8559,
      "permitted": 8560,
      "predominantly": 8561,
      "Administration": 8562,
      "suspended": 8563,
      "TB": 8564,
      "ibn": 8565,
      "##irs": 8566,
      "##ovak": 8567,
      "civilization": 8568,
      "load": 8569,
      "Samuel": 8570,
      "convert": 8571,
      "Legisl": 8572,
      "Aud": 8573,
      "Tra": 8574,
      "##urated": 8575,
      "##umed": 8576,
      "discontin": 8577,
      "concerts": 8578,
      "pathogen": 8579,
      "episodes": 8580,
      "Ukraine": 8581,
      "dangerous": 8582,
      "Heart": 8583,
      "Little": 8584,
      "Burmese": 8585,
      "AT": 8586,
      "Gil": 8587,
      "gar": 8588,
      "##iates": 8589,
      "##rie": 8590,
      "##pella": 8591,
      "##using": 8592,
      "cappella": 8593,
      "Marath": 8594,
      "Adam": 8595,
      "involvement": 8596,
      "painting": 8597,
      "Metropolitan": 8598,
      "cardinal": 8599,
      "Roger": 8600,
      "Author": 8601,
      "89": 8602,
      "9th": 8603,
      "Lanc": 8604,
      "abund": 8605,
      "daylight": 8606,
      "Beat": 8607,
      "falls": 8608,
      "mechanisms": 8609,
      "objective": 8610,
      "exhibition": 8611,
      "Opera": 8612,
      "Huguenots": 8613,
      "Sicily": 8614,
      "83": 8615,
      "AI": 8616,
      "Five": 8617,
      "Hud": 8618,
      "Linc": 8619,
      "Naz": 8620,
      "flex": 8621,
      "vit": 8622,
      "##25": 8623,
      "organisation": 8624,
      "landed": 8625,
      "1934": 8626,
      "guitar": 8627,
      "deliber": 8628,
      "bombs": 8629,
      "maintains": 8630,
      "missile": 8631,
      "message": 8632,
      "subsidiary": 8633,
      "Kennedy": 8634,
      "perspective": 8635,
      "Pier": 8636,
      "fit": 8637,
      "##agm": 8638,
      "worn": 8639,
      "Fried": 8640,
      "##ukary": 8641,
      "republican": 8642,
      "enjoyed": 8643,
      "##alf": 8644,
      "alter": 8645,
      "recru": 8646,
      "Color": 8647,
      "##ikh": 8648,
      "Adv": 8649,
      "collected": 8650,
      "satis": 8651,
      "temporarily": 8652,
      "Beng": 8653,
      "Him": 8654,
      "Tyn": 8655,
      "Von": 8656,
      "##atus": 8657,
      "bear": 8658,
      "ages": 8659,
      "assim": 8660,
      "transist": 8661,
      "discour": 8662,
      "Show": 8663,
      "southwest": 8664,
      "Abu": 8665,
      "psychology": 8666,
      "Huguenot": 8667,
      "Jan": 8668,
      "Point": 8669,
      "Pius": 8670,
      "Ten": 8671,
      "Upper": 8672,
      "erect": 8673,
      "sulf": 8674,
      "##fit": 8675,
      "Forest": 8676,
      "mining": 8677,
      "drives": 8678,
      "1959": 8679,
      "finding": 8680,
      "voters": 8681,
      "journey": 8682,
      "comprising": 8683,
      "Work": 8684,
      "bot": 8685,
      "fiber": 8686,
      "##oons": 8687,
      "##icip": 8688,
      "spac": 8689,
      "##ipher": 8690,
      "provincial": 8691,
      "occasions": 8692,
      "showing": 8693,
      "Canal": 8694,
      "doctr": 8695,
      "negotiations": 8696,
      "extinct": 8697,
      "Upon": 8698,
      "Ukrainian": 8699,
      "Oxford": 8700,
      "punishment": 8701,
      "artificial": 8702,
      "Sound": 8703,
      "eye": 8704,
      "unknown": 8705,
      "partnership": 8706,
      "someone": 8707,
      "temp": 8708,
      "devoted": 8709,
      "ready": 8710,
      "potentially": 8711,
      "rebellion": 8712,
      "ancestor": 8713,
      "escape": 8714,
      "transformed": 8715,
      "Cret": 8716,
      "DJ": 8717,
      "rig": 8718,
      "sand": 8719,
      "##ook": 8720,
      "##worth": 8721,
      "##hire": 8722,
      "releases": 8723,
      "competitive": 8724,
      "1922": 8725,
      "facing": 8726,
      "nominated": 8727,
      "briefly": 8728,
      "infectious": 8729,
      "Len": 8730,
      "##acc": 8731,
      "trains": 8732,
      "decis": 8733,
      "subcontinent": 8734,
      "weaken": 8735,
      "##ommod": 8736,
      "myst": 8737,
      "Control": 8738,
      "CEO": 8739,
      "renewable": 8740,
      "phenomenon": 8741,
      "enacted": 8742,
      "Nicholas": 8743,
      "Examples": 8744,
      "Lincoln": 8745,
      "##hann": 8746,
      "##iders": 8747,
      "##aders": 8748,
      "##itional": 8749,
      "Armed": 8750,
      "estate": 8751,
      "specialized": 8752,
      "delayed": 8753,
      "Appro": 8754,
      "Franco": 8755,
      "displays": 8756,
      "keeping": 8757,
      "publishing": 8758,
      "Gar": 8759,
      "hem": 8760,
      "vision": 8761,
      "##raph": 8762,
      "exile": 8763,
      "Warner": 8764,
      "163": 8765,
      "factories": 8766,
      "switch": 8767,
      "conception": 8768,
      "pathogens": 8769,
      "Hungarian": 8770,
      "touchdown": 8771,
      "94": 8772,
      "van": 8773,
      "##nas": 8774,
      "tourn": 8775,
      "##aks": 8776,
      "##erman": 8777,
      "provisions": 8778,
      "aired": 8779,
      "identification": 8780,
      "error": 8781,
      "Serbian": 8782,
      "basketball": 8783,
      "Pit": 8784,
      "Pap": 8785,
      "rice": 8786,
      "##oan": 8787,
      "##MC": 8788,
      "##erg": 8789,
      "##isations": 8790,
      "abbre": 8791,
      "decide": 8792,
      "electro": 8793,
      "supplement": 8794,
      "Dean": 8795,
      "findings": 8796,
      "attendance": 8797,
      "ancestors": 8798,
      "##artered": 8799,
      "abbrev": 8800,
      "MTV": 8801,
      "##etes": 8802,
      "##uten": 8803,
      "##ods": 8804,
      "Princip": 8805,
      "accommod": 8806,
      "transit": 8807,
      "grain": 8808,
      "monitor": 8809,
      "filed": 8810,
      "lesser": 8811,
      "mechanics": 8812,
      "symbols": 8813,
      "cabinet": 8814,
      "Cape": 8815,
      "Vis": 8816,
      "cosm": 8817,
      "gap": 8818,
      "##uct": 8819,
      "##roduc": 8820,
      "shr": 8821,
      "marks": 8822,
      "Operation": 8823,
      "villages": 8824,
      "entrance": 8825,
      "Bad": 8826,
      "Ill": 8827,
      "Sav": 8828,
      "##iva": 8829,
      "##0000": 8830,
      "anything": 8831,
      "geographic": 8832,
      "Madrid": 8833,
      "foods": 8834,
      "Mountain": 8835,
      "inhabited": 8836,
      "boundary": 8837,
      "license": 8838,
      "avoided": 8839,
      "simultaneously": 8840,
      "RI": 8841,
      "Ze": 8842,
      "overl": 8843,
      "##arrhe": 8844,
      "##play": 8845,
      "1930": 8846,
      "Supp": 8847,
      "hymn": 8848,
      "argument": 8849,
      "1861": 8850,
      "absence": 8851,
      "fossil": 8852,
      "Journal": 8853,
      "Roll": 8854,
      "pit": 8855,
      "pitch": 8856,
      "##raries": 8857,
      "Seven": 8858,
      "blocks": 8859,
      "agreements": 8860,
      "massac": 8861,
      "merc": 8862,
      "Ottomans": 8863,
      "##criptions": 8864,
      "Agency": 8865,
      "comprises": 8866,
      "Bernard": 8867,
      "membrane": 8868,
      "pesticides": 8869,
      "Affairs": 8870,
      "##iblical": 8871,
      "Gene": 8872,
      "fishing": 8873,
      "witness": 8874,
      "##Mac": 8875,
      "##ante": 8876,
      "accord": 8877,
      "##ugby": 8878,
      "manif": 8879,
      "followers": 8880,
      "Soviets": 8881,
      "Caucas": 8882,
      "garden": 8883,
      "neighbouring": 8884,
      "Territory": 8885,
      "Hudson": 8886,
      "Ach": 8887,
      "Federation": 8888,
      "Hok": 8889,
      "Vill": 8890,
      "rated": 8891,
      "##vision": 8892,
      "facto": 8893,
      "everyday": 8894,
      "tribal": 8895,
      "acceptance": 8896,
      "Heritage": 8897,
      "raise": 8898,
      "Moreover": 8899,
      "initiative": 8900,
      "Ethiop": 8901,
      "##tebrates": 8902,
      "Bul": 8903,
      "Set": 8904,
      "##istent": 8905,
      "Whit": 8906,
      "overt": 8907,
      "remote": 8908,
      "revol": 8909,
      "vocabulary": 8910,
      "Gallery": 8911,
      "infections": 8912,
      "Kill": 8913,
      "Mir": 8914,
      "##kh": 8915,
      "##leans": 8916,
      "Inform": 8917,
      "perfect": 8918,
      "remark": 8919,
      "receiver": 8920,
      "possession": 8921,
      "##arma": 8922,
      "mixture": 8923,
      "instrumental": 8924,
      "visiting": 8925,
      "donated": 8926,
      "pollution": 8927,
      "Independent": 8928,
      "licensed": 8929,
      "conscious": 8930,
      "vinyl": 8931,
      "Members": 8932,
      "papers": 8933,
      "resign": 8934,
      "##uez": 8935,
      "painted": 8936,
      "exceptions": 8937,
      "Defense": 8938,
      "merchants": 8939,
      "alphabet": 8940,
      "nineteenth": 8941,
      "Eli": 8942,
      "Hon": 8943,
      "Sher": 8944,
      "tal": 8945,
      "##ifer": 8946,
      "infantry": 8947,
      "outbreak": 8948,
      "devast": 8949,
      "sectors": 8950,
      "kinds": 8951,
      "ultimate": 8952,
      "recovery": 8953,
      "##osystem": 8954,
      "Urug": 8955,
      "cy": 8956,
      "##abs": 8957,
      "primes": 8958,
      "##outheastern": 8959,
      "##aceous": 8960,
      "outd": 8961,
      "Scient": 8962,
      "propag": 8963,
      "rocket": 8964,
      "Cambridge": 8965,
      "segments": 8966,
      "accurate": 8967,
      "celebration": 8968,
      "Director": 8969,
      "Uruguay": 8970,
      "Lama": 8971,
      "Vatic": 8972,
      "bass": 8973,
      "bishop": 8974,
      "wa": 8975,
      "##zone": 8976,
      "##pet": 8977,
      "##ba": 8978,
      "##stan": 8979,
      "##otype": 8980,
      "retreat": 8981,
      "##ospel": 8982,
      "volunte": 8983,
      "diagn": 8984,
      "millions": 8985,
      "advertising": 8986,
      "Vatican": 8987,
      "Moon": 8988,
      "rom": 8989,
      "row": 8990,
      "##adic": 8991,
      "##pping": 8992,
      "##eller": 8993,
      "willing": 8994,
      "Orleans": 8995,
      "confront": 8996,
      "Trust": 8997,
      "debuted": 8998,
      "citizen": 8999,
      "functional": 9000,
      "telecomm": 9001,
      "Brah": 9002,
      "alumni": 9003,
      "Iber": 9004,
      "Rhod": 9005,
      "##right": 9006,
      "##rec": 9007,
      "##oust": 9008,
      "##leum": 9009,
      "stra": 9010,
      "proof": 9011,
      "##agh": 9012,
      "##ipel": 9013,
      "abroad": 9014,
      "disaster": 9015,
      "monks": 9016,
      "Athens": 9017,
      "Orient": 9018,
      "childhood": 9019,
      "declar": 9020,
      "1876": 9021,
      "concerning": 9022,
      "headquartered": 9023,
      "sculpture": 9024,
      "Circ": 9025,
      "Occ": 9026,
      "kg": 9027,
      "##mann": 9028,
      "##aton": 9029,
      "forests": 9030,
      "partner": 9031,
      "boom": 9032,
      "finance": 9033,
      "Begin": 9034,
      "participation": 9035,
      "theoretical": 9036,
      "cruc": 9037,
      "Market": 9038,
      "galleries": 9039,
      "##angelical": 9040,
      "Gir": 9041,
      "abbey": 9042,
      "##ucks": 9043,
      "airports": 9044,
      "publications": 9045,
      "106": 9046,
      "Queens": 9047,
      "Harbor": 9048,
      "extending": 9049,
      "diarrhe": 9050,
      "congregations": 9051,
      "Pictures": 9052,
      "82": 9053,
      "Mig": 9054,
      "Warr": 9055,
      "zero": 9056,
      "##enz": 9057,
      "deemed": 9058,
      "##aked": 9059,
      "unified": 9060,
      "##rice": 9061,
      "pref": 9062,
      "defensive": 9063,
      "Indians": 9064,
      "producers": 9065,
      "contribute": 9066,
      "generations": 9067,
      "Samoa": 9068,
      "promoting": 9069,
      "atmospher": 9070,
      "cognitive": 9071,
      "Dog": 9072,
      "Tel": 9073,
      "Tun": 9074,
      "cycl": 9075,
      "option": 9076,
      "##gage": 9077,
      "##avia": 9078,
      "surpass": 9079,
      "demands": 9080,
      "referring": 9081,
      "studying": 9082,
      "falling": 9083,
      "check": 9084,
      "Saxony": 9085,
      "gathered": 9086,
      "Bosn": 9087,
      "Sudan": 9088,
      "Know": 9089,
      "##gi": 9090,
      "##zym": 9091,
      "##bear": 9092,
      "infer": 9093,
      "##itance": 9094,
      "relevant": 9095,
      "trust": 9096,
      "chamber": 9097,
      "Howard": 9098,
      "156": 9099,
      "engage": 9100,
      "crossing": 9101,
      "difficulties": 9102,
      "##etroleum": 9103,
      "golden": 9104,
      "Brooklyn": 9105,
      "))": 9106,
      "Jord": 9107,
      "Roc": 9108,
      "Sant": 9109,
      "aest": 9110,
      "stayed": 9111,
      "##ules": 9112,
      "suit": 9113,
      "chance": 9114,
      "intention": 9115,
      "doors": 9116,
      "termed": 9117,
      "##iscop": 9118,
      "volumes": 9119,
      "minorities": 9120,
      "Apost": 9121,
      "eleven": 9122,
      "implementation": 9123,
      "pronounced": 9124,
      "Wilson": 9125,
      "adolescence": 9126,
      "praised": 9127,
      "Destiny": 9128,
      "##roducing": 9129,
      "Bang": 9130,
      "Cob": 9131,
      "Form": 9132,
      "bills": 9133,
      "eukary": 9134,
      "liv": 9135,
      "rum": 9136,
      "##oult": 9137,
      "##idges": 9138,
      "orthodox": 9139,
      "plates": 9140,
      "aggress": 9141,
      "phosph": 9142,
      "afford": 9143,
      "consistent": 9144,
      "uncertain": 9145,
      "fluid": 9146,
      "militia": 9147,
      "Event": 9148,
      "Saf": 9149,
      "##icop": 9150,
      "##ecraft": 9151,
      "##adi": 9152,
      "##thood": 9153,
      "##utor": 9154,
      "prayer": 9155,
      "spr": 9156,
      "Reb": 9157,
      "interested": 9158,
      "##present": 9159,
      "internationally": 9160,
      "Libyan": 9161,
      "remainder": 9162,
      "adolescent": 9163,
      "linguistic": 9164,
      "raids": 9165,
      "Movement": 9166,
      "lunar": 9167,
      "curriculum": 9168,
      "ped": 9169,
      "pushed": 9170,
      "tack": 9171,
      "##omo": 9172,
      "stood": 9173,
      "communist": 9174,
      "declining": 9175,
      "##ospitals": 9176,
      "marketing": 9177,
      "regardless": 9178,
      "Anatol": 9179,
      "Mali": 9180,
      "diox": 9181,
      "horm": 9182,
      "veter": 9183,
      "##lach": 9184,
      "##reated": 9185,
      "##owed": 9186,
      "tends": 9187,
      "Bras": 9188,
      "basin": 9189,
      "carries": 9190,
      "swim": 9191,
      "literacy": 9192,
      "removal": 9193,
      "dissolved": 9194,
[...]
