{
  "version": "1.0",
  "truncation": null,
  "padding": null,
  "added_tokens": [
    {
      "id": 0,
      "content": "[UNK]",
      "single_word": false,
      "lstrip": false,
      "rstrip": false,
      "normalized": false,
      "special": true
    },
    {
      "id": 1,
      "content": "[CLS]",
      "single_word": false,
      "lstrip": false,
      "rstrip": false,
      "normalized": false,
      "special": true
    },
    {
      "id": 2,
      "content": "[SEP]",
      "single_word": false,
      "lstrip": false,
      "rstrip": false,
      "normalized": false,
      "special": true
    },
    {
      "id": 3,
      "content": "[PAD]",
      "single_word": false,
      "lstrip": false,
      "rstrip": false,
      "normalized": false,
      "special": true
    },
    {
      "id": 4,
      "content": "[MASK]",
      "single_word": false,
      "lstrip": false,
      "rstrip": false,
      "normalized": false,
      "special": true
    }
  ],
  "normalizer": null,
  "pre_tokenizer": {
    "type": "Whitespace"
  },
  "post_processor": {
    "type": "TemplateProcessing",
    "single": [
      {
        "SpecialToken": {
          "id": "[CLS]",
          "type_id": 0
        }
      },
      {
        "Sequence": {
          "id": "A",
          "type_id": 0
        }
      },
      {
        "SpecialToken": {
          "id": "[SEP]",
          "type_id": 0
        }
      }
    ],
    "pair": [
      {
        "SpecialToken": {
          "id": "[CLS]",
          "type_id": 0
        }
      },
      {
        "Sequence": {
          "id": "A",
          "type_id": 0
        }
      },
      {
        "SpecialToken": {
          "id": "[SEP]",
          "type_id": 0
        }
      },
      {
        "Sequence": {
          "id": "B",
          "type_id": 1
        }
      },
      {
        "SpecialToken": {
          "id": "[SEP]",
          "type_id": 1
        }
      }
    ],
    "special_tokens": {
      "[CLS]": {
        "id": "[CLS]",
        "ids": [
          1
        ],
        "tokens": [
          "[CLS]"
        ]
      },
      "[SEP]": {
        "id": "[SEP]",
        "ids": [
          2
        ],
        "tokens": [
          "[SEP]"
        ]
      }
    }
  },
  "decoder": null,
  "model": {
    "type": "BPE",
    "dropout": null,
    "unk_token": "[UNK]",
    "continuing_subword_prefix": null,
    "end_of_word_suffix": null,
    "fuse_unk": false,
    "byte_fallback": false,
    "ignore_merges": false,
    "vocab": {
      "[UNK]": 0,
      "[CLS]": 1,
      "[SEP]": 2,
      "[PAD]": 3,
      "[MASK]": 4,
      "!": 5,
      "(": 6,
      ")": 7,
      ",": 8,
      "-": 9,
      ".": 10,
      "0": 11,
      "1": 12,
      "2": 13,
      "3": 14,
      "4": 15,
      "5": 16,
      "6": 17,
      "7": 18,
      "8": 19,
      "9": 20,
      "A": 21,
      "B": 22,
      "C": 23,
      "D": 24,
      "E": 25,
      "F": 26,
      "G": 27,
      "H": 28,
      "I": 29,
      "J": 30,
      "K": 31,
      "L": 32,
      "M": 33,
      "N": 34,
      "O": 35,
      "P": 36,
      "Q": 37,
      "R": 38,
      "S": 39,
      "T": 40,
      "U": 41,
      "V": 42,
      "W": 43,
      "X": 44,
      "Y": 45,
      "Z": 46,
      "_": 47,
      "a": 48,
      "b": 49,
      "c": 50,
      "d": 51,
      "e": 52,
      "f": 53,
      "g": 54,
      "h": 55,
      "i": 56,
      "j": 57,
      "k": 58,
      "l": 59,
      "m": 60,
      "n": 61,
      "o": 62,
      "p": 63,
      "q": 64,
      "r": 65,
      "s": 66,
      "t": 67,
      "u": 68,
      "v": 69,
      "w": 70,
      "x": 71,
      "y": 72,
      "z": 73,
      "th": 74,
      "in": 75,
      "the": 76,
      "an": 77,
      "er": 78,
      "at": 79,
      "on": 80,
      "re": 81,
      "en": 82,
      "ed": 83,
      "or": 84,
      "al": 85,
      "st": 86,
      "of": 87,
      "ar": 88,
      "es": 89,
      "as": 90,
      "is": 91,
      "ic": 92,
      "it": 93,
      "and": 94,
      "ion": 95,
      "to": 96,
      "ing": 97,
      "ro": 98,
      "ou": 99,
      "le": 100,
      "Wh": 101,
      "ent": 102,
      "ch": 103,
      "om": 104,
      "id": 105,
      "el": 106,
      "ct": 107,
      "il": 108,
      "ol": 109,
      "se": 110,
      "wh": 111,
      "ad": 112,
      "am": 113,
      "ation": 114,
      "be": 115,
      "What": 116,
      "he": 117,
      "for": 118,
      "ow": 119,
      "ur": 120,
      "was": 121,
      "ce": 122,
      "iv": 123,
      "ly": 124,
      "ig": 125,
      "im": 126,
      "con": 127,
      "un": 128,
      "de": 129,
      "us": 130,
      "ir": 131,
      "ers": 132,
      "op": 133,
      "are": 134,
      "ul": 135,
      "The": 136,
      "em": 137,
      "la": 138,
      "ter": 139,
      "ge": 140,
      "ith": 141,
      "pe": 142,
      "ist": 143,
      "ra": 144,
      "ver": 145,
      "mo": 146,
      "res": 147,
      "com": 148,
      "ere": 149,
      "with": 150,
      "by": 151,
      "pro": 152,
      "ut": 153,
      "that": 154,
      "ity": 155,
      "ot": 156,
      "su": 157,
      "man": 158,
      "ies": 159,
      "In": 160,
      "ab": 161,
      "ex": 162,
      "ate": 163,
      "av": 164,
      "et": 165,
      "ther": 166,
      "all": 167,
      "ich": 168,
      "oun": 169,
      "did": 170,
      "ac": 171,
      "ap": 172,
      "est": 173,
      "rom": 174,
      "oc": 175,
      "ma": 176,
      "per": 177,
      "ian": 178,
      "art": 179,
      "00": 180,
      "ment": 181,
      "from": 182,
      "19": 183,
      "if": 184,
      "ant": 185,
      "tr": 186,
      "ial": 187,
      "ne": 188,
      "cl": 189,
      "what": 190,
      "ia": 191,
      "od": 192,
      "os": 193,
      "ated": 194,
      "ear": 195,
      "were": 196,
      "ay": 197,
      "um": 198,
      "qu": 199,
      "ag": 200,
      "igh": 201,
      "ish": 202,
      "ort": 203,
      "ive": 204,
      "ud": 205,
      "ical": 206,
      "ess": 207,
      "ain": 208,
      "do": 209,
      "over": 210,
      "which": 211,
      "der": 212,
      "sh": 213,
      "te": 214,
      "ld": 215,
      "up": 216,
      "ame": 217,
      "his": 218,
      "Ch": 219,
      "ill": 220,
      "du": 221,
      "ib": 222,
      "act": 223,
      "ip": 224,
      "ast": 225,
      "ong": 226,
      "end": 227,
      "ave": 228,
      "ass": 229,
      "cent": 230,
      "wor": 231,
      "als": 232,
      "ard": 233,
      "How": 234,
      "str": 235,
      "gh": 236,
      "pr": 237,
      "ary": 238,
      "many": 239,
      "tw": 240,
      "pl": 241,
      "ure": 242,
      "port": 243,
      "ph": 244,
      "ev": 245,
      "out": 246,
      "form": 247,
      "its": 248,
      "not": 249,
      "ke": 250,
      "one": 251,
      "our": 252,
      "have": 253,
      "Who": 254,
      "ions": 255,
      "ell": 256,
      "ous": 257,
      "iz": 258,
      "ine": 259,
      "rit": 260,
      "other": 261,
      "og": 262,
      "comp": 263,
      "ub": 264,
      "ire": 265,
      "part": 266,
      "ew": 267,
      "age": 268,
      "cont": 269,
      "ult": 270,
      "ber": 271,
      "ans": 272,
      "year": 273,
      "has": 274,
      "ight": 275,
      "ect": 276,
      "ome": 277,
      "af": 278,
      "own": 279,
      "ence": 280,
      "20": 281,
      "fir": 282,
      "pt": 283,
      "ore": 284,
      "land": 285,
      "Un": 286,
      "pla": 287,
      "use": 288,
      "ations": 289,
      "ide": 290,
      "cre": 291,
      "ign": 292,
      "ang": 293,
      "St": 294,
      "their": 295,
      "fer": 296,
      "ally": 297,
      "first": 298,
      "ates": 299,
      "int": 300,
      "ound": 301,
      "ach": 302,
      "pre": 303,
      "used": 304,
      "mer": 305,
      "most": 306,
      "ty": 307,
      "200": 308,
      "ition": 309,
      "cor": 310,
      "had": 311,
      "me": 312,
      "ran": 313,
      "ree": 314,
      "pres": 315,
      "dis": 316,
      "ren": 317,
      "ction": 318,
      "also": 319,
      "When": 320,
      "ould": 321,
      "att": 322,
      "ced": 323,
      "mon": 324,
      "ind": 325,
      "coun": 326,
      "uring": 327,
      "can": 328,
      "gro": 329,
      "gen": 330,
      "ime": 331,
      "vel": 332,
      "ater": 333,
      "po": 334,
      "ks": 335,
      "sy": 336,
      "ue": 337,
      "pol": 338,
      "ser": 339,
      "bo": 340,
      "),": 341,
      "able": 342,
      "ice": 343,
      "18": 344,
      "ely": 345,
      "ces": 346,
      "rel": 347,
      "spe": 348,
      "ak": 349,
      "ens": 350,
      "ele": 351,
      "reg": 352,
      "ict": 353,
      "who": 354,
      "lar": 355,
      "incl": 356,
      "ef": 357,
      "201": 358,
      "does": 359,
      "ory": 360,
      "ied": 361,
      "but": 362,
      "ational": 363,
      "fl": 364,
      "co": 365,
      "col": 366,
      "pos": 367,
      "this": 368,
      "Th": 369,
      "vi": 370,
      "been": 371,
      "ve": 372,
      "pop": 373,
      "ade": 374,
      "Al": 375,
      "cr": 376,
      "ited": 377,
      "ding": 378,
      "more": 379,
      "gr": 380,
      "ents": 381,
      "lish": 382,
      "inter": 383,
      "any": 384,
      "pub": 385,
      "ugh": 386,
      "min": 387,
      "ob": 388,
      "cess": 389,
      "li": 390,
      "des": 391,
      "kn": 392,
      "ance": 393,
      "ca": 394,
      "ism": 395,
      "ts": 396,
      "ors": 397,
      "into": 398,
      "such": 399,
      "new": 400,
      "popul": 401,
      "ough": 402,
      "than": 403,
      "city": 404,
      "Ar": 405,
      "ile": 406,
      "two": 407,
      "ust": 408,
      "king": 409,
      "cons": 410,
      "ivers": 411,
      "low": 412,
      "off": 413,
      "overn": 414,
      "loc": 415,
      "Which": 416,
      "een": 417,
      "ern": 418,
      "some": 419,
      "ury": 420,
      ").": 421,
      "ities": 422,
      "ican": 423,
      "time": 424,
      "cho": 425,
      "stem": 426,
      "arch": 427,
      "ese": 428,
      "ase": 429,
      "Amer": 430,
      "after": 431,
      "ood": 432,
      "rough": 433,
      "gan": 434,
      "ever": 435,
      "call": 436,
      "An": 437,
      "ds": 438,
      "amp": 439,
      "they": 440,
      "ased": 441,
      "sp": 442,
      "ople": 443,
      "prov": 444,
      "cur": 445,
      "ite": 446,
      "reat": 447,
      "ific": 448,
      "ten": 449,
      "during": 450,
      "betw": 451,
      "countr": 452,
      "between": 453,
      "produ": 454,
      "under": 455,
      "mar": 456,
      "lic": 457,
      "ann": 458,
      "ta": 459,
      "large": 460,
      "name": 461,
      "air": 462,
      "ug": 463,
      "ci": 464,
      "fin": 465,
      "ons": 466,
      "It": 467,
      "New": 468,
      "when": 469,
      "les": 470,
      "led": 471,
      "comm": 472,
      "system": 473,
      "lo": 474,
      "ck": 475,
      "fr": 476,
      "uro": 477,
      "En": 478,
      "ry": 479,
      "ath": 480,
      "govern": 481,
      "ution": 482,
      "includ": 483,
      "cial": 484,
      "eral": 485,
      "ics": 486,
      "work": 487,
      "fe": 488,
      "ident": 489,
      "serv": 490,
      "olog": 491,
      "century": 492,
      "aw": 493,
      "ower": 494,
      "bu": 495,
      "ual": 496,
      "we": 497,
      "main": 498,
      "Where": 499,
      "day": 500,
      "people": 501,
      "As": 502,
      "sub": 503,
      "chool": 504,
      "med": 505,
      "would": 506,
      "inv": 507,
      "state": 508,
      "outh": 509,
      "Is": 510,
      "ext": 511,
      "stud": 512,
      "old": 513,
      "stru": 514,
      "Euro": 515,
      "high": 516,
      "velop": 517,
      "known": 518,
      "develop": 519,
      "ms": 520,
      "ted": 521,
      "num": 522,
      "trans": 523,
      "iss": 524,
      "group": 525,
      "found": 526,
      "Re": 527,
      "war": 528,
      "there": 529,
      "Brit": 530,
      "peri": 531,
      "called": 532,
      "play": 533,
      "ack": 534,
      "Europe": 535,
      "dif": 536,
      "Com": 537,
      "Nor": 538,
      "came": 539,
      "only": 540,
      "ative": 541,
      "ok": 542,
      "uch": 543,
      "ose": 544,
      "fore": 545,
      "ating": 546,
      "cap": 547,
      "br": 548,
      "ists": 549,
      "sup": 550,
      "red": 551,
      "United": 552,
      "public": 553,
      "ace": 554,
      "par": 555,
      "ince": 556,
      "buil": 557,
      "no": 558,
      "ered": 559,
      "about": 560,
      "way": 561,
      "bel": 562,
      "ject": 563,
      "cy": 564,
      "though": 565,
      "tra": 566,
      "urch": 567,
      "ments": 568,
      "au": 569,
      "ins": 570,
      "bor": 571,
      "Se": 572,
      "national": 573,
      "jor": 574,
      "cond": 575,
      "ious": 576,
      "fect": 577,
      "her": 578,
      "through": 579,
      "angu": 580,
      "stit": 581,
      "hel": 582,
      "ail": 583,
      "cted": 584,
      "how": 585,
      "Ger": 586,
      "gy": 587,
      "oy": 588,
      "mem": 589,
      "come": 590,
      "world": 591,
      "may": 592,
      "dom": 593,
      "where": 594,
      "langu": 595,
      "set": 596,
      "uss": 597,
      "uc": 598,
      "ians": 599,
      "years": 600,
      "vis": 601,
      "und": 602,
      "major": 603,
      "eng": 604,
      "This": 605,
      "Chin": 606,
      "type": 607,
      "cept": 608,
      "000": 609,
      "ost": 610,
      "government": 611,
      "school": 612,
      "tain": 613,
      "Con": 614,
      "add": 615,
      "iversity": 616,
      "made": 617,
      "leg": 618,
      "ular": 619,
      "ie": 620,
      "io": 621,
      "ural": 622,
      "ized": 623,
      "Eng": 624,
      "law": 625,
      "ful": 626,
      "ants": 627,
      "population": 628,
      "ually": 629,
      "War": 630,
      "ings": 631,
      "so": 632,
      "ship": 633,
      "char": 634,
      "iev": 635,
      "hist": 636,
      "17": 637,
      "urn": 638,
      "ton": 639,
      "ement": 640,
      "hu": 641,
      "On": 642,
      "ature": 643,
      "soc": 644,
      "ale": 645,
      "rol": 646,
      "power": 647,
      "US": 648,
      "199": 649,
      "car": 650,
      "sign": 651,
      "much": 652,
      "dist": 653,
      "ures": 654,
      "imes": 655,
      "requ": 656,
      "He": 657,
      "ond": 658,
      "Pr": 659,
      "ica": 660,
      "American": 661,
      "ep": 662,
      "stand": 663,
      "lead": 664,
      "cause": 665,
      "differ": 666,
      "dep": 667,
      "number": 668,
      "ically": 669,
      "ible": 670,
      "well": 671,
      "West": 672,
      "mus": 673,
      "again": 674,
      "fol": 675,
      "polit": 676,
      "these": 677,
      "hy": 678,
      "them": 679,
      "Par": 680,
      "spec": 681,
      "oh": 682,
      "BC": 683,
      "nor": 684,
      "long": 685,
      "organ": 686,
      "present": 687,
      "ason": 688,
      "For": 689,
      "being": 690,
      "igin": 691,
      "ress": 692,
      "country": 693,
      "var": 694,
      "ily": 695,
      "States": 696,
      "contin": 697,
      "Ind": 698,
      "became": 699,
      "elect": 700,
      "dr": 701,
      "early": 702,
      "illion": 703,
      "period": 704,
      "consid": 705,
      "Le": 706,
      "mil": 707,
      "Gree": 708,
      "cult": 709,
      "fil": 710,
      "10": 711,
      "ix": 712,
      "0s": 713,
      "15": 714,
      "sur": 715,
      "including": 716,
      "my": 717,
      "oper": 718,
      "go": 719,
      "Fran": 720,
      "offic": 721,
      "area": 722,
      "mov": 723,
      "II": 724,
      "British": 725,
      "lished": 726,
      "bers": 727,
      "ise": 728,
      "wn": 729,
      "incre": 730,
      "iet": 731,
      "iel": 732,
      "light": 733,
      "often": 734,
      "ude": 735,
      "estab": 736,
      "unt": 737,
      "origin": 738,
      "while": 739,
      "class": 740,
      "term": 741,
      "Be": 742,
      "fam": 743,
      "iver": 744,
      "Em": 745,
      "common": 746,
      "gin": 747,
      "Mar": 748,
      "ium": 749,
      "trad": 750,
      "met": 751,
      "writ": 752,
      "lin": 753,
      "ys": 754,
      "both": 755,
      "cording": 756,
      "ived": 757,
      "pers": 758,
      "ric": 759,
      "ven": 760,
      "flu": 761,
      "ract": 762,
      "ital": 763,
      "result": 764,
      "conom": 765,
      "three": 766,
      "ft": 767,
      "ros": 768,
      "Joh": 769,
      "rench": 770,
      "16": 771,
      "ild": 772,
      "ron": 773,
      "lim": 774,
      "less": 775,
      "ility": 776,
      "support": 777,
      "cer": 778,
      "De": 779,
      "language": 780,
      "disc": 781,
      "ouse": 782,
      "ages": 783,
      "thern": 784,
      "west": 785,
      "French": 786,
      "rist": 787,
      "ards": 788,
      "Rom": 789,
      "resp": 790,
      "largest": 791,
      "second": 792,
      "dec": 793,
      "depend": 794,
      "could": 795,
      "ple": 796,
      "need": 797,
      "control": 798,
      "fact": 799,
      "follow": 800,
      "198": 801,
      "men": 802,
      "acter": 803,
      "chn": 804,
      "Sp": 805,
      "enn": 806,
      "pire": 807,
      "bro": 808,
      "last": 809,
      "elf": 810,
      "vers": 811,
      "John": 812,
      "place": 813,
      "against": 814,
      "ning": 815,
      "later": 816,
      "North": 817,
      "import": 818,
      "Wor": 819,
      "gre": 820,
      "mark": 821,
      "relig": 822,
      "test": 823,
      "sim": 824,
      "point": 825,
      "12": 826,
      "music": 827,
      "gram": 828,
      "econom": 829,
      "net": 830,
      "ared": 831,
      "German": 832,
      "At": 833,
      "partic": 834,
      "197": 835,
      "ah": 836,
      "az": 837,
      "dire": 838,
      "por": 839,
      "gu": 840,
      "inc": 841,
      "design": 842,
      "ble": 843,
      "chan": 844,
      "allow": 845,
      "human": 846,
      "nam": 847,
      "South": 848,
      "commun": 849,
      "ology": 850,
      "based": 851,
      "comple": 852,
      "head": 853,
      "will": 854,
      "East": 855,
      "fic": 856,
      "Christ": 857,
      "ices": 858,
      "suc": 859,
      "then": 860,
      "ided": 861,
      "val": 862,
      "located": 863,
      "ives": 864,
      "exp": 865,
      "turn": 866,
      "sm": 867,
      "ute": 868,
      "moder": 869,
      "lif": 870,
      "del": 871,
      "sever": 872,
      "ral": 873,
      "ize": 874,
      "ri": 875,
      "ended": 876,
      "ides": 877,
      "European": 878,
      "miss": 879,
      "influ": 880,
      "gener": 881,
      "enc": 882,
      "like": 883,
      "line": 884,
      "start": 885,
      "Pro": 886,
      "view": 887,
      "ick": 888,
      "million": 889,
      "region": 890,
      "different": 891,
      "rele": 892,
      "rest": 893,
      "ting": 894,
      "back": 895,
      "percent": 896,
      "sing": 897,
      "cient": 898,
      "ization": 899,
      "itary": 900,
      "City": 901,
      "now": 902,
      "pass": 903,
      "since": 904,
      "each": 905,
      "ger": 906,
      "olution": 907,
      "sc": 908,
      "app": 909,
      "vent": 910,
      "196": 911,
      "ban": 912,
      "ash": 913,
      "aid": 914,
      "ired": 915,
      "World": 916,
      "recor": 917,
      "modern": 918,
      "lit": 919,
      "non": 920,
      "official": 921,
      "lect": 922,
      "indu": 923,
      "cit": 924,
      "Afr": 925,
      "political": 926,
      "cast": 927,
      "div": 928,
      "ov": 929,
      "Af": 930,
      "show": 931,
      "remain": 932,
      "trib": 933,
      "become": 934,
      "ample": 935,
      "University": 936,
      "Car": 937,
      "right": 938,
      "Au": 939,
      "Col": 940,
      "before": 941,
      "Sh": 942,
      "une": 943,
      "countries": 944,
      "team": 945,
      "considered": 946,
      "mat": 947,
      "same": 948,
      "Russ": 949,
      "ball": 950,
      "success": 951,
      "typ": 952,
      "building": 953,
      "14": 954,
      "techn": 955,
      "four": 956,
      "effect": 957,
      "lands": 958,
      "English": 959,
      "yn": 960,
      "ior": 961,
      "cour": 962,
      "tal": 963,
      "son": 964,
      "example": 965,
      "side": 966,
      "Roman": 967,
      "olv": 968,
      "him": 969,
      "ox": 970,
      "include": 971,
      "bre": 972,
      "tem": 973,
      "tit": 974,
      "small": 975,
      "ste": 976,
      "down": 977,
      "ified": 978,
      "raph": 979,
      "thod": 980,
      "curren": 981,
      "process": 982,
      "pat": 983,
      "ston": 984,
      "program": 985,
      "ref": 986,
      "rad": 987,
      "water": 988,
      "13": 989,
      "By": 990,
      "50": 991,
      "Cent": 992,
      "mand": 993,
      "within": 994,
      "cla": 995,
      "refer": 996,
      "ru": 997,
      "lack": 998,
      "several": 999,
      "around": 1000,
      "ork": 1001,
      "among": 1002,
      "military": 1003,
      "Jew": 1004,
      "appe": 1005,
      "minist": 1006,
      "194": 1007,
      "formed": 1008,
      "began": 1009,
      "Ac": 1010,
      "Or": 1011,
      "states": 1012,
      "season": 1013,
      "until": 1014,
      "ively": 1015,
      "ival": 1016,
      "rece": 1017,
      "begin": 1018,
      "Can": 1019,
      "pect": 1020,
      "ped": 1021,
      "open": 1022,
      "rain": 1023,
      "press": 1024,
      "important": 1025,
      "because": 1026,
      "using": 1027,
      "Chinese": 1028,
      "child": 1029,
      "see": 1030,
      "King": 1031,
      "Ph": 1032,
      "struct": 1033,
      "get": 1034,
      "run": 1035,
      "attle": 1036,
      "those": 1037,
      "even": 1038,
      "ier": 1039,
      "ctor": 1040,
      "alth": 1041,
      "ember": 1042,
      "ole": 1043,
      "ars": 1044,
      "fun": 1045,
      "ener": 1046,
      "person": 1047,
      "tion": 1048,
      "order": 1049,
      "ames": 1050,
      "apan": 1051,
      "members": 1052,
      "continu": 1053,
      "ibe": 1054,
      "Japan": 1055,
      "grow": 1056,
      "gl": 1057,
      "ences": 1058,
      "Ne": 1059,
      "established": 1060,
      "bod": 1061,
      "areas": 1062,
      "prim": 1063,
      "ament": 1064,
      "ather": 1065,
      "descr": 1066,
      "held": 1067,
      "tradition": 1068,
      "Pres": 1069,
      "another": 1070,
      "educ": 1071,
      "level": 1072,
      "make": 1073,
      "During": 1074,
      "popular": 1075,
      "take": 1076,
      "late": 1077,
      "ality": 1078,
      "ird": 1079,
      "France": 1080,
      "lear": 1081,
      "near": 1082,
      "ross": 1083,
      "ont": 1084,
      "mit": 1085,
      "ases": 1086,
      "Greek": 1087,
      "stat": 1088,
      "However": 1089,
      "poss": 1090,
      "ai": 1091,
      "thor": 1092,
      "Austr": 1093,
      "Coun": 1094,
      "ined": 1095,
      "iven": 1096,
      "ivil": 1097,
      "very": 1098,
      "ised": 1099,
      "ord": 1100,
      "iving": 1101,
      "sch": 1102,
      "species": 1103,
      "cell": 1104,
      "idd": 1105,
      "stitution": 1106,
      "win": 1107,
      "life": 1108,
      "ief": 1109,
      "bl": 1110,
      "ories": 1111,
      "gest": 1112,
      "cut": 1113,
      "Why": 1114,
      "ately": 1115,
      "Church": 1116,
      "home": 1117,
      "oot": 1118,
      "China": 1119,
      "Empire": 1120,
      "fiel": 1121,
      "uary": 1122,
      "chang": 1123,
      "There": 1124,
      "omet": 1125,
      "claim": 1126,
      "Pol": 1127,
      "dest": 1128,
      "Inter": 1129,
      "ner": 1130,
      "ague": 1131,
      "decl": 1132,
      "cop": 1133,
      "groups": 1134,
      "arr": 1135,
      "company": 1136,
      "church": 1137,
      "top": 1138,
      "bus": 1139,
      "believ": 1140,
      "equ": 1141,
      "still": 1142,
      "development": 1143,
      "After": 1144,
      "current": 1145,
      "needed": 1146,
      "tle": 1147,
      "itions": 1148,
      "put": 1149,
      "town": 1150,
      "ves": 1151,
      "treat": 1152,
      "tro": 1153,
      "ges": 1154,
      "rec": 1155,
      "York": 1156,
      "ision": 1157,
      "igr": 1158,
      "rul": 1159,
      "issu": 1160,
      "Lond": 1161,
      "iety": 1162,
      "event": 1163,
      "ged": 1164,
      "ines": 1165,
      "schools": 1166,
      "let": 1167,
      "So": 1168,
      "social": 1169,
      "developed": 1170,
      "London": 1171,
      "along": 1172,
      "kind": 1173,
      "occur": 1174,
      "industr": 1175,
      "ator": 1176,
      "cra": 1177,
      "report": 1178,
      "prof": 1179,
      "National": 1180,
      "due": 1181,
      "death": 1182,
      "sol": 1183,
      "once": 1184,
      "def": 1185,
      "195": 1186,
      "hol": 1187,
      "arm": 1188,
      "created": 1189,
      "record": 1190,
      "histor": 1191,
      "hom": 1192,
      "mb": 1193,
      "energy": 1194,
      "fed": 1195,
      "hav": 1196,
      "exist": 1197,
      "ked": 1198,
      "pract": 1199,
      "built": 1200,
      "rese": 1201,
      "particular": 1202,
      "change": 1203,
      "iam": 1204,
      "ient": 1205,
      "defin": 1206,
      "contain": 1207,
      "cot": 1208,
      "crit": 1209,
      "Mus": 1210,
      "house": 1211,
      "force": 1212,
      "tern": 1213,
      "ina": 1214,
      "ony": 1215,
      "Sw": 1216,
      "bour": 1217,
      "tak": 1218,
      "ential": 1219,
      "east": 1220,
      "lam": 1221,
      "adv": 1222,
      "ploy": 1223,
      "represent": 1224,
      "position": 1225,
      "ional": 1226,
      "independ": 1227,
      "prote": 1228,
      "read": 1229,
      "sum": 1230,
      "local": 1231,
      "posed": 1232,
      "former": 1233,
      "itect": 1234,
      "ilar": 1235,
      "Lu": 1236,
      "vir": 1237,
      "que": 1238,
      "addition": 1239,
      "fac": 1240,
      "pur": 1241,
      "appro": 1242,
      "character": 1243,
      "30": 1244,
      "study": 1245,
      "cil": 1246,
      "iated": 1247,
      "ene": 1248,
      "ik": 1249,
      "formation": 1250,
      "Ge": 1251,
      "forces": 1252,
      "usually": 1253,
      "iation": 1254,
      "author": 1255,
      "lor": 1256,
      "reet": 1257,
      "Some": 1258,
      "intro": 1259,
      "lay": 1260,
      "May": 1261,
      "ness": 1262,
      "ward": 1263,
      "tor": 1264,
      "signific": 1265,
      "These": 1266,
      "introdu": 1267,
      "conne": 1268,
      "India": 1269,
      "Port": 1270,
      "mun": 1271,
      "2010": 1272,
      "11": 1273,
      "uses": 1274,
      "bas": 1275,
      "Bo": 1276,
      "ley": 1277,
      "occ": 1278,
      "vot": 1279,
      "sequ": 1280,
      "viet": 1281,
      "ling": 1282,
      "iddle": 1283,
      "aver": 1284,
      "ense": 1285,
      "market": 1286,
      "proble": 1287,
      "Union": 1288,
      "empt": 1289,
      "25": 1290,
      "mission": 1291,
      "history": 1292,
      "direct": 1293,
      "body": 1294,
      "Soviet": 1295,
      "Man": 1296,
      "migr": 1297,
      "rab": 1298,
      "ency": 1299,
      "sty": 1300,
      "plic": 1301,
      "omen": 1302,
      "tar": 1303,
      "atic": 1304,
      "dro": 1305,
      "jo": 1306,
      "ali": 1307,
      "lege": 1308,
      "phil": 1309,
      "religious": 1310,
      "bi": 1311,
      "ability": 1312,
      "ination": 1313,
      "dat": 1314,
      "kill": 1315,
      "just": 1316,
      "mean": 1317,
      "general": 1318,
      "reach": 1319,
      "193": 1320,
      "film": 1321,
      "redu": 1322,
      "given": 1323,
      "cts": 1324,
      "distr": 1325,
      "self": 1326,
      "Que": 1327,
      "nat": 1328,
      "Ital": 1329,
      "ock": 1330,
      "forms": 1331,
      "camp": 1332,
      "date": 1333,
      "ictor": 1334,
      "iness": 1335,
      "osop": 1336,
      "hal": 1337,
      "assoc": 1338,
      "constru": 1339,
      "architect": 1340,
      "research": 1341,
      "bir": 1342,
      "civil": 1343,
      "They": 1344,
      "ogn": 1345,
      "significant": 1346,
      "she": 1347,
      "outhern": 1348,
      "Char": 1349,
      "England": 1350,
      "capital": 1351,
      "Gen": 1352,
      "fall": 1353,
      "great": 1354,
      "similar": 1355,
      "According": 1356,
      "ps": 1357,
      "compe": 1358,
      "service": 1359,
      "vol": 1360,
      "education": 1361,
      "hip": 1362,
      "took": 1363,
      "post": 1364,
      "Britain": 1365,
      "ivid": 1366,
      "students": 1367,
      "roy": 1368,
      "comb": 1369,
      "ological": 1370,
      "Canad": 1371,
      "na": 1372,
      "priv": 1373,
      "Ad": 1374,
      "tic": 1375,
      "every": 1376,
      "NA": 1377,
      "hand": 1378,
      "vision": 1379,
      "north": 1380,
      "plan": 1381,
      "broad": 1382,
      "wood": 1383,
      "els": 1384,
      "grad": 1385,
      "istic": 1386,
      "America": 1387,
      "separ": 1388,
      "teach": 1389,
      "ris": 1390,
      "word": 1391,
      "Gu": 1392,
      "ops": 1393,
      "olved": 1394,
      "ek": 1395,
      "oss": 1396,
      "unch": 1397,
      "field": 1398,
      "init": 1399,
      "ways": 1400,
      "said": 1401,
      "activ": 1402,
      "culture": 1403,
      "saw": 1404,
      "xim": 1405,
      "released": 1406,
      "rule": 1407,
      "Victor": 1408,
      "Christian": 1409,
      "dra": 1410,
      "tele": 1411,
      "ently": 1412,
      "anim": 1413,
      "domin": 1414,
      "philosop": 1415,
      "standard": 1416,
      "Min": 1417,
      "agre": 1418,
      "Egy": 1419,
      "works": 1420,
      "olic": 1421,
      "produced": 1422,
      "mater": 1423,
      "lym": 1424,
      "Egypt": 1425,
      "sour": 1426,
      "rael": 1427,
      "row": 1428,
      "host": 1429,
      "Mac": 1430,
      "nic": 1431,
      "included": 1432,
      "cul": 1433,
      "ico": 1434,
      "employ": 1435,
      "individ": 1436,
      "Islam": 1437,
      "various": 1438,
      "territ": 1439,
      "To": 1440,
      "rate": 1441,
      "Bar": 1442,
      "original": 1443,
      "ales": 1444,
      "Arab": 1445,
      "although": 1446,
      "president": 1447,
      "hest": 1448,
      "Su": 1449,
      "return": 1450,
      "south": 1451,
      "without": 1452,
      "economic": 1453,
      "Med": 1454,
      "times": 1455,
      "2008": 1456,
      "polic": 1457,
      "book": 1458,
      "cially": 1459,
      "Pe": 1460,
      "era": 1461,
      "fur": 1462,
      "vide": 1463,
      "phys": 1464,
      "Tr": 1465,
      "western": 1466,
      "Ap": 1467,
      "Air": 1468,
      "Israel": 1469,
      "Germany": 1470,
      "sent": 1471,
      "Phil": 1472,
      "percentage": 1473,
      "ats": 1474,
      "total": 1475,
      "placed": 1476,
      "eth": 1477,
      "mag": 1478,
      "party": 1479,
      "month": 1480,
      "played": 1481,
      "ification": 1482,
      "..": 1483,
      "Ju": 1484,
      "single": 1485,
      "relation": 1486,
      "thing": 1487,
      "speak": 1488,
      "scient": 1489,
      "model": 1490,
      "2009": 1491,
      "cience": 1492,
      "ake": 1493,
      "sure": 1494,
      "2007": 1495,
      "2013": 1496,
      "ports": 1497,
      "Sch": 1498,
      "following": 1499,
      "cover": 1500,
      "asser": 1501,
      "family": 1502,
      "President": 1503,
      "cing": 1504,
      "game": 1505,
      "role": 1506,
      "udd": 1507,
      "vious": 1508,
      "Jan": 1509,
      "few": 1510,
      "university": 1511,
      "average": 1512,
      "ana": 1513,
      "lav": 1514,
      "bur": 1515,
      "theory": 1516,
      "happ": 1517,
      "evolution": 1518,
      "citation": 1519,
      "Other": 1520,
      "2011": 1521,
      "material": 1522,
      "liter": 1523,
      "road": 1524,
      "dev": 1525,
      "All": 1526,
      "respons": 1527,
      "cities": 1528,
      "tto": 1529,
      "ened": 1530,
      "ynast": 1531,
      "cir": 1532,
      "Geor": 1533,
      "proper": 1534,
      "Ex": 1535,
      "wards": 1536,
      "stitut": 1537,
      "five": 1538,
      "earli": 1539,
      "opin": 1540,
      "international": 1541,
      "ootball": 1542,
      "avail": 1543,
      "know": 1544,
      "League": 1545,
      "Queen": 1546,
      "action": 1547,
      "Ro": 1548,
      "ken": 1549,
      "40": 1550,
      "Cath": 1551,
      "ored": 1552,
      "founded": 1553,
      "crip": 1554,
      "tribut": 1555,
      "Paris": 1556,
      "temper": 1557,
      "Fe": 1558,
      "Ma": 1559,
      "band": 1560,
      "mult": 1561,
      "higher": 1562,
      "must": 1563,
      "enced": 1564,
      "ograph": 1565,
      "children": 1566,
      "production": 1567,
      "named": 1568,
      "Austral": 1569,
      "bar": 1570,
      "third": 1571,
      "ount": 1572,
      "colon": 1573,
      "Mex": 1574,
      "ify": 1575,
      "attempt": 1576,
      "feat": 1577,
      "concept": 1578,
      "languages": 1579,
      "aper": 1580,
      "central": 1581,
      "free": 1582,
      "offer": 1583,
      "ured": 1584,
      "systems": 1585,
      "ometimes": 1586,
      "God": 1587,
      "cal": 1588,
      "parts": 1589,
      "bit": 1590,
      "caused": 1591,
      "Bur": 1592,
      "series": 1593,
      "den": 1594,
      "wid": 1595,
      "useum": 1596,
      "San": 1597,
      "special": 1598,
      "administ": 1599,
      "mos": 1600,
      "describ": 1601,
      "however": 1602,
      "60": 1603,
      "nation": 1604,
      "say": 1605,
      "sold": 1606,
      "should": 1607,
      "method": 1608,
      "ighest": 1609,
      "ush": 1610,
      "Portug": 1611,
      "Cl": 1612,
      "stant": 1613,
      "ountain": 1614,
      "With": 1615,
      "case": 1616,
      "highest": 1617,
      "recogn": 1618,
      "natural": 1619,
      "Do": 1620,
      "atin": 1621,
      "acy": 1622,
      "hold": 1623,
      "ison": 1624,
      "sug": 1625,
      "Mon": 1626,
      "gain": 1627,
      "published": 1628,
      "generally": 1629,
      "incip": 1630,
      "Gr": 1631,
      "ues": 1632,
      "ones": 1633,
      "recent": 1634,
      "sex": 1635,
      "experi": 1636,
      "pread": 1637,
      "2012": 1638,
      "Western": 1639,
      "aud": 1640,
      "launch": 1641,
      "short": 1642,
      "ctions": 1643,
      "far": 1644,
      "termin": 1645,
      "won": 1646,
      "range": 1647,
      "liament": 1648,
      "craft": 1649,
      "Of": 1650,
      "ably": 1651,
      "ensive": 1652,
      "ites": 1653,
      "dol": 1654,
      "anish": 1655,
      "list": 1656,
      "object": 1657,
      "asing": 1658,
      "majority": 1659,
      "ows": 1660,
      "terms": 1661,
      "strong": 1662,
      "attack": 1663,
      "El": 1664,
      "face": 1665,
      "mass": 1666,
      "Aug": 1667,
      "song": 1668,
      "imate": 1669,
      "feature": 1670,
      "bum": 1671,
      "ators": 1672,
      "compan": 1673,
      "announ": 1674,
      "discover": 1675,
      "Republic": 1676,
      "lib": 1677,
      "Mad": 1678,
      "Oc": 1679,
      "har": 1680,
      "rote": 1681,
      "ished": 1682,
      "bert": 1683,
      "Tibe": 1684,
      "2014": 1685,
      "member": 1686,
      "wide": 1687,
      "Budd": 1688,
      "Otto": 1689,
      "ius": 1690,
      "19th": 1691,
      "establish": 1692,
      "African": 1693,
      "half": 1694,
      "ech": 1695,
      "sometimes": 1696,
      "club": 1697,
      "Great": 1698,
      "ink": 1699,
      "continued": 1700,
      "Co": 1701,
      "Sept": 1702,
      "growth": 1703,
      "cost": 1704,
      "wrote": 1705,
      "espe": 1706,
      "key": 1707,
      "regard": 1708,
      "invest": 1709,
      "army": 1710,
      "stead": 1711,
      "ha": 1712,
      "uan": 1713,
      "ids": 1714,
      "acc": 1715,
      "space": 1716,
      "influence": 1717,
      "ery": 1718,
      "August": 1719,
      "frequ": 1720,
      "pain": 1721,
      "Tibet": 1722,
      "dynast": 1723,
      "Russian": 1724,
      "Pal": 1725,
      "ither": 1726,
      "live": 1727,
      "style": 1728,
      "Nap": 1729,
      "ending": 1730,
      "previous": 1731,
      "Armen": 1732,
      "idence": 1733,
      "available": 1734,
      "School": 1735,
      "court": 1736,
      "September": 1737,
      "gs": 1738,
      "Ear": 1739,
      "ham": 1740,
      "quest": 1741,
      "help": 1742,
      "fail": 1743,
      "meas": 1744,
      "Ser": 1745,
      "rem": 1746,
      "arily": 1747,
      "Bey": 1748,
      "business": 1749,
      "ots": 1750,
      "days": 1751,
      "From": 1752,
      "adop": 1753,
      "univers": 1754,
      "Cour": 1755,
      "ters": 1756,
      "exe": 1757,
      "bs": 1758,
      "aven": 1759,
      "24": 1760,
      "One": 1761,
      "Luther": 1762,
      "video": 1763,
      "100": 1764,
      "inst": 1765,
      "finan": 1766,
      "ago": 1767,
      "compos": 1768,
      "Jews": 1769,
      "dict": 1770,
      "album": 1771,
      "rap": 1772,
      "others": 1773,
      "moved": 1774,
      "appear": 1775,
      "June": 1776,
      "July": 1777,
      "ements": 1778,
      "ae": 1779,
      "oto": 1780,
      "ground": 1781,
      "Ottoman": 1782,
      "His": 1783,
      "Council": 1784,
      "profess": 1785,
      "peror": 1786,
      "Me": 1787,
      "Will": 1788,
      "ties": 1789,
      "subject": 1790,
      "Muslim": 1791,
      "Victoria": 1792,
      "traditional": 1793,
      "ining": 1794,
      "lection": 1795,
      "clos": 1796,
      "left": 1797,
      "January": 1798,
      "foc": 1799,
      "electric": 1800,
      "Har": 1801,
      "River": 1802,
      "Catholic": 1803,
      "Val": 1804,
      "utch": 1805,
      "provide": 1806,
      "written": 1807,
      "allowed": 1808,
      "successful": 1809,
      "especially": 1810,
      "island": 1811,
      "project": 1812,
      "food": 1813,
      "anted": 1814,
      "Many": 1815,
      "six": 1816,
      "rock": 1817,
      "Africa": 1818,
      "Japanese": 1819,
      "mal": 1820,
      "General": 1821,
      "private": 1822,
      "dial": 1823,
      "ister": 1824,
      "federal": 1825,
      "TV": 1826,
      "aries": 1827,
      "rought": 1828,
      "certain": 1829,
      "Napole": 1830,
      "omin": 1831,
      "2006": 1832,
      "throughout": 1833,
      "mid": 1834,
      "color": 1835,
      "rights": 1836,
      "Nov": 1837,
      "Sy": 1838,
      "ration": 1839,
      "women": 1840,
      "possible": 1841,
      "commer": 1842,
      "construction": 1843,
      "Ber": 1844,
      "iate": 1845,
      "maint": 1846,
      "State": 1847,
      "ships": 1848,
      "Ab": 1849,
      "mi": 1850,
      "nal": 1851,
      "princip": 1852,
      "Beyonce": 1853,
      "23": 1854,
      "ster": 1855,
      "movement": 1856,
      "real": 1857,
      "Kingdom": 1858,
      "ask": 1859,
      "increased": 1860,
      "ABC": 1861,
      "Br": 1862,
      "manag": 1863,
      "designed": 1864,
      "Napoleon": 1865,
      "sk": 1866,
      "aren": 1867,
      "rail": 1868,
      "legal": 1869,
      "Spanish": 1870,
      "introduced": 1871,
      "anal": 1872,
      "hi": 1873,
      "accept": 1874,
      "increase": 1875,
      "Act": 1876,
      "Som": 1877,
      "tober": 1878,
      "lower": 1879,
      "21": 1880,
      "Fre": 1881,
      "interest": 1882,
      "primary": 1883,
      "March": 1884,
      "hous": 1885,
      "rev": 1886,
      "argu": 1887,
      "perial": 1888,
      "pen": 1889,
      "October": 1890,
      "occup": 1891,
      "ove": 1892,
      "making": 1893,
      "suggest": 1894,
      "ria": 1895,
      "20th": 1896,
      "further": 1897,
      "uter": 1898,
      "best": 1899,
      "data": 1900,
      "thought": 1901,
      "Rich": 1902,
      "Scot": 1903,
      "rup": 1904,
      "uran": 1905,
      "suf": 1906,
      "International": 1907,
      "log": 1908,
      "acks": 1909,
      "bran": 1910,
      "religion": 1911,
      "according": 1912,
      "final": 1913,
      "famous": 1914,
      "cle": 1915,
      "ought": 1916,
      "network": 1917,
      "having": 1918,
      "Im": 1919,
      "ray": 1920,
      "Indian": 1921,
      "aul": 1922,
      "trade": 1923,
      "Dutch": 1924,
      "broadcast": 1925,
      "conc": 1926,
      "ially": 1927,
      "related": 1928,
      "consider": 1929,
      "Latin": 1930,
      "Army": 1931,
      "Americ": 1932,
      "Pop": 1933,
      "dynasty": 1934,
      "Kh": 1935,
      "Part": 1936,
      "ples": 1937,
      "Middle": 1938,
      "seen": 1939,
      "Comp": 1940,
      "Super": 1941,
      "Tur": 1942,
      "ply": 1943,
      "ried": 1944,
      "instru": 1945,
      "race": 1946,
      "across": 1947,
      "industry": 1948,
      "schol": 1949,
      "jud": 1950,
      "exam": 1951,
      "itself": 1952,
      "cultural": 1953,
      "College": 1954,
      "viron": 1955,
      "associated": 1956,
      "Han": 1957,
      "House": 1958,
      "ler": 1959,
      "etro": 1960,
      "plants": 1961,
      "enna": 1962,
      "Chopin": 1963,
      "Greece": 1964,
      "respon": 1965,
      "sla": 1966,
      "apt": 1967,
      "received": 1968,
      "Cor": 1969,
      "mber": 1970,
      "structure": 1971,
      "UK": 1972,
      "promo": 1973,
      "required": 1974,
      "types": 1975,
      "elves": 1976,
      "Kore": 1977,
      "find": 1978,
      "Court": 1979,
      "80": 1980,
      "adem": 1981,
      "ama": 1982,
      "ateg": 1983,
      "avy": 1984,
      "pose": 1985,
      "served": 1986,
      "Along": 1987,
      "southern": 1988,
      "Cong": 1989,
      "hood": 1990,
      "uman": 1991,
      "mic": 1992,
      "sound": 1993,
      "corpor": 1994,
      "foreign": 1995,
      "dialect": 1996,
      "Nasser": 1997,
      "appoint": 1998,
      "changes": 1999,
      "2015": 2000,
      "sen": 2001,
      "owl": 2002,
      "partment": 2003,
      "lines": 2004,
      "station": 2005,
      "particularly": 2006,
      "hard": 2007,
      "accoun": 2008,
      "achiev": 2009,
      "ung": 2010,
      "2005": 2011,
      "William": 2012,
      "Cy": 2013,
      "distin": 2014,
      "maintain": 2015,
      "health": 2016,
      "rather": 2017,
      "Dece": 2018,
      "bom": 2019,
      "enh": 2020,
      "ches": 2021,
      "Jewish": 2022,
      "December": 2023,
      "pot": 2024,
      "plant": 2025,
      "version": 2026,
      "Govern": 2027,
      "Li": 2028,
      "Ok": 2029,
      "atory": 2030,
      "estim": 2031,
      "Pruss": 2032,
      "Iran": 2033,
      "dig": 2034,
      "thems": 2035,
      "syn": 2036,
      "flict": 2037,
      "complex": 2038,
      "ben": 2039,
      "zer": 2040,
      "lex": 2041,
      "isl": 2042,
      "Although": 2043,
      "typically": 2044,
      "Eston": 2045,
      "Gre": 2046,
      "tour": 2047,
      "today": 2048,
      "ington": 2049,
      "manu": 2050,
      "ax": 2051,
      "proved": 2052,
      "Ed": 2053,
      "owers": 2054,
      "brought": 2055,
      "aut": 2056,
      "meet": 2057,
      "services": 2058,
      "themselves": 2059,
      "22": 2060,
      "itive": 2061,
      "km": 2062,
      "sat": 2063,
      "whom": 2064,
      "engine": 2065,
      "television": 2066,
      "title": 2067,
      "dam": 2068,
      "While": 2069,
      "Sun": 2070,
      "science": 2071,
      "hab": 2072,
      "tre": 2073,
      "care": 2074,
      "good": 2075,
      "atter": 2076,
      "di": 2077,
      "neigh": 2078,
      "Street": 2079,
      "started": 2080,
      "Roy": 2081,
      "Apr": 2082,
      "oney": 2083,
      "community": 2084,
      "Del": 2085,
      "pan": 2086,
      "vict": 2087,
      "white": 2088,
      "organization": 2089,
      "Res": 2090,
      "games": 2091,
      "amount": 2092,
      "financial": 2093,
      "full": 2094,
      "Center": 2095,
      "Lib": 2096,
      "consist": 2097,
      "economy": 2098,
      "November": 2099,
      "April": 2100,
      "Mexico": 2101,
      "Des": 2102,
      "asons": 2103,
      "either": 2104,
      "quare": 2105,
      "Park": 2106,
      "fort": 2107,
      "tax": 2108,
      "concern": 2109,
      "hib": 2110,
      "viol": 2111,
      "minor": 2112,
      "communic": 2113,
      "black": 2114,
      "lahom": 2115,
      "aj": 2116,
      "bacter": 2117,
      "asion": 2118,
      "idge": 2119,
      "uries": 2120,
      "text": 2121,
      "Oklahom": 2122,
      "kes": 2123,
      "access": 2124,
      "capac": 2125,
      "leader": 2126,
      "Am": 2127,
      "spo": 2128,
      "enter": 2129,
      "Fed": 2130,
      "condu": 2131,
      "stitute": 2132,
      "board": 2133,
      "George": 2134,
      "vironment": 2135,
      "187": 2136,
      "try": 2137,
      "information": 2138,
      "coming": 2139,
      "affect": 2140,
      "policy": 2141,
      "fa": 2142,
      "upon": 2143,
      "Cub": 2144,
      "Haven": 2145,
      "esla": 2146,
      "chem": 2147,
      "deb": 2148,
      "emer": 2149,
      "coast": 2150,
      "command": 2151,
      "venue": 2152,
      "gress": 2153,
      "constitution": 2154,
      "capt": 2155,
      "increasing": 2156,
      "aircraft": 2157,
      "quality": 2158,
      "center": 2159,
      "northern": 2160,
      "referred": 2161,
      "Mel": 2162,
      "circ": 2163,
      "Oklahoma": 2164,
      "working": 2165,
      "White": 2166,
      "neg": 2167,
      "laws": 2168,
      "companies": 2169,
      "Tesla": 2170,
      "institut": 2171,
      "produce": 2172,
      "tail": 2173,
      "Tu": 2174,
      "Rh": 2175,
      "antic": 2176,
      "outside": 2177,
      "settle": 2178,
      "gether": 2179,
      "pay": 2180,
      "190": 2181,
      "ends": 2182,
      "provided": 2183,
      "manufact": 2184,
      "Soc": 2185,
      "entire": 2186,
      "means": 2187,
      "born": 2188,
      "Rome": 2189,
      "leading": 2190,
      "buildings": 2191,
      "bet": 2192,
      "Central": 2193,
      "27": 2194,
      "fav": 2195,
      "past": 2196,
      "ilities": 2197,
      "invent": 2198,
      "Island": 2199,
      "followed": 2200,
      "conflict": 2201,
      "Asia": 2202,
      "radio": 2203,
      "described": 2204,
      "doc": 2205,
      "ores": 2206,
      "sof": 2207,
      "move": 2208,
      "osp": 2209,
      "events": 2210,
      "indic": 2211,
      "taken": 2212,
      "Mong": 2213,
      "size": 2214,
      "ethnic": 2215,
      "Sam": 2216,
      "loss": 2217,
      "wealth": 2218,
      "Not": 2219,
      "father": 2220,
      "whe": 2221,
      "Ang": 2222,
      "Most": 2223,
      "inal": 2224,
      "Royal": 2225,
      "iment": 2226,
      "ights": 2227,
      "regul": 2228,
      "If": 2229,
      "sw": 2230,
      "announced": 2231,
      "least": 2232,
      "ership": 2233,
      "acqu": 2234,
      "troops": 2235,
      "Dis": 2236,
      "Hol": 2237,
      "round": 2238,
      "urban": 2239,
      "cret": 2240,
      "sett": 2241,
      "status": 2242,
      "execut": 2243,
      "empire": 2244,
      "aint": 2245,
      "transl": 2246,
      "ances": 2247,
      "whose": 2248,
      "iding": 2249,
      "Bell": 2250,
      "mix": 2251,
      "oil": 2252,
      "thro": 2253,
      "sea": 2254,
      "Commun": 2255,
      "critic": 2256,
      "imp": 2257,
      "express": 2258,
      "Carol": 2259,
      "mor": 2260,
      "specific": 2261,
      "ancient": 2262,
      "close": 2263,
      "knowled": 2264,
      "Mongol": 2265,
      "hour": 2266,
      "vil": 2267,
      "PC": 2268,
      "almost": 2269,
      "stre": 2270,
      "believe": 2271,
      "independent": 2272,
      "architecture": 2273,
      ".,": 2274,
      "Since": 2275,
      "living": 2276,
      "elected": 2277,
      "district": 2278,
      "Bowl": 2279,
      "football": 2280,
      "theast": 2281,
      "applic": 2282,
      "responsible": 2283,
      "atal": 2284,
      "prevent": 2285,
      "mechan": 2286,
      "beginning": 2287,
      "AC": 2288,
      "Bost": 2289,
      "ades": 2290,
      "Pl": 2291,
      "big": 2292,
      "ising": 2293,
      "Battle": 2294,
      "reason": 2295,
      "words": 2296,
      "media": 2297,
      "fem": 2298,
      "ned": 2299,
      "sit": 2300,
      "erry": 2301,
      "passed": 2302,
      "fig": 2303,
      "believed": 2304,
      "reme": 2305,
      "stor": 2306,
      "lost": 2307,
      "visit": 2308,
      "citiz": 2309,
      "break": 2310,
      "killed": 2311,
      "aign": 2312,
      "active": 2313,
      "strict": 2314,
      "might": 2315,
      "idents": 2316,
      "election": 2317,
      "commercial": 2318,
      "Vir": 2319,
      "thus": 2320,
      "function": 2321,
      "source": 2322,
      "ming": 2323,
      "individual": 2324,
      "instead": 2325,
      "exper": 2326,
      "create": 2327,
      "legisl": 2328,
      "commonly": 2329,
      "porary": 2330,
      "oth": 2331,
      "except": 2332,
      "Canada": 2333,
      "billion": 2334,
      "cases": 2335,
      "expand": 2336,
      "Paul": 2337,
      "erous": 2338,
      "together": 2339,
      "We": 2340,
      "ring": 2341,
      "jing": 2342,
      "pite": 2343,
      "aff": 2344,
      "bon": 2345,
      "centuries": 2346,
      "Eastern": 2347,
      "Wind": 2348,
      "cells": 2349,
      "Bra": 2350,
      "Eis": 2351,
      "respect": 2352,
      "spread": 2353,
      "reported": 2354,
      "Boston": 2355,
      "money": 2356,
      "treaty": 2357,
      "2000": 2358,
      "elev": 2359,
      "replaced": 2360,
      "Australia": 2361,
      "28": 2362,
      "ena": 2363,
      "oles": 2364,
      "regions": 2365,
      "90": 2366,
      "26": 2367,
      "expl": 2368,
      "birds": 2369,
      "hor": 2370,
      "iers": 2371,
      "next": 2372,
      "contribut": 2373,
      "computer": 2374,
      "ensus": 2375,
      "Gal": 2376,
      "base": 2377,
      "lik": 2378,
      "office": 2379,
      "remained": 2380,
      "ceed": 2381,
      "problem": 2382,
      "benef": 2383,
      "went": 2384,
      "inse": 2385,
      "environment": 2386,
      "forced": 2387,
      "III": 2388,
      "ney": 2389,
      "cred": 2390,
      "includes": 2391,
      "territory": 2392,
      "Bro": 2393,
      "Bron": 2394,
      "gun": 2395,
      "mountain": 2396,
      "anti": 2397,
      "High": 2398,
      "Sup": 2399,
      "ires": 2400,
      "ping": 2401,
      "share": 2402,
      "sexual": 2403,
      "Bal": 2404,
      "compon": 2405,
      "opened": 2406,
      "ximately": 2407,
      "docu": 2408,
      "UN": 2409,
      "sec": 2410,
      "speed": 2411,
      "isms": 2412,
      "require": 2413,
      "meaning": 2414,
      "Islamic": 2415,
      "universities": 2416,
      "ES": 2417,
      "prior": 2418,
      "gave": 2419,
      "ona": 2420,
      "cele": 2421,
      "diffic": 2422,
      "standing": 2423,
      "onna": 2424,
      "Americans": 2425,
      "ank": 2426,
      "deal": 2427,
      "bruary": 2428,
      "February": 2429,
      "destroy": 2430,
      "problems": 2431,
      "cks": 2432,
      "died": 2433,
      "wind": 2434,
      "Arch": 2435,
      "commit": 2436,
      "involved": 2437,
      "technology": 2438,
      "cel": 2439,
      "plied": 2440,
      "claimed": 2441,
      "philosophy": 2442,
      "difficult": 2443,
      "Mary": 2444,
      "istan": 2445,
      "temperature": 2446,
      "Revolution": 2447,
      "atives": 2448,
      "dise": 2449,
      "larger": 2450,
      "travel": 2451,
      "Emperor": 2452,
      "oks": 2453,
      "resist": 2454,
      "Dar": 2455,
      "fight": 2456,
      "ios": 2457,
      "inte": 2458,
      "icle": 2459,
      "bey": 2460,
      "pton": 2461,
      "front": 2462,
      "campaign": 2463,
      "studies": 2464,
      "continent": 2465,
      "Idol": 2466,
      "stations": 2467,
      "originally": 2468,
      "scientific": 2469,
      "Hy": 2470,
      "Per": 2471,
      "Wash": 2472,
      "forman": 2473,
      "Her": 2474,
      "bul": 2475,
      "protest": 2476,
      "AF": 2477,
      "particip": 2478,
      "practice": 2479,
      "La": 2480,
      "rise": 2481,
      "numbers": 2482,
      "release": 2483,
      "graph": 2484,
      "iest": 2485,
      "Dem": 2486,
      "Mont": 2487,
      "sell": 2488,
      "atch": 2489,
      "street": 2490,
      "away": 2491,
      "ique": 2492,
      "paper": 2493,
      "necess": 2494,
      "serve": 2495,
      "teams": 2496,
      "pir": 2497,
      "society": 2498,
      "demon": 2499,
      "estic": 2500,
      "issue": 2501,
      "rary": 2502,
      "above": 2503,
      "Madonna": 2504,
      "estimated": 2505,
      "Parliament": 2506,
      "limited": 2507,
      "enhower": 2508,
      "Eisenhower": 2509,
      "Fir": 2510,
      "Saint": 2511,
      "counter": 2512,
      "surv": 2513,
      "influenced": 2514,
      "Te": 2515,
      "uals": 2516,
      "asse": 2517,
      "Old": 2518,
      "fre": 2519,
      "give": 2520,
      "you": 2521,
      "print": 2522,
      "portion": 2523,
      "Atl": 2524,
      "Spe": 2525,
      "itor": 2526,
      "never": 2527,
      "isions": 2528,
      "site": 2529,
      "uel": 2530,
      "itch": 2531,
      "animals": 2532,
      "cript": 2533,
      "widely": 2534,
      "bed": 2535,
      "ya": 2536,
      "2004": 2537,
      "relationship": 2538,
      "Washington": 2539,
      "uk": 2540,
      "abs": 2541,
      "ference": 2542,
      "response": 2543,
      "500": 2544,
      "Ire": 2545,
      "mad": 2546,
      "powers": 2547,
      "igen": 2548,
      "aged": 2549,
      "mostly": 2550,
      "Italian": 2551,
      "Times": 2552,
      "battle": 2553,
      "iger": 2554,
      "climate": 2555,
      "product": 2556,
      "29": 2557,
      "vert": 2558,
      "berg": 2559,
      "award": 2560,
      "eastern": 2561,
      "Company": 2562,
      "stic": 2563,
      "Protest": 2564,
      "independence": 2565,
      "First": 2566,
      "Hen": 2567,
      "Reg": 2568,
      "green": 2569,
      "Italy": 2570,
      "demonstr": 2571,
      "cross": 2572,
      "don": 2573,
      "oura": 2574,
      "curity": 2575,
      "border": 2576,
      "eration": 2577,
      "fri": 2578,
      "oxy": 2579,
      "youn": 2580,
      "185": 2581,
      "transport": 2582,
      "eventually": 2583,
      "Alex": 2584,
      "Tw": 2585,
      "fire": 2586,
      "oms": 2587,
      "evidence": 2588,
      "Philip": 2589,
      "determin": 2590,
      "labor": 2591,
      "performan": 2592,
      "likely": 2593,
      "mother": 2594,
      "effic": 2595,
      "levels": 2596,
      "Ireland": 2597,
      "thes": 2598,
      "ert": 2599,
      "atively": 2600,
      "ets": 2601,
      "mach": 2602,
      "Under": 2603,
      "Carolina": 2604,
      "celebr": 2605,
      "gradu": 2606,
      "Plym": 2607,
      "added": 2608,
      "ze": 2609,
      "comes": 2610,
      "etic": 2611,
      "regular": 2612,
      "helped": 2613,
      "primarily": 2614,
      "Apple": 2615,
      "discovered": 2616,
      "Earth": 2617,
      "FA": 2618,
      "pun": 2619,
      "stop": 2620,
      "Charles": 2621,
      "Apol": 2622,
      "fra": 2623,
      "ength": 2624,
      "vin": 2625,
      "plement": 2626,
      "institutions": 2627,
      "Ste": 2628,
      "ane": 2629,
      "earth": 2630,
      "obal": 2631,
      "famil": 2632,
      "greater": 2633,
      "da": 2634,
      "week": 2635,
      "supported": 2636,
      "divided": 2637,
      "distrib": 2638,
      "ises": 2639,
      "oldest": 2640,
      "ford": 2641,
      "photo": 2642,
      "birth": 2643,
      "separate": 2644,
      "agreement": 2645,
      "Museum": 2646,
      "oul": 2647,
      "ida": 2648,
      "Russia": 2649,
      "glass": 2650,
      "adopted": 2651,
      "CD": 2652,
      "ering": 2653,
      "defe": 2654,
      "emot": 2655,
      "keep": 2656,
      "Lou": 2657,
      "ctr": 2658,
      "ampton": 2659,
      "valu": 2660,
      "gas": 2661,
      "elements": 2662,
      "annel": 2663,
      "tition": 2664,
      "itation": 2665,
      "che": 2666,
      "perform": 2667,
      "notable": 2668,
      "draw": 2669,
      "afi": 2670,
      "demo": 2671,
      "symb": 2672,
      "police": 2673,
      "hydro": 2674,
      "Bel": 2675,
      "Olym": 2676,
      "Treat": 2677,
      "ibility": 2678,
      "potential": 2679,
      "Olymp": 2680,
      "Black": 2681,
      "annual": 2682,
      "Cypr": 2683,
      "Federal": 2684,
      "nia": 2685,
      "ula": 2686,
      "mot": 2687,
      "ousand": 2688,
      "189": 2689,
      "kingdom": 2690,
      "reached": 2691,
      "threat": 2692,
      "oph": 2693,
      "formal": 2694,
      "Party": 2695,
      "CA": 2696,
      "Nan": 2697,
      "bal": 2698,
      "ky": 2699,
      "erv": 2700,
      "decre": 2701,
      "prom": 2702,
      "acters": 2703,
      "plann": 2704,
      "defined": 2705,
      "bourne": 2706,
      "knowledge": 2707,
      "Dav": 2708,
      "Mal": 2709,
      "Slav": 2710,
      "fund": 2711,
      "rat": 2712,
      "clus": 2713,
      "changed": 2714,
      "earliest": 2715,
      "186": 2716,
      "Congress": 2717,
      "Gadd": 2718,
      "clear": 2719,
      "chlor": 2720,
      "electr": 2721,
      "division": 2722,
      "35": 2723,
      "collect": 2724,
      "My": 2725,
      "uit": 2726,
      "actions": 2727,
      "ready": 2728,
      "acts": 2729,
      "box": 2730,
      "ission": 2731,
      "suffer": 2732,
      "ded": 2733,
      "path": 2734,
      "188": 2735,
      "Ca": 2736,
      "authority": 2737,
      "situ": 2738,
      "Kerry": 2739,
      "lived": 2740,
      "prime": 2741,
      "Univers": 2742,
      "directly": 2743,
      "Cro": 2744,
      "hunt": 2745,
      "neighbor": 2746,
      "spir": 2747,
      "Southampton": 2748,
      "approach": 2749,
      "45": 2750,
      "rich": 2751,
      "owned": 2752,
      "larg": 2753,
      "characters": 2754,
      "Plymouth": 2755,
      "behav": 2756,
      "imm": 2757,
      "uda": 2758,
      "experience": 2759,
      "Hou": 2760,
      "else": 2761,
      "Thom": 2762,
      "longer": 2763,
      "brain": 2764,
      "square": 2765,
      "recorded": 2766,
      "historical": 2767,
      "Gaddafi": 2768,
      "die": 2769,
      "river": 2770,
      "arts": 2771,
      "Melbourne": 2772,
      "collection": 2773,
      "little": 2774,
      "currently": 2775,
      "earlier": 2776,
      "Atlantic": 2777,
      "Jes": 2778,
      "James": 2779,
      "nature": 2780,
      "reject": 2781,
      "quar": 2782,
      "receive": 2783,
      "personal": 2784,
      "multip": 2785,
      "estival": 2786,
      "ife": 2787,
      "Alexand": 2788,
      "bloc": 2789,
      "cust": 2790,
      "infect": 2791,
      "chest": 2792,
      "aving": 2793,
      "habit": 2794,
      "Windows": 2795,
      "fut": 2796,
      "hot": 2797,
      "sal": 2798,
      "oplast": 2799,
      "polog": 2800,
      "domestic": 2801,
      "chemical": 2802,
      "DNA": 2803,
      "nob": 2804,
      "records": 2805,
      "physical": 2806,
      "months": 2807,
      "distinct": 2808,
      "nuc": 2809,
      "compared": 2810,
      "churches": 2811,
      "whether": 2812,
      "cro": 2813,
      "gar": 2814,
      "oid": 2815,
      "paren": 2816,
      "income": 2817,
      "adium": 2818,
      "tware": 2819,
      "ption": 2820,
      "solar": 2821,
      "LE": 2822,
      "seven": 2823,
      "clo": 2824,
      "purpose": 2825,
      "launched": 2826,
      "Apollo": 2827,
      "largely": 2828,
      "Detro": 2829,
      "She": 2830,
      "value": 2831,
      "activity": 2832,
      "Detroit": 2833,
      "night": 2834,
      "altern": 2835,
      "drug": 2836,
      "declared": 2837,
      "drop": 2838,
      "purch": 2839,
      "atures": 2840,
      "istics": 2841,
      "Institute": 2842,
      "parties": 2843,
      "eneg": 2844,
      "dominant": 2845,
      "Khan": 2846,
      "bacteria": 2847,
      "ging": 2848,
      "alle": 2849,
      "towards": 2850,
      "iang": 2851,
      "aster": 2852,
      "contem": 2853,
      "ranked": 2854,
      "Canadian": 2855,
      "Grand": 2856,
      "peace": 2857,
      "contra": 2858,
      "pon": 2859,
      "via": 2860,
      "super": 2861,
      "ampion": 2862,
      "ention": 2863,
      "mainly": 2864,
      "Hist": 2865,
      "Yale": 2866,
      "bound": 2867,
      "ino": 2868,
      "stated": 2869,
      "mond": 2870,
      "mosa": 2871,
      "BS": 2872,
      "firm": 2873,
      "signed": 2874,
      "Portugal": 2875,
      "scholars": 2876,
      "Houston": 2877,
      "Ir": 2878,
      "nearly": 2879,
      "Niger": 2880,
      "Pers": 2881,
      "Wal": 2882,
      "dip": 2883,
      "thousand": 2884,
      "comput": 2885,
      "scale": 2886,
      "issues": 2887,
      "itzer": 2888,
      "lected": 2889,
      "idea": 2890,
      "features": 2891,
      "Law": 2892,
      "erc": 2893,
      "variety": 2894,
      "classical": 2895,
      "programs": 2896,
      "gue": 2897,
      "smaller": 2898,
      "Supreme": 2899,
      "AD": 2900,
      "cand": 2901,
      "wall": 2902,
      "shall": 2903,
      "interpre": 2904,
      "operations": 2905,
      "expans": 2906,
      "bell": 2907,
      "sil": 2908,
      "discuss": 2909,
      "Die": 2910,
      "teen": 2911,
      "airs": 2912,
      "belong": 2913,
      "surface": 2914,
      "names": 2915,
      "regional": 2916,
      "iot": 2917,
      "ror": 2918,
      "too": 2919,
      "subsequ": 2920,
      "humans": 2921,
      "rapid": 2922,
      "promin": 2923,
      "student": 2924,
      "belief": 2925,
      "Spain": 2926,
      "occurred": 2927,
      "royal": 2928,
      "Minister": 2929,
      "Hay": 2930,
      "Mod": 2931,
      "format": 2932,
      "books": 2933,
      "transfer": 2934,
      "vote": 2935,
      "...": 2936,
      "gra": 2937,
      "pal": 2938,
      "itness": 2939,
      "league": 2940,
      "warz": 2941,
      "direction": 2942,
      "stream": 2943,
      "rid": 2944,
      "auto": 2945,
      "complete": 2946,
      "examples": 2947,
      "Rhine": 2948,
      "azi": 2949,
      "himself": 2950,
      "definition": 2951,
      "abe": 2952,
      "von": 2953,
      "aring": 2954,
      "izations": 2955,
      "Henry": 2956,
      "Cup": 2957,
      "adult": 2958,
      "lying": 2959,
      "location": 2960,
      "miles": 2961,
      "resulted": 2962,
      "thodox": 2963,
      "Schwarz": 2964,
      "uese": 2965,
      "aval": 2966,
      "writing": 2967,
      "vention": 2968,
      "approximately": 2969,
      "Portuguese": 2970,
      "software": 2971,
      "70": 2972,
      "Mich": 2973,
      "concent": 2974,
      "integr": 2975,
      "enegger": 2976,
      "Schwarzenegger": 2977,
      "remains": 2978,
      "oxygen": 2979,
      "card": 2980,
      "god": 2981,
      "clud": 2982,
      "amed": 2983,
      "focus": 2984,
      "future": 2985,
      "Dev": 2986,
      "Flor": 2987,
      "Sum": 2988,
      "middle": 2989,
      "sens": 2990,
      "icago": 2991,
      "iter": 2992,
      "hism": 2993,
      "Warsaw": 2994,
      "holds": 2995,
      "Doctor": 2996,
      "thropolog": 2997,
      "Bl": 2998,
      "pected": 2999,
      "iance": 3000,
      "tee": 3001,
      "encies": 3002,
      "alifor": 3003,
      "dou": 3004,
      "lers": 3005,
      "van": 3006,
      "crim": 3007,
      "Islands": 3008,
      "better": 3009,
      "igenous": 3010,
      "Pod": 3011,
      "categ": 3012,
      "residents": 3013,
      "makes": 3014,
      "products": 3015,
      "ordin": 3016,
      "No": 3017,
      "museum": 3018,
      "incorpor": 3019,
      "immigr": 3020,
      "Chicago": 3021,
      "18th": 3022,
      "carry": 3023,
      "officially": 3024,
      "Califor": 3025,
      "qual": 3026,
      "BM": 3027,
      "Dell": 3028,
      "Str": 3029,
      "agric": 3030,
      "conditions": 3031,
      "Switzer": 3032,
      "Mo": 3033,
      "Assoc": 3034,
      "copper": 3035,
      "recording": 3036,
      "houses": 3037,
      "agricult": 3038,
      "Switzerland": 3039,
      "dre": 3040,
      "hind": 3041,
      "istr": 3042,
      "iami": 3043,
      "mn": 3044,
      "always": 3045,
      "utes": 3046,
      "iverse": 3047,
      "impact": 3048,
      "Catal": 3049,
      "MP": 3050,
      "Tit": 3051,
      "fle": 3052,
      "code": 3053,
      "operation": 3054,
      "describe": 3055,
      "Miami": 3056,
      "ience": 3057,
      "saf": 3058,
      "ems": 3059,
      "resour": 3060,
      "newsp": 3061,
      "Cal": 3062,
      "Je": 3063,
      "Sal": 3064,
      "contest": 3065,
      "players": 3066,
      "motor": 3067,
      "proposed": 3068,
      "quart": 3069,
      "2003": 3070,
      "Art": 3071,
      "Northern": 3072,
      "Democ": 3073,
      "Louis": 3074,
      "Red": 3075,
      "gree": 3076,
      "cean": 3077,
      "demand": 3078,
      "artists": 3079,
      "ugu": 3080,
      "communities": 3081,
      "pattern": 3082,
      "DS": 3083,
      "Gl": 3084,
      "store": 3085,
      "esides": 3086,
      "aspect": 3087,
      "izing": 3088,
      "college": 3089,
      "spoken": 3090,
      "kil": 3091,
      "nations": 3092,
      "Constitution": 3093,
      "marked": 3094,
      "industrial": 3095,
      "sources": 3096,
      "native": 3097,
      "ark": 3098,
      "imperial": 3099,
      "academ": 3100,
      "content": 3101,
      "literature": 3102,
      "previously": 3103,
      "expansion": 3104,
      "restrict": 3105,
      "ift": 3106,
      "dogs": 3107,
      "appointed": 3108,
      "Treaty": 3109,
      "hop": 3110,
      "rang": 3111,
      "ieval": 3112,
      "goal": 3113,
      "Korea": 3114,
      "aur": 3115,
      "cou": 3116,
      "hit": 3117,
      "iPod": 3118,
      "phere": 3119,
      "ideas": 3120,
      "copy": 3121,
      "Delhi": 3122,
      "California": 3123,
      "Day": 3124,
      "orient": 3125,
      "isis": 3126,
      "2001": 3127,
      "pressure": 3128,
      "granted": 3129,
      "Second": 3130,
      "politan": 3131,
      "torch": 3132,
      "Jesus": 3133,
      "Diego": 3134,
      "Fin": 3135,
      "controlled": 3136,
      "matter": 3137,
      "happened": 3138,
      "hon": 3139,
      "islands": 3140,
      "degree": 3141,
      "anye": 3142,
      "metro": 3143,
      "contains": 3144,
      "assist": 3145,
      "identity": 3146,
      "respond": 3147,
      "devices": 3148,
      "Ter": 3149,
      "adoles": 3150,
      "centre": 3151,
      "cotton": 3152,
      "competition": 3153,
      "citizens": 3154,
      "Du": 3155,
      "aim": 3156,
      "ga": 3157,
      "iations": 3158,
      "pie": 3159,
      "reign": 3160,
      "bomb": 3161,
      "Darwin": 3162,
      "Protestant": 3163,
      "Fol": 3164,
      "stone": 3165,
      "ingu": 3166,
      "conf": 3167,
      "involv": 3168,
      "Common": 3169,
      "folk": 3170,
      "Thomas": 3171,
      "Cap": 3172,
      "sam": 3173,
      "Stud": 3174,
      "populations": 3175,
      "highly": 3176,
      "individuals": 3177,
      "iqu": 3178,
      "ls": 3179,
      "stage": 3180,
      "iles": 3181,
      "creation": 3182,
      "poor": 3183,
      "invasion": 3184,
      "soon": 3185,
      "female": 3186,
      "Kanye": 3187,
      "Pac": 3188,
      "cas": 3189,
      "antenna": 3190,
      "forest": 3191,
      "allows": 3192,
      "property": 3193,
      "Pan": 3194,
      "Southern": 3195,
      "eas": 3196,
      "transmit": 3197,
      "Ash": 3198,
      "BBC": 3199,
      "eight": 3200,
      "phen": 3201,
      "crisis": 3202,
      "Nanjing": 3203,
      "AS": 3204,
      "bill": 3205,
      "step": 3206,
      "outheast": 3207,
      "Seattle": 3208,
      "basis": 3209,
      "administration": 3210,
      "professional": 3211,
      "mbly": 3212,
      "speaking": 3213,
      "document": 3214,
      "performance": 3215,
      "Florida": 3216,
      "Tenn": 3217,
      "anced": 3218,
      "conver": 3219,
      "contract": 3220,
      "provides": 3221,
      "encoura": 3222,
      "protect": 3223,
      "Estonia": 3224,
      "defeated": 3225,
      "Hall": 3226,
      "Nations": 3227,
      "yl": 3228,
      "arian": 3229,
      "umn": 3230,
      "monarch": 3231,
      "ension": 3232,
      "charge": 3233,
      "Force": 3234,
      "appeared": 3235,
      "measure": 3236,
      "HD": 3237,
      "ders": 3238,
      "mis": 3239,
      "presence": 3240,
      "lowing": 3241,
      "dy": 3242,
      "fix": 3243,
      "ule": 3244,
      "isation": 3245,
      "emph": 3246,
      "acu": 3247,
      "affil": 3248,
      "cannot": 3249,
      "Sea": 3250,
      "decade": 3251,
      "decided": 3252,
      "ruled": 3253,
      "families": 3254,
      "quarter": 3255,
      "Fort": 3256,
      "mill": 3257,
      "becoming": 3258,
      "quant": 3259,
      "Another": 3260,
      "subs": 3261,
      "Valenc": 3262,
      "argued": 3263,
      "branch": 3264,
      "hours": 3265,
      "Virgin": 3266,
      "Jose": 3267,
      "units": 3268,
      "applied": 3269,
      "bring": 3270,
      "memory": 3271,
      "question": 3272,
      "fla": 3273,
      "Station": 3274,
      "numerous": 3275,
      "aily": 3276,
      "disease": 3277,
      "48": 3278,
      "Dame": 3279,
      "Mu": 3280,
      "gold": 3281,
      "length": 3282,
      "forts": 3283,
      "conqu": 3284,
      "element": 3285,
      "summer": 3286,
      "revolution": 3287,
      "contemporary": 3288,
      "account": 3289,
      "Bronx": 3290,
      "jour": 3291,
      "think": 3292,
      "aps": 3293,
      "rank": 3294,
      "chloroplast": 3295,
      "Hel": 3296,
      "Mag": 3297,
      "onom": 3298,
      "stren": 3299,
      "Gro": 3300,
      "cod": 3301,
      "done": 3302,
      "fell": 3303,
      "perman": 3304,
      "antib": 3305,
      "Music": 3306,
      "animal": 3307,
      "soldiers": 3308,
      "repe": 3309,
      "ara": 3310,
      "abad": 3311,
      "metal": 3312,
      "decision": 3313,
      "represented": 3314,
      "minority": 3315,
      "faith": 3316,
      "emphas": 3317,
      "Bu": 3318,
      "Dig": 3319,
      "sun": 3320,
      "implement": 3321,
      "load": 3322,
      "address": 3323,
      "continue": 3324,
      "global": 3325,
      "decline": 3326,
      "reduced": 3327,
      "uranium": 3328,
      "contrast": 3329,
      "Qu": 3330,
      "match": 3331,
      "rules": 3332,
      "initially": 3333,
      "digital": 3334,
      "LED": 3335,
      "ita": 3336,
      "geograph": 3337,
      "ume": 3338,
      "quick": 3339,
      "pring": 3340,
      "1980s": 3341,
      "campus": 3342,
      "job": 3343,
      "sports": 3344,
      "wrest": 3345,
      "heavy": 3346,
      "expla": 3347,
      "leaders": 3348,
      "advant": 3349,
      "Imperial": 3350,
      "183": 3351,
      "Universal": 3352,
      "ening": 3353,
      "publish": 3354,
      "Prince": 3355,
      "electron": 3356,
      "returned": 3357,
      "Eliz": 3358,
      "favor": 3359,
      "Notre": 3360,
      "IS": 3361,
      "bra": 3362,
      "already": 3363,
      "mole": 3364,
      "fully": 3365,
      "secondary": 3366,
      "Government": 3367,
      "Mc": 3368,
      "Prem": 3369,
      "fish": 3370,
      "anthropolog": 3371,
      "ctors": 3372,
      "behind": 3373,
      "ivity": 3374,
      "performed": 3375,
      "relatively": 3376,
      "growing": 3377,
      "administr": 3378,
      "streng": 3379,
      "Just": 3380,
      "medical": 3381,
      "USB": 3382,
      "settlement": 3383,
      "quarters": 3384,
      "Pacific": 3385,
      "Elizabe": 3386,
      "75": 3387,
      "onic": 3388,
      "raised": 3389,
      "2002": 3390,
      "vie": 3391,
      "burg": 3392,
      "Buddhism": 3393,
      "vo": 3394,
      "shown": 3395,
      "People": 3396,
      "SR": 3397,
      "greg": 3398,
      "voc": 3399,
      "conserv": 3400,
      "mob": 3401,
      "umb": 3402,
      "essential": 3403,
      "derived": 3404,
      "poly": 3405,
      "obtain": 3406,
      "below": 3407,
      "resulting": 3408,
      "effects": 3409,
      "volt": 3410,
      "Armenia": 3411,
      "Are": 3412,
      "story": 3413,
      "prob": 3414,
      "worldwide": 3415,
      "additional": 3416,
      "territories": 3417,
      "Tennes": 3418,
      "Cr": 3419,
      "mut": 3420,
      "rates": 3421,
      "compr": 3422,
      "Tibetan": 3423,
      "cis": 3424,
      "hund": 3425,
      "psy": 3426,
      "sus": 3427,
      "zinc": 3428,
      "chief": 3429,
      "department": 3430,
      "desc": 3431,
      "weap": 3432,
      "Department": 3433,
      "azine": 3434,
      "device": 3435,
      "Irish": 3436,
      "EU": 3437,
      "Its": 3438,
      "Ming": 3439,
      "section": 3440,
      "attacks": 3441,
      "build": 3442,
      "attend": 3443,
      "province": 3444,
      "organisms": 3445,
      "completed": 3446,
      "course": 3447,
      "Richard": 3448,
      "bish": 3449,
      "ously": 3450,
      "Asian": 3451,
      "results": 3452,
      "1970s": 3453,
      "shows": 3454,
      "blood": 3455,
      "fields": 3456,
      "Armenian": 3457,
      "destroyed": 3458,
      "gla": 3459,
      "ras": 3460,
      "want": 3461,
      "mathem": 3462,
      "Marshall": 3463,
      "castle": 3464,
      "basic": 3465,
      "featured": 3466,
      "Richmond": 3467,
      "Braz": 3468,
      "Hayek": 3469,
      "Association": 3470,
      "Tennessee": 3471,
      "Mor": 3472,
      "roun": 3473,
      "parliament": 3474,
      "Christians": 3475,
      "agreed": 3476,
      "Robert": 3477,
      "Scott": 3478,
      "PA": 3479,
      "exhib": 3480,
      "supply": 3481,
      "hydrogen": 3482,
      "Bay": 3483,
      "Jer": 3484,
      "za": 3485,
      "ellig": 3486,
      "observ": 3487,
      "Orthodox": 3488,
      "Polish": 3489,
      "Burke": 3490,
      "Turk": 3491,
      "satell": 3492,
      "Whitehead": 3493,
      "symbol": 3494,
      "multiple": 3495,
      "sense": 3496,
      "retain": 3497,
      "stain": 3498,
      "indigenous": 3499,
      "joined": 3500,
      "necessary": 3501,
      "ret": 3502,
      "igation": 3503,
      "anta": 3504,
      "county": 3505,
      "airport": 3506,
      "letter": 3507,
      "Prussia": 3508,
      "cretary": 3509,
      "young": 3510,
      "Civil": 3511,
      "ffic": 3512,
      "sac": 3513,
      "atre": 3514,
      "olin": 3515,
      "Lab": 3516,
      "Mil": 3517,
      "Quran": 3518,
      "thedr": 3519,
      "older": 3520,
      "compound": 3521,
      "render": 3522,
      "training": 3523,
      "limit": 3524,
      "bank": 3525,
      "possess": 3526,
      "Elizabeth": 3527,
      "dens": 3528,
      "inn": 3529,
      "prison": 3530,
      "musical": 3531,
      "taking": 3532,
      "activities": 3533,
      "sales": 3534,
      "tend": 3535,
      "vard": 3536,
      "unit": 3537,
      "offered": 3538,
      "failed": 3539,
      "sl": 3540,
      "label": 3541,
      "films": 3542,
      "County": 3543,
      "Class": 3544,
      "CE": 3545,
      "Hell": 3546,
      "Over": 3547,
      "adel": 3548,
      "Commission": 3549,
      "Premier": 3550,
      "65": 3551,
      "Football": 3552,
      "Ken": 3553,
      "latter": 3554,
      "consum": 3555,
      "progress": 3556,
      "flo": 3557,
      "1990s": 3558,
      "carri": 3559,
      "ieties": 3560,
      "dialects": 3561,
      "Pat": 3562,
      "lon": 3563,
      "wear": 3564,
      "review": 3565,
      "expected": 3566,
      "noted": 3567,
      "brother": 3568,
      "umann": 3569,
      "custom": 3570,
      "prominent": 3571,
      "Following": 3572,
      "Avenue": 3573,
      "Def": 3574,
      "fill": 3575,
      "things": 3576,
      "aled": 3577,
      "places": 3578,
      "speech": 3579,
      "David": 3580,
      "Tele": 3581,
      "spl": 3582,
      "true": 3583,
      "intended": 3584,
      "worked": 3585,
      "operating": 3586,
      "philosoph": 3587,
      "Freder": 3588,
      "fif": 3589,
      "script": 3590,
      "oples": 3591,
      "movie": 3592,
      "byter": 3593,
      "aves": 3594,
      "relations": 3595,
      "Alask": 3596,
      "Norman": 3597,
      "equip": 3598,
      "Liby": 3599,
      "Tuvalu": 3600,
      "doctr": 3601,
      "note": 3602,
      "ught": 3603,
      "feel": 3604,
      "elections": 3605,
      "existence": 3606,
      "reduce": 3607,
      "methods": 3608,
      "nuclear": 3609,
      "Tito": 3610,
      "Dr": 3611,
      "dog": 3612,
      "Hyder": 3613,
      "nut": 3614,
      "erve": 3615,
      "ays": 3616,
      "phal": 3617,
      "Ann": 3618,
      "cert": 3619,
      "officials": 3620,
      "colonial": 3621,
      "31": 3622,
      "Ages": 3623,
      "DP": 3624,
      "Jo": 3625,
      "mir": 3626,
      "beer": 3627,
      "uls": 3628,
      "exts": 3629,
      "identified": 3630,
      "Av": 3631,
      "bird": 3632,
      "sector": 3633,
      "differences": 3634,
      "Frank": 3635,
      "audio": 3636,
      "composed": 3637,
      "Mah": 3638,
      "Tem": 3639,
      "VI": 3640,
      "bot": 3641,
      "rare": 3642,
      "zone": 3643,
      "edom": 3644,
      "immed": 3645,
      "workers": 3646,
      "medic": 3647,
      "player": 3648,
      "join": 3649,
      "Barcel": 3650,
      "riage": 3651,
      "Cz": 3652,
      "ella": 3653,
      "Because": 3654,
      "practices": 3655,
      "regarding": 3656,
      "hunting": 3657,
      "neighborhood": 3658,
      "Barcelona": 3659,
      "More": 3660,
      "imin": 3661,
      "phon": 3662,
      "compar": 3663,
      "igned": 3664,
      "park": 3665,
      "Byz": 3666,
      "blue": 3667,
      "micro": 3668,
      "Techn": 3669,
      "Hyderabad": 3670,
      "Mic": 3671,
      "phy": 3672,
      "cultures": 3673,
      "issued": 3674,
      "inking": 3675,
      "quake": 3676,
      "whole": 3677,
      "patent": 3678,
      "colonies": 3679,
      "Elect": 3680,
      "ulation": 3681,
      "atest": 3682,
      "display": 3683,
      "genetic": 3684,
      "recognized": 3685,
      "Byzant": 3686,
      "Distr": 3687,
      "Pub": 3688,
      "cos": 3689,
      "edition": 3690,
      "security": 3691,
      "heav": 3692,
      "article": 3693,
      "gained": 3694,
      "frequently": 3695,
      "Society": 3696,
      "Cyprus": 3697,
      "tim": 3698,
      "orial": 3699,
      "ctic": 3700,
      "peoples": 3701,
      "mod": 3702,
      "mention": 3703,
      "180": 3704,
      "factors": 3705,
      "Green": 3706,
      "Hill": 3707,
      "Sen": 3708,
      "provin": 3709,
      "carried": 3710,
      "standards": 3711,
      "Greeks": 3712,
      "clubs": 3713,
      "ville": 3714,
      "Bill": 3715,
      "Bern": 3716,
      "Div": 3717,
      "Human": 3718,
      "PS": 3719,
      "ey": 3720,
      "rated": 3721,
      "institution": 3722,
      "imon": 3723,
      "lap": 3724,
      "contro": 3725,
      "novel": 3726,
      "running": 3727,
      "Despite": 3728,
      "Qing": 3729,
      "mas": 3730,
      "prefer": 3731,
      "internal": 3732,
      "distingu": 3733,
      "instrument": 3734,
      "Mart": 3735,
      "farm": 3736,
      "defeat": 3737,
      "corre": 3738,
      "genes": 3739,
      "organizations": 3740,
      "write": 3741,
      "occupied": 3742,
      "Domin": 3743,
      "Oper": 3744,
      "replace": 3745,
      "illa": 3746,
      "heart": 3747,
      "labour": 3748,
      "apart": 3749,
      "izes": 3750,
      "vey": 3751,
      "weak": 3752,
      "critical": 3753,
      "Airport": 3754,
      "materials": 3755,
      "recently": 3756,
      "ruption": 3757,
      "Czech": 3758,
      "44": 3759,
      "usion": 3760,
      "tribes": 3761,
      "steam": 3762,
      "constructed": 3763,
      "experiment": 3764,
      "controvers": 3765,
      "BI": 3766,
      "Play": 3767,
      "racial": 3768,
      "stry": 3769,
      "Antar": 3770,
      "bridge": 3771,
      "operate": 3772,
      "closed": 3773,
      "behavior": 3774,
      "icated": 3775,
      "heat": 3776,
      "opposed": 3777,
      "Australian": 3778,
      "graduate": 3779,
      "ias": 3780,
      "wides": 3781,
      "inet": 3782,
      "council": 3783,
      "therefore": 3784,
      "carbon": 3785,
      "factor": 3786,
      "1960s": 3787,
      "brew": 3788,
      "friend": 3789,
      "quickly": 3790,
      "ym": 3791,
      "meant": 3792,
      "causes": 3793,
      "fourth": 3794,
      "Poland": 3795,
      "listed": 3796,
      "ospital": 3797,
      "resistance": 3798,
      "Brazil": 3799,
      "Gold": 3800,
      "vice": 3801,
      "infr": 3802,
      "icip": 3803,
      "worth": 3804,
      "attract": 3805,
      "Francis": 3806,
      "grew": 3807,
      "effective": 3808,
      "install": 3809,
      "immune": 3810,
      "resources": 3811,
      "33": 3812,
      "Cam": 3813,
      "endo": 3814,
      "room": 3815,
      "prop": 3816,
      "elled": 3817,
      "ciences": 3818,
      "Presbyter": 3819,
      "connect": 3820,
      "combined": 3821,
      "songs": 3822,
      "Catalan": 3823,
      "ratic": 3824,
      "winter": 3825,
      "constant": 3826,
      "compress": 3827,
      "ysis": 3828,
      "connected": 3829,
      "captured": 3830,
      "candid": 3831,
      "Mountain": 3832,
      "Sever": 3833,
      "fel": 3834,
      "detail": 3835,
      "prec": 3836,
      "efforts": 3837,
      "consists": 3838,
      "ception": 3839,
      "lighten": 3840,
      "Neumann": 3841,
      "Lord": 3842,
      "YU": 3843,
      "vary": 3844,
      "Albert": 3845,
      "classes": 3846,
      "downtown": 3847,
      "Christianity": 3848,
      "accepted": 3849,
      "ware": 3850,
      "wanted": 3851,
      "atom": 3852,
      "reve": 3853,
      "kings": 3854,
      "feed": 3855,
      "simple": 3856,
      "learning": 3857,
      "interpret": 3858,
      "Tuc": 3859,
      "reasons": 3860,
      "alg": 3861,
      "chall": 3862,
      "ideal": 3863,
      "governments": 3864,
      "Trans": 3865,
      "communication": 3866,
      "insects": 3867,
      "lightenment": 3868,
      "Mem": 3869,
      "ees": 3870,
      "ij": 3871,
      "reform": 3872,
      "ables": 3873,
      "flow": 3874,
      "1990": 3875,
      "starting": 3876,
      "expanded": 3877,
      "300": 3878,
      "BYU": 3879,
      "Kar": 3880,
      "Pla": 3881,
      "overe": 3882,
      "phone": 3883,
      "publ": 3884,
      "minim": 3885,
      "developing": 3886,
      "Academ": 3887,
      "dollar": 3888,
      "instruments": 3889,
      "mixed": 3890,
      "400": 3891,
      "ault": 3892,
      "cles": 3893,
      "Arsen": 3894,
      "competit": 3895,
      "Egyptian": 3896,
      "temperatures": 3897,
      "Pope": 3898,
      "victory": 3899,
      "planned": 3900,
      "Tucson": 3901,
      "78": 3902,
      "But": 3903,
      "Os": 3904,
      "thr": 3905,
      "inf": 3906,
      "enj": 3907,
      "aser": 3908,
      "artist": 3909,
      "phase": 3910,
      "kept": 3911,
      "look": 3912,
      "moving": 3913,
      "Bei": 3914,
      "Berm": 3915,
      "Scotland": 3916,
      "Nigeria": 3917,
      "metropolitan": 3918,
      "District": 3919,
      "overeign": 3920,
      "ee": 3921,
      "exclus": 3922,
      "Ant": 3923,
      "finally": 3924,
      "transition": 3925,
      "Spiel": 3926,
      "importance": 3927,
      "absor": 3928,
      "49": 3929,
      "Bas": 3930,
      "snow": 3931,
      "wise": 3932,
      "alty": 3933,
      "ils": 3934,
      "gene": 3935,
      "points": 3936,
      "components": 3937,
      "psych": 3938,
      "publican": 3939,
      "Arsenal": 3940,
      "Kath": 3941,
      "Ur": 3942,
      "spring": 3943,
      "enough": 3944,
      "Newcastle": 3945,
      "signal": 3946,
      "epis": 3947,
      "turned": 3948,
      "reflect": 3949,
      "minister": 3950,
      "Spielberg": 3951,
      "Bet": 3952,
      "EC": 3953,
      "Rock": 3954,
      "star": 3955,
      "grand": 3956,
      "historic": 3957,
      "executive": 3958,
      "widespread": 3959,
      "male": 3960,
      "abol": 3961,
      "maxim": 3962,
      "hua": 3963,
      "organized": 3964,
      "Lee": 3965,
      "generation": 3966,
      "objects": 3967,
      "Somal": 3968,
      "core": 3969,
      "iary": 3970,
      "oft": 3971,
      "degre": 3972,
      "actually": 3973,
      "phia": 3974,
      "flight": 3975,
      "remaining": 3976,
      "Swiss": 3977,
      "covered": 3978,
      "principle": 3979,
      "Somali": 3980,
      "cluded": 3981,
      "Hellen": 3982,
      "degrees": 3983,
      "Mass": 3984,
      "Sir": 3985,
      "giving": 3986,
      "ients": 3987,
      "improv": 3988,
      "passeng": 3989,
      "arrang": 3990,
      "Muslims": 3991,
      "capacity": 3992,
      "beyond": 3993,
      "ike": 3994,
      "pack": 3995,
      "iber": 3996,
      "invad": 3997,
      "traffic": 3998,
      "Prussian": 3999,
      "academic": 4000,
      "mel": 4001,
      "elop": 4002,
      "Prime": 4003,
      "sequence": 4004,
      "teaching": 4005,
      "conduct": 4006,
      "Rad": 4007,
      "Sat": 4008,
      "dance": 4009,
      "ube": 4010,
      "icles": 4011,
      "track": 4012,
      "Order": 4013,
      "migration": 4014,
      "initial": 4015,
      "System": 4016,
      "permanent": 4017,
      "Time": 4018,
      "ket": 4019,
      "paid": 4020,
      "attribut": 4021,
      "iant": 4022,
      "Philadel": 4023,
      "establishment": 4024,
      "increasingly": 4025,
      "Olympic": 4026,
      "thousands": 4027,
      "kilomet": 4028,
      "renew": 4029,
      "sym": 4030,
      "Ashken": 4031,
      "Nam": 4032,
      "Po": 4033,
      "medieval": 4034,
      "surroun": 4035,
      "equal": 4036,
      "scientists": 4037,
      "Philadelphia": 4038,
      "Rev": 4039,
      "Yuan": 4040,
      "ape": 4041,
      "suit": 4042,
      "1991": 4043,
      "structures": 4044,
      "risk": 4045,
      "rupt": 4046,
      "Galic": 4047,
      "Several": 4048,
      "IV": 4049,
      "SA": 4050,
      "nel": 4051,
      "rating": 4052,
      "ams": 4053,
      "understanding": 4054,
      "Commit": 4055,
      "regarded": 4056,
      "management": 4057,
      "newspaper": 4058,
      "Alaska": 4059,
      "34": 4060,
      "Bapt": 4061,
      "wal": 4062,
      "Nept": 4063,
      "Austria": 4064,
      "machine": 4065,
      "36": 4066,
      "census": 4067,
      "iency": 4068,
      "ini": 4069,
      "oral": 4070,
      "ansk": 4071,
      "discip": 4072,
      "headquarters": 4073,
      "encod": 4074,
      "drew": 4075,
      "38": 4076,
      "FBI": 4077,
      "Sm": 4078,
      "removed": 4079,
      "iron": 4080,
      "pron": 4081,
      "predict": 4082,
      "positive": 4083,
      "affected": 4084,
      "constitutional": 4085,
      "Modern": 4086,
      "advantage": 4087,
      "32": 4088,
      "slow": 4089,
      "tical": 4090,
      "inhabit": 4091,
      "uris": 4092,
      "propos": 4093,
      "upper": 4094,
      "commission": 4095,
      "magazine": 4096,
      "instance": 4097,
      "suggested": 4098,
      "mathemat": 4099,
      "eg": 4100,
      "los": 4101,
      "leave": 4102,
      "unique": 4103,
      "dem": 4104,
      "gency": 4105,
      "target": 4106,
      "Charle": 4107,
      "Off": 4108,
      "frequency": 4109,
      "Korean": 4110,
      "Cubs": 4111,
      "cation": 4112,
      "sort": 4113,
      "avoid": 4114,
      "playing": 4115,
      "Command": 4116,
      "request": 4117,
      "allowing": 4118,
      "showed": 4119,
      "dominated": 4120,
      "awarded": 4121,
      "Slavic": 4122,
      "adolescent": 4123,
      "split": 4124,
      "fast": 4125,
      "ki": 4126,
      "texts": 4127,
      "stay": 4128,
      "rane": 4129,
      "extended": 4130,
      "courts": 4131,
      "Internet": 4132,
      "voted": 4133,
      "Two": 4134,
      "Alexander": 4135,
      "thedral": 4136,
      "burn": 4137,
      "lom": 4138,
      "nd": 4139,
      "pap": 4140,
      "sought": 4141,
      "tur": 4142,
      "resident": 4143,
      "prove": 4144,
      "aging": 4145,
      "notably": 4146,
      "cords": 4147,
      "weight": 4148,
      "extra": 4149,
      "borough": 4150,
      "refused": 4151,
      "runs": 4152,
      "46": 4153,
      "Cre": 4154,
      "Goth": 4155,
      "complet": 4156,
      "sched": 4157,
      "Book": 4158,
      "damage": 4159,
      "Neptune": 4160,
      "Nint": 4161,
      "Sax": 4162,
      "uty": 4163,
      "plans": 4164,
      "creating": 4165,
      "Ira": 4166,
      "Vi": 4167,
      "Ze": 4168,
      "fought": 4169,
      "here": 4170,
      "ners": 4171,
      "ode": 4172,
      "news": 4173,
      "Secretary": 4174,
      "going": 4175,
      "ternal": 4176,
      "lingu": 4177,
      "spirit": 4178,
      "Histor": 4179,
      "Nintendo": 4180,
      "Sol": 4181,
      "mm": 4182,
      "itude": 4183,
      "peak": 4184,
      "serious": 4185,
      "tainment": 4186,
      "classified": 4187,
      "breed": 4188,
      "Palace": 4189,
      "situation": 4190,
      "Scottish": 4191,
      "Kathmand": 4192,
      "sovereign": 4193,
      "tin": 4194,
      "image": 4195,
      "umen": 4196,
      "greatest": 4197,
      "mandolin": 4198,
      "recover": 4199,
      "employed": 4200,
      "meeting": 4201,
      "Angel": 4202,
      "settled": 4203,
      "iques": 4204,
      "Kathmandu": 4205,
      "Edu": 4206,
      "Ham": 4207,
      "Mer": 4208,
      "You": 4209,
      "ellect": 4210,
      "decor": 4211,
      "exchange": 4212,
      "veh": 4213,
      "cry": 4214,
      "despite": 4215,
      "married": 4216,
      "frame": 4217,
      "extin": 4218,
      "policies": 4219,
      "villa": 4220,
      "Group": 4221,
      "Cast": 4222,
      "Festival": 4223,
      "stores": 4224,
      "views": 4225,
      "closely": 4226,
      "slaves": 4227,
      "negot": 4228,
      "negative": 4229,
      "CO": 4230,
      "gn": 4231,
      "tree": 4232,
      "consu": 4233,
      "opposition": 4234,
      "pet": 4235,
      "istry": 4236,
      "tried": 4237,
      "Chief": 4238,
      "17th": 4239,
      "cerem": 4240,
      "Popper": 4241,
      "completely": 4242,
      "Iraq": 4243,
      "95": 4244,
      "wave": 4245,
      "theories": 4246,
      "andon": 4247,
      "union": 4248,
      "osis": 4249,
      "intellig": 4250,
      "influential": 4251,
      "Georg": 4252,
      "thesis": 4253,
      "Four": 4254,
      "Up": 4255,
      "yet": 4256,
      "ata": 4257,
      "recomm": 4258,
      "substant": 4259,
      "insula": 4260,
      "ield": 4261,
      "1989": 4262,
      "refers": 4263,
      "protection": 4264,
      "Both": 4265,
      "nickn": 4266,
      "Valencia": 4267,
      "Den": 4268,
      "dated": 4269,
      "gent": 4270,
      "zh": 4271,
      "entered": 4272,
      "dead": 4273,
      "users": 4274,
      "oslav": 4275,
      "portun": 4276,
      "coal": 4277,
      "officers": 4278,
      "opening": 4279,
      "greatly": 4280,
      "scholar": 4281,
      "Holy": 4282,
      "translation": 4283,
      "component": 4284,
      "BA": 4285,
      "NES": 4286,
      "gall": 4287,
      "nine": 4288,
      "onto": 4289,
      "route": 4290,
      "Enlightenment": 4291,
      "titles": 4292,
      "library": 4293,
      "housing": 4294,
      "applications": 4295,
      "determined": 4296,
      "surrounding": 4297,
      "gather": 4298,
      "arrest": 4299,
      "deep": 4300,
      "ibly": 4301,
      "colleg": 4302,
      "identify": 4303,
      "nov": 4304,
      "significantly": 4305,
      "About": 4306,
      "achieved": 4307,
      "acquired": 4308,
      "itnesses": 4309,
      "satellite": 4310,
      "Erit": 4311,
      "Fam": 4312,
      "assu": 4313,
      "osen": 4314,
      "preced": 4315,
      "Constant": 4316,
      "depict": 4317,
      "operated": 4318,
      "decades": 4319,
      "attempted": 4320,
      "block": 4321,
      "Turkish": 4322,
      "GDP": 4323,
      "Ob": 4324,
      "daily": 4325,
      "pa": 4326,
      "relay": 4327,
      "channel": 4328,
      "oman": 4329,
      "cycle": 4330,
      "1999": 4331,
      "normal": 4332,
      "typical": 4333,
      "Jacks": 4334,
      "Rel": 4335,
      "batt": 4336,
      "1920": 4337,
      "movements": 4338,
      "testing": 4339,
      "mitted": 4340,
      "takes": 4341,
      "Joseph": 4342,
      "Presbyterian": 4343,
      ".)": 4344,
      "Besides": 4345,
      "Hugu": 4346,
      "nomin": 4347,
      "approved": 4348,
      "strate": 4349,
      "contact": 4350,
      "marriage": 4351,
      "herit": 4352,
      "Romans": 4353,
      "tribute": 4354,
      "claims": 4355,
      "virt": 4356,
      "flag": 4357,
      "Bermuda": 4358,
      "Namib": 4359,
      "Sansk": 4360,
      "lamp": 4361,
      "mind": 4362,
      "insp": 4363,
      "debut": 4364,
      "determ": 4365,
      "poet": 4366,
      "effort": 4367,
      "governor": 4368,
      "ordered": 4369,
      "existing": 4370,
      "Burma": 4371,
      "analysis": 4372,
      "Jackson": 4373,
      "determine": 4374,
      "Pun": 4375,
      "dia": 4376,
      "ull": 4377,
      "emperor": 4378,
      "price": 4379,
      "treatment": 4380,
      "defense": 4381,
      "characteristics": 4382,
      "Sanskrit": 4383,
      "CC": 4384,
      "inj": 4385,
      "toward": 4386,
      "seasons": 4387,
      "strateg": 4388,
      "viewed": 4389,
      "Iranian": 4390,
      "mosaic": 4391,
      "probably": 4392,
      "Byzantine": 4393,
      "IBM": 4394,
      "sport": 4395,
      "ivals": 4396,
      "opportun": 4397,
      "ety": 4398,
      "trial": 4399,
      "ugg": 4400,
      "1997": 4401,
      "difference": 4402,
      "presented": 4403,
      "encing": 4404,
      "pression": 4405,
      "Edward": 4406,
      "respectively": 4407,
      "distribution": 4408,
      "rejected": 4409,
      "incorporated": 4410,
      "Dan": 4411,
      "Science": 4412,
      "TC": 4413,
      "ael": 4414,
      "rd": 4415,
      "vacu": 4416,
      "wan": 4417,
      "theore": 4418,
      "ada": 4419,
      "ads": 4420,
      "evolved": 4421,
      "175": 4422,
      "invented": 4423,
      "contributed": 4424,
      "diplom": 4425,
      "Eritre": 4426,
      "Huguen": 4427,
      "Dire": 4428,
      "nes": 4429,
      "scre": 4430,
      "wild": 4431,
      "stress": 4432,
      "rot": 4433,
      "chain": 4434,
      "comment": 4435,
      "agree": 4436,
      "doing": 4437,
      "attention": 4438,
      "lose": 4439,
      "Asse": 4440,
      "extrem": 4441,
      "hys": 4442,
      "missions": 4443,
      "Carn": 4444,
      "Organ": 4445,
      "towns": 4446,
      "clothing": 4447,
      "99": 4448,
      "Geng": 4449,
      "Wil": 4450,
      "aks": 4451,
      "ram": 4452,
      "table": 4453,
      "iced": 4454,
      "abandon": 4455,
      "ureau": 4456,
      "poll": 4457,
      "crime": 4458,
      "traditions": 4459,
      "functions": 4460,
      "Method": 4461,
      "emerged": 4462,
      "application": 4463,
      "eks": 4464,
      "wer": 4465,
      "norm": 4466,
      "dependent": 4467,
      "simply": 4468,
      "attacked": 4469,
      "appearance": 4470,
      "benefit": 4471,
      "Pak": 4472,
      "bann": 4473,
      "alleg": 4474,
      "champion": 4475,
      "ulf": 4476,
      "ulate": 4477,
      "Comcast": 4478,
      "authorities": 4479,
      "targe": 4480,
      "properties": 4481,
      "alternative": 4482,
      "37": 4483,
      "Native": 4484,
      "icial": 4485,
      "itors": 4486,
      "ceived": 4487,
      "odes": 4488,
      "Whose": 4489,
      "inside": 4490,
      "Northwestern": 4491,
      "netic": 4492,
      "profit": 4493,
      "literary": 4494,
      "Governor": 4495,
      "strength": 4496,
      "Public": 4497,
      "Fore": 4498,
      "Metro": 4499,
      "bud": 4500,
      "cies": 4501,
      "dang": 4502,
      "rival": 4503,
      "til": 4504,
      "accur": 4505,
      "reference": 4506,
      "administrative": 4507,
      "correct": 4508,
      "Gothic": 4509,
      "Bank": 4510,
      "Hot": 4511,
      "Santa": 4512,
      "cu": 4513,
      "hum": 4514,
      "mur": 4515,
      "chron": 4516,
      "verse": 4517,
      "plies": 4518,
      "1998": 4519,
      "advanced": 4520,
      "achieve": 4521,
      "biggest": 4522,
      "Persian": 4523,
      "Virginia": 4524,
      "Micros": 4525,
      "ranean": 4526,
      "Ev": 4527,
      "Fur": 4528,
      "Ty": 4529,
      "Viet": 4530,
      "gment": 4531,
      "mam": 4532,
      "edy": 4533,
      "elimin": 4534,
      "amb": 4535,
      "tru": 4536,
      "output": 4537,
      "forming": 4538,
      "intellect": 4539,
      "Also": 4540,
      "formerly": 4541,
      "municip": 4542,
      "electrical": 4543,
      "bes": 4544,
      "tes": 4545,
      "tons": 4546,
      "olf": 4547,
      "accom": 4548,
      "earch": 4549,
      "overall": 4550,
      "feet": 4551,
      "150": 4552,
      "orders": 4553,
      "bands": 4554,
      "Club": 4555,
      "Estonian": 4556,
      "ceeded": 4557,
      "density": 4558,
      "equipment": 4559,
      "Dou": 4560,
      "iff": 4561,
      "issance": 4562,
      "versions": 4563,
      "Arabic": 4564,
      "electricity": 4565,
      "conducted": 4566,
      "suffered": 4567,
      "Age": 4568,
      "Go": 4569,
      "Raj": 4570,
      "Sim": 4571,
      "vest": 4572,
      "umin": 4573,
      "Thus": 4574,
      "taught": 4575,
      "foundation": 4576,
      "punk": 4577,
      "antibiot": 4578,
      "heavily": 4579,
      "Broad": 4580,
      "DC": 4581,
      "Los": 4582,
      "stadium": 4583,
      "isol": 4584,
      "adapt": 4585,
      "alloy": 4586,
      "ifically": 4587,
      "formally": 4588,
      "ached": 4589,
      "178": 4590,
      "values": 4591,
      "equival": 4592,
      "employment": 4593,
      "Harvard": 4594,
      "Valley": 4595,
      "orientation": 4596,
      "maximum": 4597,
      "Committee": 4598,
      "47": 4599,
      "fair": 4600,
      "ultim": 4601,
      "ensions": 4602,
      "colony": 4603,
      "lie": 4604,
      "producing": 4605,
      "Nether": 4606,
      "letters": 4607,
      "teacher": 4608,
      "teachers": 4609,
      "Hispan": 4610,
      "iterranean": 4611,
      "Assembly": 4612,
      "Land": 4613,
      "Mos": 4614,
      "Sto": 4615,
      "Year": 4616,
      "hun": 4617,
      "pine": 4618,
      "uj": 4619,
      "zo": 4620,
      "uted": 4621,
      "occurs": 4622,
      "debate": 4623,
      "earthquake": 4624,
      "Genghis": 4625,
      "Microsoft": 4626,
      "jun": 4627,
      "ries": 4628,
      "wing": 4629,
      "edon": 4630,
      "phr": 4631,
      "ogen": 4632,
      "providing": 4633,
      "publication": 4634,
      "visited": 4635,
      "speakers": 4636,
      "Early": 4637,
      "Liber": 4638,
      "figure": 4639,
      "fundament": 4640,
      "computers": 4641,
      "Libya": 4642,
      "Academy": 4643,
      "Nob": 4644,
      "och": 4645,
      "tun": 4646,
      "ergy": 4647,
      "enem": 4648,
      "asc": 4649,
      "tool": 4650,
      "poses": 4651,
      "leadership": 4652,
      "facilities": 4653,
      "Mexican": 4654,
      "diction": 4655,
      "double": 4656,
      "Tor": 4657,
      "Tai": 4658,
      "juris": 4659,
      "vast": 4660,
      "ween": 4661,
      "ero": 4662,
      "stance": 4663,
      "arrow": 4664,
      "ulated": 4665,
      "ellow": 4666,
      "crib": 4667,
      "extensive": 4668,
      "Records": 4669,
      "politics": 4670,
      "director": 4671,
      "environmental": 4672,
      "converted": 4673,
      "vacuum": 4674,
      "Bible": 4675,
      "ao": 4676,
      "mes": 4677,
      "zon": 4678,
      "atmos": 4679,
      "dete": 4680,
      "shared": 4681,
      "newly": 4682,
      "16th": 4683,
      "autonom": 4684,
      "Helena": 4685,
      "weapons": 4686,
      "Between": 4687,
      "66": 4688,
      "AA": 4689,
      "iable": 4690,
      "iately": 4691,
      "san": 4692,
      "ses": 4693,
      "theless": 4694,
      "online": 4695,
      "armed": 4696,
      "olve": 4697,
      "relative": 4698,
      "spons": 4699,
      "struction": 4700,
      "cycl": 4701,
      "powerful": 4702,
      "1970": 4703,
      "traditionally": 4704,
      "defence": 4705,
      "1950s": 4706,
      "Mediterranean": 4707,
      "principles": 4708,
      "floor": 4709,
      "Charleston": 4710,
      "Mid": 4711,
      "OS": 4712,
      "Sony": 4713,
      "woman": 4714,
      "eries": 4715,
      "oration": 4716,
      "alone": 4717,
      "proto": 4718,
      "ody": 4719,
      "banks": 4720,
      "educational": 4721,
      "architectural": 4722,
      "happens": 4723,
      "projects": 4724,
      "maintained": 4725,
      "freedom": 4726,
      "Vietnam": 4727,
      "Hung": 4728,
      "Ocean": 4729,
      "cab": 4730,
      "asked": 4731,
      "user": 4732,
      "motion": 4733,
      "ocated": 4734,
      "ancestry": 4735,
      "Arts": 4736,
      "roughly": 4737,
      "lighting": 4738,
      "Germans": 4739,
      "popularity": 4740,
      "winning": 4741,
      "cutive": 4742,
      "holding": 4743,
      "Fil": 4744,
      "got": 4745,
      "revenue": 4746,
      "seas": 4747,
      "depart": 4748,
      "corruption": 4749,
      "spect": 4750,
      "techniques": 4751,
      "joint": 4752,
      "fighting": 4753,
      "Develop": 4754,
      "Democratic": 4755,
      "mentioned": 4756,
      "inspired": 4757,
      "Pakistan": 4758,
      "dates": 4759,
      "rian": 4760,
      "tub": 4761,
      "ato": 4762,
      "aters": 4763,
      "master": 4764,
      "positions": 4765,
      "buy": 4766,
      "BCE": 4767,
      "Freem": 4768,
      "credit": 4769,
      "selling": 4770,
      "subsequent": 4771,
      "doctrine": 4772,
      "inhabitants": 4773,
      "42": 4774,
      "Later": 4775,
      "stra": 4776,
      "seem": 4777,
      "resh": 4778,
      "attan": 4779,
      "extent": 4780,
      "condition": 4781,
      "contained": 4782,
      "Buddhist": 4783,
      "km2": 4784,
      "Library": 4785,
      "Justice": 4786,
      "Office": 4787,
      "Education": 4788,
      "Namibia": 4789,
      "Game": 4790,
      "IC": 4791,
      "Sky": 4792,
      "Tom": 4793,
      "dry": 4794,
      "exerc": 4795,
      "pharm": 4796,
      "connection": 4797,
      "ography": 4798,
      "investig": 4799,
      "Social": 4800,
      "MS": 4801,
      "Navy": 4802,
      "Sub": 4803,
      "TO": 4804,
      "bn": 4805,
      "ec": 4806,
      "leaving": 4807,
      "ocide": 4808,
      "acted": 4809,
      "actual": 4810,
      "Confed": 4811,
      "career": 4812,
      "journal": 4813,
      "39": 4814,
      "Ever": 4815,
      "Uk": 4816,
      "selection": 4817,
      "unds": 4818,
      "ips": 4819,
      "elling": 4820,
      "cru": 4821,
      "webs": 4822,
      "weeks": 4823,
      "wars": 4824,
      "Norfolk": 4825,
      "capable": 4826,
      "vised": 4827,
      "writers": 4828,
      "Macedon": 4829,
      "models": 4830,
      "failure": 4831,
      "analog": 4832,
      "Among": 4833,
      "legislation": 4834,
      "mountains": 4835,
      "NP": 4836,
      "cable": 4837,
      "ii": 4838,
      "innov": 4839,
      "height": 4840,
      "urai": 4841,
      "iments": 4842,
      "neut": 4843,
      "door": 4844,
      "grade": 4845,
      "licens": 4846,
      "Russians": 4847,
      "homes": 4848,
      "Israeli": 4849,
      "calend": 4850,
      "liberal": 4851,
      "Like": 4852,
      "switch": 4853,
      "efficient": 4854,
      "Muham": 4855,
      "voltage": 4856,
      "Lake": 4857,
      "Southeast": 4858,
      "lu": 4859,
      "lies": 4860,
      "ss": 4861,
      "wife": 4862,
      "chosen": 4863,
      "conquest": 4864,
      "ologies": 4865,
      "1994": 4866,
      "1996": 4867,
      "divisions": 4868,
      "Croat": 4869,
      "provinces": 4870,
      "Further": 4871,
      "Near": 4872,
      "Yug": 4873,
      "republic": 4874,
      "alco": 4875,
      "astron": 4876,
      "diss": 4877,
      "Three": 4878,
      "cape": 4879,
      "lowest": 4880,
      "experienced": 4881,
      "successfully": 4882,
      "slave": 4883,
      "Bef": 4884,
      "Pen": 4885,
      "Sand": 4886,
      "Zh": 4887,
      "diverse": 4888,
      "rig": 4889,
      "uge": 4890,
      "usal": 4891,
      "sustain": 4892,
      "agency": 4893,
      "presents": 4894,
      "sole": 4895,
      "technical": 4896,
      "arrived": 4897,
      "physic": 4898,
      "focused": 4899,
      "analy": 4900,
      "Jeh": 4901,
      "DST": 4902,
      "Yugoslav": 4903,
      "Before": 4904,
      "55": 4905,
      "Census": 4906,
      "pin": 4907,
      "thir": 4908,
      "thetic": 4909,
      "aland": 4910,
      "aste": 4911,
      "obl": 4912,
      "trading": 4913,
      "relationships": 4914,
      "Research": 4915,
      "communications": 4916,
      "Anglo": 4917,
      "Plan": 4918,
      "descend": 4919,
      "Netherlands": 4920,
      "2nd": 4921,
      "64": 4922,
      "Rail": 4923,
      "lives": 4924,
      "wa": 4925,
      "entity": 4926,
      "improved": 4927,
      "grant": 4928,
      "loy": 4929,
      "weather": 4930,
      "Leg": 4931,
      "ficient": 4932,
      "ruler": 4933,
      "historians": 4934,
      "Manch": 4935,
      "presidential": 4936,
      "engineering": 4937,
      "manufacturing": 4938,
      "storage": 4939,
      "anthropology": 4940,
      "Net": 4941,
      "Tex": 4942,
      "diet": 4943,
      "fers": 4944,
      "pure": 4945,
      "send": 4946,
      "reforms": 4947,
      "confer": 4948,
      "ounder": 4949,
      "discrim": 4950,
      "transmission": 4951,
      "markets": 4952,
      "profession": 4953,
      "parents": 4954,
      "agriculture": 4955,
      "conquered": 4956,
      "glaci": 4957,
      "ultimately": 4958,
      "Don": 4959,
      "Hindu": 4960,
      "Witnesses": 4961,
      "hall": 4962,
      "ka": 4963,
      "push": 4964,
      "Stand": 4965,
      "liqu": 4966,
      "1992": 4967,
      "ovah": 4968,
      "rising": 4969,
      "subjects": 4970,
      "distinction": 4971,
      "dedicated": 4972,
      "fifth": 4973,
      "Muhammad": 4974,
      "Best": 4975,
      "Camp": 4976,
      "fest": 4977,
      "lot": 4978,
      "pical": 4979,
      "strugg": 4980,
      "periods": 4981,
      "existed": 4982,
      "occasion": 4983,
      "gradually": 4984,
      "investment": 4985,
      "secular": 4986,
      "Jehovah": 4987,
      "Found": 4988,
      "Tod": 4989,
      "uer": 4990,
      "ola": 4991,
      "secret": 4992,
      "eme": 4993,
      "races": 4994,
      "proportion": 4995,
      "clar": 4996,
      "genome": 4997,
      "drive": 4998,
      "offices": 4999,
      "declined": 5000,
      "drugs": 5001,
      "rapidly": 5002,
      "immigrants": 5003,
      "Commonwealth": 5004,
      "strategy": 5005,
      "Bush": 5006,
      "Cork": 5007,
      "Each": 5008,
      "Long": 5009,
      "Sur": 5010,
      "inner": 5011,
      "arms": 5012,
      "Their": 5013,
      "expect": 5014,
      "prey": 5015,
      "annex": 5016,
      "serves": 5017,
      "Republican": 5018,
      "expensive": 5019,
      "ynman": 5020,
      "temporary": 5021,
      "cules": 5022,
      "Feynman": 5023,
      "describes": 5024,
      "Martin": 5025,
      "enjoy": 5026,
      "nickname": 5027,
      "mess": 5028,
      "sites": 5029,
      "uration": 5030,
      "renamed": 5031,
      "spent": 5032,
      "Columb": 5033,
      "Samo": 5034,
      "Disc": 5035,
      "Division": 5036,
      "Ashkenazi": 5037,
      "Zealand": 5038,
      "rural": 5039,
      "immun": 5040,
      "comics": 5041,
      "shop": 5042,
      "arden": 5043,
      "cool": 5044,
      "Through": 5045,
      "studied": 5046,
      "distance": 5047,
      "requires": 5048,
      "programming": 5049,
      "1945": 5050,
      "continues": 5051,
      "Swed": 5052,
      "advance": 5053,
      "happen": 5054,
      "expressed": 5055,
      "figures": 5056,
      "honor": 5057,
      "alcohol": 5058,
      "1st": 5059,
      "360": 5060,
      "Bus": 5061,
      "Tower": 5062,
      "iy": 5063,
      "ker": 5064,
      "ctica": 5065,
      "ump": 5066,
      "ishes": 5067,
      "console": 5068,
      "milit": 5069,
      "surrender": 5070,
      "writer": 5071,
      "introduction": 5072,
      "calcul": 5073,
      "Monte": 5074,
      "Turkey": 5075,
      "subsequently": 5076,
      "Michael": 5077,
      "fleet": 5078,
      "mom": 5079,
      "dex": 5080,
      "ulpt": 5081,
      "ote": 5082,
      "Child": 5083,
      "plays": 5084,
      "paralle": 5085,
      "1979": 5086,
      "sculpt": 5087,
      "cracy": 5088,
      "goods": 5089,
      "criticized": 5090,
      "aspects": 5091,
      "phenomen": 5092,
      "Antarctica": 5093,
      "FL": 5094,
      "Rena": 5095,
      "Sa": 5096,
      "naval": 5097,
      "incess": 5098,
      "staff": 5099,
      "deploy": 5100,
      "priest": 5101,
      "osex": 5102,
      "Guam": 5103,
      "railway": 5104,
      "compression": 5105,
      "600": 5106,
      "Cur": 5107,
      "Card": 5108,
      "mort": 5109,
      "orig": 5110,
      "ione": 5111,
      "ental": 5112,
      "withdraw": 5113,
      "external": 5114,
      "allies": 5115,
      "ichuan": 5116,
      "iph": 5117,
      "genre": 5118,
      "Arist": 5119,
      "1995": 5120,
      "originated": 5121,
      "managed": 5122,
      "promoted": 5123,
      "continental": 5124,
      "Mountains": 5125,
      "colleges": 5126,
      "Ba": 5127,
      "Gra": 5128,
      "Gall": 5129,
      "yan": 5130,
      "shape": 5131,
      "Stat": 5132,
      "rent": 5133,
      "Alps": 5134,
      "marine": 5135,
      "networks": 5136,
      "1940": 5137,
      "funding": 5138,
      "Peter": 5139,
      "penalty": 5140,
      "districts": 5141,
      "erved": 5142,
      "Myan": 5143,
      "chester": 5144,
      "RA": 5145,
      "theme": 5146,
      "emit": 5147,
      "crew": 5148,
      "Stadium": 5149,
      "causing": 5150,
      "1988": 5151,
      "processes": 5152,
      "membership": 5153,
      "bodies": 5154,
      "capture": 5155,
      "entirely": 5156,
      "citizen": 5157,
      "elevator": 5158,
      "Development": 5159,
      "Myanmar": 5160,
      "Il": 5161,
      "Mill": 5162,
      "Rale": 5163,
      "items": 5164,
      "improve": 5165,
      "assent": 5166,
      "classification": 5167,
      "restaur": 5168,
      "treaties": 5169,
      "Major": 5170,
      "credited": 5171,
      "efficiency": 5172,
      "ratio": 5173,
      "longest": 5174,
      "medicine": 5175,
      "Angeles": 5176,
      "120": 5177,
      "68": 5178,
      "Did": 5179,
      "Square": 5180,
      "foot": 5181,
      "pict": 5182,
      "brief": 5183,
      "charter": 5184,
      "societies": 5185,
      "broke": 5186,
      "score": 5187,
      "hosted": 5188,
      "accused": 5189,
      "coastal": 5190,
      "Raleigh": 5191,
      "98": 5192,
      "Ama": 5193,
      "Laser": 5194,
      "Sil": 5195,
      "omes": 5196,
      "ille": 5197,
      "opol": 5198,
      "iana": 5199,
      "agencies": 5200,
      "shap": 5201,
      "attra": 5202,
      "specifically": 5203,
      "pursu": 5204,
      "liber": 5205,
      "dropped": 5206,
      "bishop": 5207,
      "precip": 5208,
      "fundamental": 5209,
      "Renaissance": 5210,
      "origins": 5211,
      "Bre": 5212,
      "Lod": 5213,
      "Miss": 5214,
      "Power": 5215,
      "pil": 5216,
      "pra": 5217,
      "reh": 5218,
      "sey": 5219,
      "obed": 5220,
      "observed": 5221,
      "annually": 5222,
      "News": 5223,
      "aware": 5224,
      "stein": 5225,
      "statement": 5226,
      "changing": 5227,
      "styles": 5228,
      "separated": 5229,
      "cription": 5230,
      "discovery": 5231,
      "concerns": 5232,
      "copyright": 5233,
      "chloroplasts": 5234,
      "compounds": 5235,
      "equivalent": 5236,
      "Texas": 5237,
      "43": 5238,
      "Sing": 5239,
      "fuel": 5240,
      "gam": 5241,
      "prem": 5242,
      "grounds": 5243,
      "2016": 5244,
      "ughter": 5245,
      "choice": 5246,
      "marks": 5247,
      "founding": 5248,
      "directed": 5249,
      "announce": 5250,
      "principal": 5251,
      "manufactur": 5252,
      "settlers": 5253,
      "Communist": 5254,
      "susp": 5255,
      "extremely": 5256,
      "Carnival": 5257,
      "budget": 5258,
      "osexual": 5259,
      "CBS": 5260,
      "pm": 5261,
      "inals": 5262,
      "retail": 5263,
      "enforce": 5264,
      "alph": 5265,
      "stood": 5266,
      "cha": 5267,
      "advert": 5268,
      "usage": 5269,
      "Int": 5270,
      "Champion": 5271,
      "compreh": 5272,
      "serving": 5273,
      "setting": 5274,
      "Germanic": 5275,
      "bourg": 5276,
      "biological": 5277,
      "combination": 5278,
      "audience": 5279,
      "measures": 5280,
      "consumption": 5281,
      "fran": 5282,
      "ancy": 5283,
      "reds": 5284,
      "reaction": 5285,
      "asphal": 5286,
      "congreg": 5287,
      "inea": 5288,
      "prep": 5289,
      "studio": 5290,
      "linked": 5291,
      "industries": 5292,
      "exception": 5293,
      "Montana": 5294,
      "diversity": 5295,
      "festival": 5296,
      "gil": 5297,
      "pto": 5298,
      "rif": 5299,
      "iring": 5300,
      "Theatre": 5301,
      "plat": 5302,
      "itionally": 5303,
      "Thuring": 5304,
      "armies": 5305,
      "occupation": 5306,
      "trying": 5307,
      "safety": 5308,
      "mobile": 5309,
      "felt": 5310,
      "normally": 5311,
      "Life": 5312,
      "touch": 5313,
      "seats": 5314,
      "construct": 5315,
      "oppos": 5316,
      "shift": 5317,
      "disput": 5318,
      "gender": 5319,
      "something": 5320,
      "auth": 5321,
      "dram": 5322,
      "funds": 5323,
      "volume": 5324,
      "roads": 5325,
      "indicate": 5326,
      "executed": 5327,
      "piece": 5328,
      "NBC": 5329,
      "Rights": 5330,
      "Song": 5331,
      "bad": 5332,
      "foss": 5333,
      "founder": 5334,
      "slight": 5335,
      "tren": 5336,
      "rebel": 5337,
      "select": 5338,
      "1950": 5339,
      "udes": 5340,
      "merch": 5341,
      "pool": 5342,
      "understand": 5343,
      "limits": 5344,
      "Manh": 5345,
      "sufficient": 5346,
      "agricultural": 5347,
      "subsid": 5348,
      "LEDs": 5349,
      "Bon": 5350,
      "Tra": 5351,
      "gins": 5352,
      "haps": 5353,
      "oking": 5354,
      "page": 5355,
      "constitut": 5356,
      "approv": 5357,
      "firmed": 5358,
      "internet": 5359,
      "organism": 5360,
      "operates": 5361,
      "multi": 5362,
      "attempts": 5363,
      "Offic": 5364,
      "strongly": 5365,
      "concerned": 5366,
      "Baptist": 5367,
      "Aristot": 5368,
      "Hong": 5369,
      "dark": 5370,
      "pair": 5371,
      "ange": 5372,
      "icy": 5373,
      "convent": 5374,
      "uni": 5375,
      "depos": 5376,
      "syl": 5377,
      "visible": 5378,
      "roll": 5379,
      "venues": 5380,
      "1930s": 5381,
      "debt": 5382,
      "circuit": 5383,
      "Duke": 5384,
      "immediately": 5385,
      "Today": 5386,
      "3rd": 5387,
      "77": 5388,
      "Out": 5389,
      "Ver": 5390,
      "dim": 5391,
      "iting": 5392,
      "etc": 5393,
      "shif": 5394,
      "useful": 5395,
      "attended": 5396,
      "aker": 5397,
      "That": 5398,
      "producer": 5399,
      "supposed": 5400,
      "whereas": 5401,
      "Convention": 5402,
      "hypo": 5403,
      "characterized": 5404,
      "1939": 5405,
      "separation": 5406,
      "exec": 5407,
      "Senate": 5408,
      "calendar": 5409,
      "Manhattan": 5410,
      "AR": 5411,
      "Jul": 5412,
      "Taj": 5413,
      "pul": 5414,
      "rivers": 5415,
      "sle": 5416,
      "wire": 5417,
      "stable": 5418,
      "omer": 5419,
      "pestic": 5420,
      "prices": 5421,
      "ultan": 5422,
      "atters": 5423,
      "colors": 5424,
      "Though": 5425,
      "offers": 5426,
      "Newton": 5427,
      "depending": 5428,
      "copies": 5429,
      "solid": 5430,
      "appropr": 5431,
      "circum": 5432,
      "insect": 5433,
      "schedul": 5434,
      "Amazon": 5435,
      "Ibn": 5436,
      "Ven": 5437,
      "XX": 5438,
      "Xbox": 5439,
      "aria": 5440,
      "rose": 5441,
      "cht": 5442,
      "train": 5443,
      "Marvel": 5444,
      "reports": 5445,
      "protected": 5446,
      "datab": 5447,
      "purchase": 5448,
      "Buil": 5449,
      "Kenya": 5450,
      "Frederick": 5451,
      "Avic": 5452,
      "Due": 5453,
      "Econom": 5454,
      "Sc": 5455,
      "Wales": 5456,
      "pig": 5457,
      "rhy": 5458,
      "alter": 5459,
      "concluded": 5460,
      "abilities": 5461,
      "ocks": 5462,
      "landing": 5463,
      "thanas": 5464,
      "lock": 5465,
      "brand": 5466,
      "Forces": 5467,
      "13th": 5468,
      "saying": 5469,
      "Corpor": 5470,
      "punish": 5471,
      "carriers": 5472,
      "revealed": 5473,
      "Galicia": 5474,
      "800": 5475,
      "Fer": 5476,
      "Spect": 5477,
      "Tour": 5478,
      "Town": 5479,
      "stim": 5480,
      "chap": 5481,
      "semi": 5482,
      "amoun": 5483,
      "alliance": 5484,
      "twent": 5485,
      "ranking": 5486,
      "collap": 5487,
      "Health": 5488,
      "persons": 5489,
      "radical": 5490,
      "nearby": 5491,
      "purposes": 5492,
      "researchers": 5493,
      "paint": 5494,
      "criticism": 5495,
      "silver": 5496,
      "coup": 5497,
      "hundred": 5498,
      "Technology": 5499,
      "Hispanic": 5500,
      "Athanas": 5501,
      "Lin": 5502,
      "Rus": 5503,
      "bury": 5504,
      "ff": 5505,
      "oes": 5506,
      "aspir": 5507,
      "variation": 5508,
      "goals": 5509,
      "decisions": 5510,
      "needs": 5511,
      "ruling": 5512,
      "practical": 5513,
      "Board": 5514,
      "Guinea": 5515,
      "Buddha": 5516,
      "Disney": 5517,
      "mosaics": 5518,
      "patterns": 5519,
      "Men": 5520,
      "RI": 5521,
      "gives": 5522,
      "editor": 5523,
      "Conference": 5524,
      "combat": 5525,
      "Service": 5526,
      "challeng": 5527,
      "invaded": 5528,
      "CBC": 5529,
      "Op": 5530,
      "bin": 5531,
      "fare": 5532,
      "chair": 5533,
      "laid": 5534,
      "modif": 5535,
      "oted": 5536,
      "pher": 5537,
      "inequality": 5538,
      "regist": 5539,
      "regime": 5540,
      "Security": 5541,
      "generated": 5542,
      "effectively": 5543,
      "association": 5544,
      "employees": 5545,
      "arent": 5546,
      "trees": 5547,
      "losses": 5548,
      "Avicenna": 5549,
      "85": 5550,
      "Free": 5551,
      "GB": 5552,
      "fear": 5553,
      "gence": 5554,
      "jab": 5555,
      "watch": 5556,
      "roots": 5557,
      "hem": 5558,
      "ope": 5559,
      "notes": 5560,
      "12th": 5561,
      "refuge": 5562,
      "universal": 5563,
      "treated": 5564,
      "celebrated": 5565,
      "emotion": 5566,
      "nobility": 5567,
      "beliefs": 5568,
      "79": 5569,
      "Even": 5570,
      "Name": 5571,
      "Wood": 5572,
      "eat": 5573,
      "oud": 5574,
      "amin": 5575,
      "usual": 5576,
      "emb": 5577,
      "posure": 5578,
      "medium": 5579,
      "1980": 5580,
      "delay": 5581,
      "Shell": 5582,
      "1949": 5583,
      "protein": 5584,
      "complexity": 5585,
      "Brown": 5586,
      "Belg": 5587,
      "motors": 5588,
      "gods": 5589,
      "categories": 5590,
      "attributed": 5591,
      "asphalt": 5592,
      "41": 5593,
      "bach": 5594,
      "din": 5595,
      "sail": 5596,
      "skill": 5597,
      "ensure": 5598,
      "omination": 5599,
      "why": 5600,
      "forward": 5601,
      "ims": 5602,
      "lab": 5603,
      "plate": 5604,
      "Enter": 5605,
      "perior": 5606,
      "Princess": 5607,
      "1974": 5608,
      "radiation": 5609,
      "containing": 5610,
      "initi": 5611,
      "Road": 5612,
      "documents": 5613,
      "AFL": 5614,
      "streets": 5615,
      "repeated": 5616,
      "jobs": 5617,
      "interpretation": 5618,
      "Hellenistic": 5619,
      "Clar": 5620,
      "FI": 5621,
      "gon": 5622,
      "sciences": 5623,
      "orbit": 5624,
      "argue": 5625,
      "icon": 5626,
      "rooms": 5627,
      "seat": 5628,
      "bear": 5629,
      "ighter": 5630,
      "genocide": 5631,
      "Report": 5632,
      "mayor": 5633,
      "supporters": 5634,
      "apparent": 5635,
      "matches": 5636,
      "defend": 5637,
      "pieces": 5638,
      "samurai": 5639,
      "PlayStation": 5640,
      "Methodist": 5641,
      "Everton": 5642,
      "Athanasius": 5643,
      "Hor": 5644,
      "Loc": 5645,
      "Sichuan": 5646,
      "ba": 5647,
      "cam": 5648,
      "smo": 5649,
      "ture": 5650,
      "stored": 5651,
      "arist": 5652,
      "ador": 5653,
      "quad": 5654,
      "cold": 5655,
      "annels": 5656,
      "subur": 5657,
      "Prize": 5658,
      "simpl": 5659,
      "reduction": 5660,
      "costs": 5661,
      "promote": 5662,
      "violence": 5663,
      "demonstrated": 5664,
      "purchased": 5665,
      "walls": 5666,
      "Sumer": 5667,
      "Radio": 5668,
      "battles": 5669,
      "municipal": 5670,
      "Greg": 5671,
      "cogn": 5672,
      "fresh": 5673,
      "gir": 5674,
      "hub": 5675,
      "py": 5676,
      "ved": 5677,
      "edge": 5678,
      "orith": 5679,
      "beat": 5680,
      "acid": 5681,
      "strial": 5682,
      "context": 5683,
      "affirm": 5684,
      "1993": 5685,
      "link": 5686,
      "14th": 5687,
      "votes": 5688,
      "branches": 5689,
      "tourism": 5690,
      "legislative": 5691,
      "intelligence": 5692,
      "intellectual": 5693,
      "Building": 5694,
      "Kiev": 5695,
      "dating": 5696,
      "kin": 5697,
      "ocean": 5698,
      "sides": 5699,
      "zing": 5700,
      "ano": 5701,
      "reality": 5702,
      "utions": 5703,
      "thers": 5704,
      "perfect": 5705,
      "update": 5706,
      "worship": 5707,
      "Third": 5708,
      "pope": 5709,
      "pubs": 5710,
      "desert": 5711,
      "ifications": 5712,
      "membran": 5713,
      "appears": 5714,
      "characteristic": 5715,
      "Add": 5716,
      "Balk": 5717,
      "palace": 5718,
      "Er": 5719,
      "Eth": 5720,
      "MC": 5721,
      "Mur": 5722,
      "Penn": 5723,
      "cence": 5724,
      "ho": 5725,
      "ari": 5726,
      "proced": 5727,
      "ishing": 5728,
      "disobed": 5729,
      "collabor": 5730,
      "electro": 5731,
      "1985": 5732,
      "religions": 5733,
      "severe": 5734,
      "1967": 5735,
      "ashion": 5736,
      "Medical": 5737,
      "ifying": 5738,
      "Berlin": 5739,
      "Americas": 5740,
      "mechanical": 5741,
      "mechanism": 5742,
      "printed": 5743,
      "transportation": 5744,
      "fixed": 5745,
      "infring": 5746,
      "Standard": 5747,
      "Columbia": 5748,
      "Montevideo": 5749,
      "lat": 5750,
      "pian": 5751,
      "tent": 5752,
      "tox": 5753,
      "oppon": 5754,
      "exact": 5755,
      "avian": 5756,
      "compat": 5757,
      "angel": 5758,
      "USA": 5759,
      "designated": 5760,
      "scene": 5761,
      "descrip": 5762,
      "Austrian": 5763,
      "accounts": 5764,
      "bombing": 5765,
      "Digimon": 5766,
      "molecules": 5767,
      "substantial": 5768,
      "Punjab": 5769,
      "76": 5770,
      "Nep": 5771,
      "Py": 5772,
      "Sah": 5773,
      "file": 5774,
      "anc": 5775,
      "stances": 5776,
      "aris": 5777,
      "channels": 5778,
      "Chap": 5779,
      "plague": 5780,
      "intosh": 5781,
      "Arth": 5782,
      "Conserv": 5783,
      "signals": 5784,
      "hosts": 5785,
      "magn": 5786,
      "skin": 5787,
      "molec": 5788,
      "Lev": 5789,
      "hill": 5790,
      "narrow": 5791,
      "becomes": 5792,
      "igan": 5793,
      "count": 5794,
      "ologists": 5795,
      "powered": 5796,
      "USSR": 5797,
      "myth": 5798,
      "physics": 5799,
      "denomin": 5800,
      "Syria": 5801,
      "manager": 5802,
      "kingdoms": 5803,
      "crown": 5804,
      "Summer": 5805,
      "neutral": 5806,
      "collapse": 5807,
      "5th": 5808,
      "DV": 5809,
      "IA": 5810,
      "Pet": 5811,
      "bought": 5812,
      "gments": 5813,
      "phe": 5814,
      "iled": 5815,
      "iland": 5816,
      "concert": 5817,
      "terror": 5818,
      "aces": 5819,
      "perceived": 5820,
      "trip": 5821,
      "centers": 5822,
      "grown": 5823,
      "iction": 5824,
      "web": 5825,
      "officer": 5826,
      "increases": 5827,
      "1960": 5828,
      "guns": 5829,
      "committee": 5830,
      "graphic": 5831,
      "ordinary": 5832,
      "Somalia": 5833,
      "antibiotics": 5834,
      "liquid": 5835,
      "96": 5836,
      "nav": 5837,
      "ois": 5838,
      "rein": 5839,
      "tom": 5840,
      "iling": 5841,
      "search": 5842,
      "tery": 5843,
      "ante": 5844,
      "astic": 5845,
      "lights": 5846,
      "successor": 5847,
      "technologies": 5848,
      "bitumen": 5849,
      "suggests": 5850,
      "considerable": 5851,
      "judge": 5852,
      "requirements": 5853,
      "MP3": 5854,
      "algorith": 5855,
      "Beijing": 5856,
      "parallel": 5857,
      "Jud": 5858,
      "Mount": 5859,
      "mac": 5860,
      "mals": 5861,
      "pup": 5862,
      "ura": 5863,
      "destruction": 5864,
      "resolution": 5865,
      "Europeans": 5866,
      "1984": 5867,
      "scen": 5868,
      "matic": 5869,
      "possibly": 5870,
      "nationally": 5871,
      "Palest": 5872,
      "neighbour": 5873,
      "Cathedral": 5874,
      "recordings": 5875,
      "adolescents": 5876,
      "residential": 5877,
      "spiritual": 5878,
      "oblig": 5879,
      "Good": 5880,
      "TB": 5881,
      "tions": 5882,
      "zy": 5883,
      "ald": 5884,
      "shoot": 5885,
      "akh": 5886,
      "cession": 5887,
      "locations": 5888,
      "1968": 5889,
      "1941": 5890,
      "regulations": 5891,
      "Community": 5892,
      "Blue": 5893,
      "restricted": 5894,
      "conservative": 5895,
      "website": 5896,
      "moment": 5897,
      "Arthur": 5898,
      "Az": 5899,
      "Down": 5900,
      "Mat": 5901,
      "Tun": 5902,
      "fly": 5903,
      "inations": 5904,
      "represents": 5905,
      "orate": 5906,
      "selected": 5907,
      "mental": 5908,
      "assic": 5909,
      "ciation": 5910,
      "parks": 5911,
      "borders": 5912,
      "stitu": 5913,
      "legit": 5914,
      "critics": 5915,
      "easily": 5916,
      "emphasis": 5917,
      "murder": 5918,
      "Met": 5919,
      "Pre": 5920,
      "Rog": 5921,
      "males": 5922,
      "soul": 5923,
      "ying": 5924,
      "theater": 5925,
      "olith": 5926,
      "absol": 5927,
      "export": 5928,
      "earn": 5929,
      "ghan": 5930,
      "twice": 5931,
      "ansas": 5932,
      "And": 5933,
      "cious": 5934,
      "leads": 5935,
      "1986": 5936,
      "Johnson": 5937,
      "representatives": 5938,
      "reading": 5939,
      "Macintosh": 5940,
      "massive": 5941,
      "interests": 5942,
      "bellion": 5943,
      "encouraged": 5944,
      "electronic": 5945,
      "poetry": 5946,
      "Taiwan": 5947,
      "Games": 5948,
      "Merc": 5949,
      "Such": 5950,
      "lun": 5951,
      "va": 5952,
      "vit": 5953,
      "stock": 5954,
      "asth": 5955,
      "asions": 5956,
      "ider": 5957,
      "sets": 5958,
      "advis": 5959,
      "ophy": 5960,
      "Indu": 5961,
      "exposure": 5962,
      "boy": 5963,
      "iege": 5964,
      "Wars": 5965,
      "Prior": 5966,
      "survey": 5967,
      "Mark": 5968,
      "rainfall": 5969,
      "coverage": 5970,
      "says": 5971,
      "Crown": 5972,
      "parent": 5973,
      "quantum": 5974,
      "Constantin": 5975,
      "phrase": 5976,
      "Croatian": 5977,
      "Ep": 5978,
      "Nat": 5979,
      "gate": 5980,
      "matters": 5981,
      "sper": 5982,
      "southeast": 5983,
      "revers": 5984,
      "uties": 5985,
      "antry": 5986,
      "ayana": 5987,
      "otherwise": 5988,
      "succeeded": 5989,
      "alongside": 5990,
      "layer": 5991,
      "hands": 5992,
      "slavery": 5993,
      "Mongols": 5994,
      "benefits": 5995,
      "diseases": 5996,
      "planning": 5997,
      "transferred": 5998,
      "minimum": 5999,
      "assumed": 6000,
      "Foundation": 6001,
      "Tajik": 6002,
      "FC": 6003,
      "cin": 6004,
      "mist": 6005,
      "correspon": 6006,
      "rena": 6007,
      "akes": 6008,
      "covers": 6009,
      "incident": 6010,
      "apply": 6011,
      "facility": 6012,
      "businesses": 6013,
      "Hanover": 6014,
      "spoke": 6015,
      "affairs": 6016,
      "cardinal": 6017,
      "dynam": 6018,
      "rhyth": 6019,
      "Far": 6020,
      "Gor": 6021,
      "dic": 6022,
      "fat": 6023,
      "lob": 6024,
      "ni": 6025,
      "sq": 6026,
      "solution": 6027,
      "infra": 6028,
      "icans": 6029,
      "amber": 6030,
      "correspond": 6031,
      "Space": 6032,
      "1975": 6033,
      "headed": 6034,
      "learn": 6035,
      "recognition": 6036,
      "translated": 6037,
      "protests": 6038,
      "category": 6039,
      "wrestling": 6040,
      "passengers": 6041,
      "abandoned": 6042,
      "authors": 6043,
      "Corporation": 6044,
      "Spectre": 6045,
      "AT": 6046,
      "ET": 6047,
      "Ox": 6048,
      "Vol": 6049,
      "aer": 6050,
      "err": 6051,
      "conference": 6052,
      "util": 6053,
      "superior": 6054,
      "exists": 6055,
      "assess": 6056,
      "ogue": 6057,
      "ulty": 6058,
      "veget": 6059,
      "160": 6060,
      "courses": 6061,
      "winner": 6062,
      "Gram": 6063,
      "albums": 6064,
      "visitors": 6065,
      "History": 6066,
      "kilometres": 6067,
      "56": 6068,
      "73": 6069,
      "Dal": 6070,
      "Field": 6071,
      "Ku": 6072,
      "Kong": 6073,
      "Low": 6074,
      "gers": 6075,
      "images": 6076,
      "prohib": 6077,
      "clock": 6078,
      "actor": 6079,
      "predominant": 6080,
      "counties": 6081,
      "someone": 6082,
      "finished": 6083,
      "rick": 6084,
      "historically": 6085,
      "responsibility": 6086,
      "questions": 6087,
      "soft": 6088,
      "balance": 6089,
      "Defence": 6090,
      "Cop": 6091,
      "Jef": 6092,
      "Puer": 6093,
      "cking": 6094,
      "dress": 6095,
      "pitch": 6096,
      "inher": 6097,
      "roles": 6098,
      "sections": 6099,
      "unable": 6100,
      "otic": 6101,
      "perhaps": 6102,
      "ibn": 6103,
      "Star": 6104,
      "preval": 6105,
      "warm": 6106,
      "driven": 6107,
      "1973": 6108,
      "technique": 6109,
      "receiving": 6110,
      "household": 6111,
      "Greater": 6112,
      "Virgil": 6113,
      "retained": 6114,
      "preferred": 6115,
      "strategic": 6116,
      "Award": 6117,
      "Big": 6118,
      "Hospital": 6119,
      "IT": 6120,
      "Lis": 6121,
      "NY": 6122,
      "bla": 6123,
      "diver": 6124,
      "ju": 6125,
      "sister": 6126,
      "ercul": 6127,
      "seed": 6128,
      "neur": 6129,
      "shot": 6130,
      "pred": 6131,
      "meat": 6132,
      "minutes": 6133,
      "Arbor": 6134,
      "Afghan": 6135,
      "faced": 6136,
      "drawn": 6137,
      "Appro": 6138,
      "opinion": 6139,
      "judges": 6140,
      "prompt": 6141,
      "hundreds": 6142,
      "Labour": 6143,
      "PS3": 6144,
      "pronoun": 6145,
      "Puerto": 6146,
      "Ho": 6147,
      "KU": 6148,
      "Ke": 6149,
      "Mand": 6150,
      "eigh": 6151,
      "jiang": 6152,
      "sess": 6153,
      "vow": 6154,
      "stig": 6155,
      "chart": 6156,
      "urally": 6157,
      "universe": 6158,
      "verte": 6159,
      "clim": 6160,
      "aya": 6161,
      "agan": 6162,
      "endum": 6163,
      "Ancient": 6164,
      "Conf": 6165,
      "cultiv": 6166,
      "writes": 6167,
      "decide": 6168,
      "dependence": 6169,
      "1978": 6170,
      "1969": 6171,
      "pressed": 6172,
      "define": 6173,
      "sequences": 6174,
      "Reserve": 6175,
      "daughter": 6176,
      "motiv": 6177,
      "installed": 6178,
      "slightly": 6179,
      "CS": 6180,
      "Eton": 6181,
      "Fox": 6182,
      "Ha": 6183,
      "Live": 6184,
      "Water": 6185,
      "ira": 6186,
      "abled": 6187,
      "avel": 6188,
      "acres": 6189,
      "umes": 6190,
      "cratic": 6191,
      "governed": 6192,
      "cars": 6193,
      "asonry": 6194,
      "tropical": 6195,
      "Guard": 6196,
      "companied": 6197,
      "Bridge": 6198,
      "Sunday": 6199,
      "friends": 6200,
      "emotions": 6201,
      "doub": 6202,
      "throne": 6203,
      "Eritrea": 6204,
      "Yugoslavia": 6205,
      "Constantinople": 6206,
      "4th": 6207,
      "Mov": 6208,
      "Pra": 6209,
      "Pict": 6210,
      "pray": 6211,
      "sav": 6212,
      "begun": 6213,
      "conversion": 6214,
      "1914": 6215,
      "predat": 6216,
      "produces": 6217,
      "northeast": 6218,
      "writings": 6219,
      "tempor": 6220,
      "seek": 6221,
      "rulers": 6222,
      "icode": 6223,
      "violent": 6224,
      "screen": 6225,
      "mammals": 6226,
      "enemy": 6227,
      "LaserDisc": 6228,
      "approval": 6229,
      "Boy": 6230,
      "Mr": 6231,
      "Top": 6232,
      "Ved": 6233,
      "hospital": 6234,
      "uits": 6235,
      "excess": 6236,
      "compass": 6237,
      "1976": 6238,
      "Centre": 6239,
      "planet": 6240,
      "establishing": 6241,
      "composition": 6242,
      "Congo": 6243,
      "sounds": 6244,
      "Tube": 6245,
      "decrease": 6246,
      "concentrated": 6247,
      "Stras": 6248,
      "nutrit": 6249,
      "proposal": 6250,
      "heritage": 6251,
      "discrimination": 6252,
      "precipitation": 6253,
      "Ben": 6254,
      "Bureau": 6255,
      "Fire": 6256,
      "Ol": 6257,
      "Sic": 6258,
      "map": 6259,
      "nership": 6260,
      "enge": 6261,
      "orchest": 6262,
      "entry": 6263,
      "omb": 6264,
      "ado": 6265,
      "conclus": 6266,
      "accompanied": 6267,
      "1900": 6268,
      "merged": 6269,
      "displayed": 6270,
      "minster": 6271,
      "consult": 6272,
      "Franco": 6273,
      "1982": 6274,
      "1987": 6275,
      "deliver": 6276,
      "1948": 6277,
      "households": 6278,
      "Medic": 6279,
      "measured": 6280,
      "consisting": 6281,
      "expression": 6282,
      "Philipp": 6283,
      "infection": 6284,
      "obtained": 6285,
      "atomic": 6286,
      "eggs": 6287,
      "accompl": 6288,
      "execution": 6289,
      "olithic": 6290,
      "Var": 6291,
      "cart": 6292,
      "fashion": 6293,
      "hur": 6294,
      "iar": 6295,
      "pione": 6296,
      "sed": 6297,
      "escent": 6298,
      "seems": 6299,
      "ota": 6300,
      "Indo": 6301,
      "ells": 6302,
      "attain": 6303,
      "15th": 6304,
      "privile": 6305,
      "carrier": 6306,
      "filled": 6307,
      "ceremony": 6308,
      "Business": 6309,
      "Thuringia": 6310,
      "affirmative": 6311,
      "6th": 6312,
      "Bir": 6313,
      "Dra": 6314,
      "Ele": 6315,
      "Juda": 6316,
      "Tim": 6317,
      "Von": 6318,
      "sor": 6319,
      "yards": 6320,
      "itarian": 6321,
      "told": 6322,
      "adap": 6323,
      "raine": 6324,
      "acting": 6325,
      "assigned": 6326,
      "Ali": 6327,
      "brid": 6328,
      "gymn": 6329,
      "Prof": 6330,
      "guar": 6331,
      "philosopher": 6332,
      "Does": 6333,
      "adopt": 6334,
      "machines": 6335,
      "democracy": 6336,
      "Television": 6337,
      "episode": 6338,
      "discipline": 6339,
      "comprehensive": 6340,
      "Strasbourg": 6341,
      "700": 6342,
      "Lad": 6343,
      "Zhe": 6344,
      "besides": 6345,
      "cup": 6346,
      "fans": 6347,
      "ll": 6348,
      "reput": 6349,
      "arma": 6350,
      "olid": 6351,
      "lai": 6352,
      "assass": 6353,
      "owner": 6354,
      "disp": 6355,
      "monu": 6356,
      "flour": 6357,
      "metap": 6358,
      "valley": 6359,
      "restored": 6360,
      "referendum": 6361,
      "offering": 6362,
      "recognize": 6363,
      "sixth": 6364,
      "judicial": 6365,
      "invention": 6366,
      "comparison": 6367,
      "controversy": 6368,
      "Nobel": 6369,
      "infrastructure": 6370,
      "vertebr": 6371,
      "Awards": 6372,
      "Bul": 6373,
      "Cross": 6374,
      "Gar": 6375,
      "Kub": 6376,
      "Mes": 6377,
      "Sports": 6378,
      "itals": 6379,
      "option": 6380,
      "ithuan": 6381,
      "acking": 6382,
      "trig": 6383,
      "Unicode": 6384,
      "boys": 6385,
      "descent": 6386,
      "extreme": 6387,
      "engines": 6388,
      "Leon": 6389,
      "influences": 6390,
      "divine": 6391,
      "plicit": 6392,
      "cripts": 6393,
      "audi": 6394,
      "funded": 6395,
      "ranges": 6396,
      "bringing": 6397,
      "implemented": 6398,
      "Dominican": 6399,
      "extinction": 6400,
      "Confeder": 6401,
      "Peninsula": 6402,
      "erculosis": 6403,
      "59": 6404,
      "Cult": 6405,
      "Light": 6406,
      "Rob": 6407,
      "Seven": 6408,
      "cant": 6409,
      "fit": 6410,
      "hus": 6411,
      "iates": 6412,
      "ja": 6413,
      "ko": 6414,
      "lod": 6415,
      "avo": 6416,
      "Proto": 6417,
      "idden": 6418,
      "wider": 6419,
      "integrated": 6420,
      "truth": 6421,
      "festivals": 6422,
      "database": 6423,
      "asthma": 6424,
      "Around": 6425,
      "Ron": 6426,
      "kh": 6427,
      "march": 6428,
      "ns": 6429,
      "rational": 6430,
      "vess": 6431,
      "waves": 6432,
      "iny": 6433,
      "input": 6434,
      "erves": 6435,
      "sts": 6436,
      "outer": 6437,
      "confirmed": 6438,
      "constitu": 6439,
      "lake": 6440,
      "abul": 6441,
      "overseas": 6442,
      "Chi": 6443,
      "polar": 6444,
      "populous": 6445,
      "ampions": 6446,
      "spend": 6447,
      "mainstream": 6448,
      "Westminster": 6449,
      "Lead": 6450,
      "goes": 6451,
      "discs": 6452,
      "1972": 6453,
      "letic": 6454,
      "Allied": 6455,
      "featuring": 6456,
      "experiences": 6457,
      "Serb": 6458,
      "clean": 6459,
      "capacitor": 6460,
      "experiments": 6461,
      "assembly": 6462,
      "contestants": 6463,
      "explain": 6464,
      "Jerusal": 6465,
      "YouTube": 6466,
      "pharmac": 6467,
      "Aristotle": 6468,
      "Jerusalem": 6469,
      "63": 6470,
      "Fres": 6471,
      "Villa": 6472,
      "cm": 6473,
      "kins": 6474,
      "theatre": 6475,
      "alin": 6476,
      "assum": 6477,
      "icians": 6478,
      "idal": 6479,
      "begins": 6480,
      "endment": 6481,
      "Unlike": 6482,
      "flower": 6483,
      "Als": 6484,
      "grass": 6485,
      "insur": 6486,
      "1981": 6487,
      "expedition": 6488,
      "Project": 6489,
      "brevi": 6490,
      "processing": 6491,
      "inaug": 6492,
      "Slavs": 6493,
      "teenth": 6494,
      "involves": 6495,
      "casual": 6496,
      "candidates": 6497,
      "Smith": 6498,
      "consumer": 6499,
      "Similar": 6500,
      "disobedience": 6501,
      "250": 6502,
      "Dur": 6503,
      "Pur": 6504,
      "Umay": 6505,
      "Way": 6506,
      "ais": 6507,
      "cat": 6508,
      "oo": 6509,
      "pick": 6510,
      "yellow": 6511,
      "recept": 6512,
      "stages": 6513,
      "raw": 6514,
      "exceed": 6515,
      "ett": 6516,
      "perception": 6517,
      "quite": 6518,
      "ultane": 6519,
      "intens": 6520,
      "choose": 6521,
      "borrow": 6522,
      "1983": 6523,
      "azz": 6524,
      "patron": 6525,
      "ministers": 6526,
      "Origin": 6527,
      "Ministry": 6528,
      "21st": 6529,
      "promotion": 6530,
      "digest": 6531,
      "damaged": 6532,
      "assets": 6533,
      "keeping": 6534,
      "concentration": 6535,
      "philosophical": 6536,
      "astronom": 6537,
      "trend": 6538,
      "92": 6539,
      "Fl": 6540,
      "Gulf": 6541,
      "Mun": 6542,
      "RO": 6543,
      "Sar": 6544,
      "Tro": 6545,
      "Was": 6546,
      "iat": 6547,
      "yard": 6548,
      "inity": 6549,
      "toler": 6550,
      "deleg": 6551,
      "ares": 6552,
      "peas": 6553,
      "residence": 6554,
      "explan": 6555,
      "aggress": 6556,
      "worn": 6557,
      "ogy": 6558,
      "archae": 6559,
      "love": 6560,
      "guard": 6561,
      "1961": 6562,
      "1964": 6563,
      "connections": 6564,
      "Minor": 6565,
      "Exe": 6566,
      "width": 6567,
      "Somer": 6568,
      "capacitors": 6569,
      "commander": 6570,
      "assistance": 6571,
      "geographical": 6572,
      "Frederic": 6573,
      "mathematics": 6574,
      "occasionally": 6575,
      "Zhejiang": 6576,
      "8th": 6577,
      "CP": 6578,
      "Fle": 6579,
      "MA": 6580,
      "Nic": 6581,
      "Van": 6582,
      "tact": 6583,
      "infl": 6584,
      "atol": 6585,
      "stal": 6586,
      "stating": 6587,
      "stories": 6588,
      "itz": 6589,
      "lets": 6590,
      "abbrevi": 6591,
      "portray": 6592,
      "affe": 6593,
      "Angl": 6594,
      "visual": 6595,
      "1966": 6596,
      "historian": 6597,
      "agreements": 6598,
      "circul": 6599,
      "Architect": 6600,
      "involving": 6601,
      "candidate": 6602,
      "cuis": 6603,
      "Network": 6604,
      "sleep": 6605,
      "Judaism": 6606,
      "Alsace": 6607,
      "Kenn": 6608,
      "Link": 6609,
      "Mot": 6610,
      "Mach": 6611,
      "Nag": 6612,
      "Nazi": 6613,
      "Slo": 6614,
      "Utre": 6615,
      "cited": 6616,
      "rican": 6617,
      "ani": 6618,
      "ala": 6619,
      "forb": 6620,
      "acle": 6621,
      "apers": 6622,
      "overty": 6623,
      "shire": 6624,
      "Contin": 6625,
      "charged": 6626,
      "huge": 6627,
      "classic": 6628,
      "supporting": 6629,
      "broken": 6630,
      "1977": 6631,
      "designs": 6632,
      "1962": 6633,
      "advoc": 6634,
      "initiated": 6635,
      "hardware": 6636,
      "tourists": 6637,
      "legislature": 6638,
      "Capital": 6639,
      "Labor": 6640,
      "Francisco": 6641,
      "Saxon": 6642,
      "vehicles": 6643,
      "descendants": 6644,
      "91": 6645,
      "Cla": 6646,
      "Dep": 6647,
      "Ly": 6648,
      "Post": 6649,
      "batter": 6650,
      "wound": 6651,
      "routes": 6652,
      "conse": 6653,
      "thermal": 6654,
      "owners": 6655,
      "Until": 6656,
      "Stalin": 6657,
      "fled": 6658,
      "ologist": 6659,
      "developments": 6660,
      "Only": 6661,
      "surround": 6662,
      "1971": 6663,
      "singer": 6664,
      "1944": 6665,
      "11th": 6666,
      "concepts": 6667,
      "entertainment": 6668,
      "settlements": 6669,
      "elevators": 6670,
      "Special": 6671,
      "Olympics": 6672,
      "behavi": 6673,
      "noble": 6674,
      "renewable": 6675,
      "recommended": 6676,
      "atmosphere": 6677,
      "platform": 6678,
      "Additionally": 6679,
      "Utrecht": 6680,
      "7th": 6681,
      "Dor": 6682,
      "Hit": 6683,
      "Lit": 6684,
      "Rod": 6685,
      "Ts": 6686,
      "Tal": 6687,
      "Youn": 6688,
      "crow": 6689,
      "jac": 6690,
      "mers": 6691,
      "sand": 6692,
      "uck": 6693,
      "zen": 6694,
      "thy": 6695,
      "thal": 6696,
      "remove": 6697,
      "ilit": 6698,
      "adian": 6699,
      "acre": 6700,
      "shut": 6701,
      "somewhat": 6702,
      "anning": 6703,
      "Conne": 6704,
      "organic": 6705,
      "scheme": 6706,
      "compete": 6707,
      "frequent": 6708,
      "committed": 6709,
      "participate": 6710,
      "threatened": 6711,
      "adults": 6712,
      "customers": 6713,
      "diplomatic": 6714,
      "franch": 6715,
      "62": 6716,
      "EG": 6717,
      "GE": 6718,
      "Haw": 6719,
      "Jones": 6720,
      "Vide": 6721,
      "ji": 6722,
      "mouth": 6723,
      "inian": 6724,
      "rely": 6725,
      "oured": 6726,
      "segment": 6727,
      "deter": 6728,
      "empir": 6729,
      "shr": 6730,
      "flood": 6731,
      "awa": 6732,
      "Real": 6733,
      "perspect": 6734,
      "patients": 6735,
      "reducing": 6736,
      "burgh": 6737,
      "estimates": 6738,
      "emotional": 6739,
      "restrictions": 6740,
      "vocal": 6741,
      "Jacksonville": 6742,
      "restaurants": 6743,
      "punishment": 6744,
      "88": 6745,
      "Arena": 6746,
      "Bol": 6747,
      "Lithuan": 6748,
      "NFL": 6749,
      "Sem": 6750,
      "bind": 6751,
      "hair": 6752,
      "sale": 6753,
      "cten": 6754,
      "ilia": 6755,
      "1918": 6756,
      "illery": 6757,
      "ours": 6758,
      "placing": 6759,
      "mont": 6760,
      "extend": 6761,
      "nationality": 6762,
      "files": 6763,
      "Maria": 6764,
      "valid": 6765,
      "northwest": 6766,
      "magnetic": 6767,
      "ethnicity": 6768,
      "moral": 6769,
      "photograph": 6770,
      "boundaries": 6771,
      "voice": 6772,
      "rarely": 6773,
      "scheduled": 6774,
      "amounts": 6775,
      "predators": 6776,
      "Philippines": 6777,
      "Fresno": 6778,
      "Hz": 6779,
      "Ta": 6780,
      "harm": 6781,
      "iology": 6782,
      "inches": 6783,
      "orph": 6784,
      "alumn": 6785,
      "conven": 6786,
      "convict": 6787,
      "mode": 6788,
      "artific": 6789,
      "strike": 6790,
      "canon": 6791,
      "flat": 6792,
      "consolid": 6793,
      "Reformation": 6794,
      "brow": 6795,
      "relev": 6796,
      "passing": 6797,
      "temple": 6798,
      "steel": 6799,
      "Police": 6800,
      "plane": 6801,
      "senior": 6802,
      "printing": 6803,
      "Michigan": 6804,
      "Jean": 6805,
      "Classical": 6806,
      "opposite": 6807,
      "paintings": 6808,
      "Nepal": 6809,
      "Afghanistan": 6810,
      "Pto": 6811,
      "Six": 6812,
      "Test": 6813,
      "Tri": 6814,
      "thinking": 6815,
      "theology": 6816,
      "olas": 6817,
      "adjust": 6818,
      "bean": 6819,
      "uns": 6820,
      "deed": 6821,
      "esty": 6822,
      "prepar": 6823,
      "Anton": 6824,
      "background": 6825,
      "Manchester": 6826,
      "reaching": 6827,
      "Administ": 6828,
      "stret": 6829,
      "regularly": 6830,
      "ranging": 6831,
      "affiliated": 6832,
      "controversial": 6833,
      "zhou": 6834,
      "opportunity": 6835,
      "banned": 6836,
      "hunter": 6837,
      "alpha": 6838,
      "Approximately": 6839,
      "Umayy": 6840,
      "Biss": 6841,
      "Father": 6842,
      "Late": 6843,
      "Non": 6844,
      "kers": 6845,
      "lad": 6846,
      "pires": 6847,
      "aling": 6848,
      "ibl": 6849,
      "ipp": 6850,
      "string": 6851,
      "prise": 6852,
      "compens": 6853,
      "crete": 6854,
      "iversary": 6855,
      "calls": 6856,
      "loan": 6857,
      "tracks": 6858,
      "incand": 6859,
      "patents": 6860,
      "representation": 6861,
      "voting": 6862,
      "Code": 6863,
      "tourist": 6864,
      "survived": 6865,
      "Species": 6866,
      "bishops": 6867,
      "neighborhoods": 6868,
      "village": 6869,
      "Huguenot": 6870,
      "cribed": 6871,
      "Somerset": 6872,
      "Ptole": 6873,
      "1000": 6874,
      "Pit": 6875,
      "mile": 6876,
      "waste": 6877,
      "aret": 6878,
      "mann": 6879,
      "tribe": 6880,
      "cord": 6881,
      "interior": 6882,
      "populated": 6883,
      "invade": 6884,
      "trained": 6885,
      "drinking": 6886,
      "continuous": 6887,
      "videos": 6888,
      "broadcasting": 6889,
      "satis": 6890,
      "taxes": 6891,
      "bacterial": 6892,
      "conflicts": 6893,
      "ctrum": 6894,
      "crops": 6895,
      "distinguished": 6896,
      "losing": 6897,
      "lamps": 6898,
      "incandescent": 6899,
      "Sultan": 6900,
      "wine": 6901,
      "inch": 6902,
      "roman": 6903,
      "laps": 6904,
      "oty": 6905,
      "Instead": 6906,
      "shel": 6907,
      "uset": 6908,
      "dismiss": 6909,
      "bron": 6910,
      "hydr": 6911,
      "varies": 6912,
      "variations": 6913,
      "follows": 6914,
      "simultane": 6915,
      "heads": 6916,
      "oxide": 6917,
      "amongst": 6918,
      "kinds": 6919,
      "deaths": 6920,
      "Swaz": 6921,
      "basket": 6922,
      "Trade": 6923,
      "Monica": 6924,
      "contributions": 6925,
      "performing": 6926,
      "carrying": 6927,
      "safe": 6928,
      "explained": 6929,
      "infrared": 6930,
      "alleged": 6931,
      "targets": 6932,
      "Freemasonry": 6933,
      "Championship": 6934,
      "Che": 6935,
      "Him": 6936,
      "Kn": 6937,
      "Kansas": 6938,
      "Lar": 6939,
      "Sele": 6940,
      "Trad": 6941,
      "Wall": 6942,
      "bil": 6943,
      "cort": 6944,
      "lan": 6945,
      "poverty": 6946,
      "theor": 6947,
      "orter": 6948,
      "anda": 6949,
      "lach": 6950,
      "manner": 6951,
      "2000s": 6952,
      "Alf": 6953,
      "curric": 6954,
      "marry": 6955,
      "filament": 6956,
      "economics": 6957,
      "passage": 6958,
      "1963": 6959,
      "1965": 6960,
      "reflected": 6961,
      "iveness": 6962,
      "Polit": 6963,
      "1953": 6964,
      "teachings": 6965,
      "Media": 6966,
      "Mahayana": 6967,
      "Electric": 6968,
      "passenger": 6969,
      "arrested": 6970,
      "1920s": 6971,
      "isolated": 6972,
      "struggle": 6973,
      "suburbs": 6974,
      "Mercury": 6975,
      "Profess": 6976,
      "Bissau": 6977,
      "Bor": 6978,
      "Hal": 6979,
      "Love": 6980,
      "Main": 6981,
      "Rol": 6982,
      "anks": 6983,
      "rob": 6984,
      "idel": 6985,
      "unciation": 6986,
      "isted": 6987,
      "1910": 6988,
      "Stone": 6989,
      "achuset": 6990,
      "awards": 6991,
      "substance": 6992,
      "capita": 6993,
      "supplies": 6994,
      "paras": 6995,
      "nothing": 6996,
      "shipping": 6997,
      "10th": 6998,
      "Program": 6999,
      "Poly": 7000,
      "faces": 7001,
      "synthesis": 7002,
      "horse": 7003,
      "survive": 7004,
      "farmers": 7005,
      "commissioned": 7006,
      "autonomy": 7007,
      "registered": 7008,
      "Entertainment": 7009,
      "denominations": 7010,
      "DVD": 7011,
      "casualties": 7012,
      "Swaziland": 7013,
      "Fun": 7014,
      "IN": 7015,
      "SF": 7016,
      "Ten": 7017,
      "rical": 7018,
      "rpm": 7019,
      "tall": 7020,
      "ustr": 7021,
      "encounter": 7022,
      "ctive": 7023,
      "conv": 7024,
      "emen": 7025,
      "exposed": 7026,
      "iants": 7027,
      "1912": 7028,
      "iful": 7029,
      "plus": 7030,
      "compla": 7031,
      "spectrum": 7032,
      "bright": 7033,
      "USAF": 7034,
      "lasted": 7035,
      "Country": 7036,
      "representative": 7037,
      "accel": 7038,
      "Bras": 7039,
      "females": 7040,
      "distributed": 7041,
      "criminal": 7042,
      "monarchy": 7043,
      "Billboard": 7044,
      "dollars": 7045,
      "coalition": 7046,
      "Film": 7047,
      "pesticides": 7048,
      "appropriate": 7049,
      "absolute": 7050,
      "achusetts": 7051,
      "Bou": 7052,
      "Ga": 7053,
      "Jim": 7054,
      "Lo": 7055,
      "PN": 7056,
      "bapt": 7057,
      "fal": 7058,
      "fib": 7059,
      "haz": 7060,
      "moun": 7061,
      "siege": 7062,
      "wavel": 7063,
      "your": 7064,
      "ermo": 7065,
      "onia": 7066,
      "ician": 7067,
      "leag": 7068,
      "chro": 7069,
      "ilight": 7070,
      "illegal": 7071,
      "heter": 7072,
      "united": 7073,
      "manus": 7074,
      "mail": 7075,
      "quir": 7076,
      "partly": 7077,
      "Artic": 7078,
      "calling": 7079,
      "spin": 7080,
      "1958": 7081,
      "Soviets": 7082,
      "buried": 7083,
      "broadcasts": 7084,
      "bulb": 7085,
      "necessarily": 7086,
      "performances": 7087,
      "Caes": 7088,
      "newspapers": 7089,
      "Global": 7090,
      "Territ": 7091,
      "Massachusetts": 7092,
      "Foreign": 7093,
      "tuberculosis": 7094,
      "shaped": 7095,
      "Tajikistan": 7096,
      "Seleuc": 7097,
      "DA": 7098,
      "FM": 7099,
      "Gy": 7100,
      "Master": 7101,
      "cros": 7102,
      "ftw": 7103,
      "fine": 7104,
      "iological": 7105,
      "oe": 7106,
      "youth": 7107,
      "stro": 7108,
      "ulum": 7109,
      "acknowled": 7110,
      "agement": 7111,
      "doctor": 7112,
      "sharing": 7113,
      "partner": 7114,
      "ownership": 7115,
      "Staff": 7116,
      "aches": 7117,
      "enses": 7118,
      "spending": 7119,
      "soil": 7120,
      "particles": 7121,
      "currency": 7122,
      "arrhe": 7123,
      "ika": 7124,
      "NATO": 7125,
      "Within": 7126,
      "Cubism": 7127,
      "breaking": 7128,
      "elevation": 7129,
      "Alexandria": 7130,
      "nucle": 7131,
      "aimed": 7132,
      "abolished": 7133,
      "Kublai": 7134,
      "wavelength": 7135,
      "Cab": 7136,
      "Fair": 7137,
      "Never": 7138,
      "Ru": 7139,
      "Ul": 7140,
      "hier": 7141,
      "ny": 7142,
      "rep": 7143,
      "elite": 7144,
      "imposed": 7145,
      "utical": 7146,
      "otes": 7147,
      "artillery": 7148,
      "coron": 7149,
      "provision": 7150,
      "commem": 7151,
      "transist": 7152,
      "originate": 7153,
      "musicians": 7154,
      "introduce": 7155,
      "revival": 7156,
      "consisted": 7157,
      "mixture": 7158,
      "explor": 7159,
      "shares": 7160,
      "discussed": 7161,
      "encourage": 7162,
      "parliamentary": 7163,
      "immediate": 7164,
      "Organization": 7165,
      "reputation": 7166,
      "Executive": 7167,
      "Kennedy": 7168,
      "Bond": 7169,
      "Tay": 7170,
      "waters": 7171,
      "altit": 7172,
      "eless": 7173,
      "sees": 7174,
      "resign": 7175,
      "ifies": 7176,
      "agon": 7177,
      "dub": 7178,
      "kee": 7179,
      "ranks": 7180,
      "regain": 7181,
      "regards": 7182,
      "engaged": 7183,
      "Hebrew": 7184,
      "controls": 7185,
      "personnel": 7186,
      "arrival": 7187,
      "faculty": 7188,
      "killing": 7189,
      "harmon": 7190,
      "fault": 7191,
      "stopped": 7192,
      "decreased": 7193,
      "immigration": 7194,
      "imperialism": 7195,
      "encoding": 7196,
      "Vienna": 7197,
      "jurisdiction": 7198,
      "Lodge": 7199,
      "74": 7200,
      "Bos": 7201,
      "Kill": 7202,
      "Nich": 7203,
      "Sciences": 7204,
      "Wu": 7205,
      "gi": 7206,
      "pav": 7207,
      "sons": 7208,
      "throw": 7209,
      "ched": 7210,
      "contribute": 7211,
      "exempt": 7212,
      "neither": 7213,
      "pled": 7214,
      "merely": 7215,
      "spot": 7216,
      "daylight": 7217,
      "busiest": 7218,
      "resem": 7219,
      "NASA": 7220,
      "Liberal": 7221,
      "prevented": 7222,
      "participated": 7223,
      "Twilight": 7224,
      "situated": 7225,
      "Rajas": 7226,
      "prepared": 7227,
      "conventional": 7228,
      "toxic": 7229,
      "compatible": 7230,
      "molecular": 7231,
      "Chihua": 7232,
      "Anglican": 7233,
      "71": 7234,
      "dio": 7235,
      "icom": 7236,
      "entities": 7237,
      "idency": 7238,
      "ilation": 7239,
      "condem": 7240,
      "shore": 7241,
      "astro": 7242,
      "ardens": 7243,
      "owns": 7244,
      "dison": 7245,
      "column": 7246,
      "interface": 7247,
      "warfare": 7248,
      "varieties": 7249,
      "Indones": 7250,
      "Carib": 7251,
      "learned": 7252,
      "homosexual": 7253,
      "joining": 7254,
      "scientist": 7255,
      "fewer": 7256,
      "evolutionary": 7257,
      "denied": 7258,
      "denomination": 7259,
      "professor": 7260,
      "logo": 7261,
      "bombers": 7262,
      "weapon": 7263,
      "connecting": 7264,
      "varying": 7265,
      "breeding": 7266,
      "vehicle": 7267,
      "Georgia": 7268,
      "exercise": 7269,
      "Rajasthan": 7270,
      "Ak": 7271,
      "Pass": 7272,
      "aired": 7273,
      "iop": 7274,
      "pella": 7275,
      "sin": 7276,
      "incent": 7277,
      "adjac": 7278,
      "convert": 7279,
      "complic": 7280,
      "neuro": 7281,
      "prestig": 7282,
      "conson": 7283,
      "Luftw": 7284,
      "studying": 7285,
      "Armenians": 7286,
      "argument": 7287,
      "diarrhe": 7288,
      "explo": 7289,
      "secution": 7290,
      "uguay": 7291,
      "exclusive": 7292,
      "Uruguay": 7293,
      "mathematical": 7294,
      "Furthermore": 7295,
      "manufacturers": 7296,
      "cuisine": 7297,
      "relevant": 7298,
      "Luftwaffe": 7299,
      "Bish": 7300,
      "Cel": 7301,
      "Est": 7302,
      "Fund": 7303,
      "Moh": 7304,
      "SE": 7305,
      "Tru": 7306,
      "rib": 7307,
      "inth": 7308,
      "error": 7309,
      "ensu": 7310,
      "encompass": 7311,
      "aments": 7312,
      "worst": 7313,
      "undergraduate": 7314,
      "publicly": 7315,
      "1954": 7316,
      "1955": 7317,
      "independently": 7318,
      "telephone": 7319,
      "investigation": 7320,
      "Palermo": 7321,
      "Series": 7322,
      "favour": 7323,
      "Baltic": 7324,
      "Protestants": 7325,
      "vinyl": 7326,
      "prisoners": 7327,
      "ratings": 7328,
      "sovereignty": 7329,
      "description": 7330,
      "scenes": 7331,
      "leagues": 7332,
      "Caribbean": 7333,
      "52": 7334,
      "58": 7335,
      "Dest": 7336,
      "IPC": 7337,
      "WW": 7338,
      "duty": 7339,
      "iod": 7340,
      "trol": 7341,
      "wel": 7342,
      "atus": 7343,
      "enabled": 7344,
      "alu": 7345,
      "adher": 7346,
      "emigr": 7347,
      "explicit": 7348,
      "acles": 7349,
      "acids": 7350,
      "1911": 7351,
      "trust": 7352,
      "earned": 7353,
      "centered": 7354,
      "notion": 7355,
      "gross": 7356,
      "coins": 7357,
      "anniversary": 7358,
      "tape": 7359,
      "loans": 7360,
      "cappella": 7361,
      "metres": 7362,
      "depends": 7363,
      "possibility": 7364,
      "bling": 7365,
      "arrive": 7366,
      "sky": 7367,
      "appointment": 7368,
      "suffering": 7369,
      "Studies": 7370,
      "geographic": 7371,
      "essentially": 7372,
      "exhibition": 7373,
      "Jersey": 7374,
      "philosophers": 7375,
      "prophe": 7376,
      "challenge": 7377,
      "Memorial": 7378,
      "Relig": 7379,
      "Huguenots": 7380,
      "accurate": 7381,
      "eliminated": 7382,
      "twenty": 7383,
      "FIFA": 7384,
      "Video": 7385,
      "adjacent": 7386,
      "Cons": 7387,
      "Dam": 7388,
      "Duch": 7389,
      "Hur": 7390,
      "Jam": 7391,
      "Pont": 7392,
      "Ray": 7393,
      "cers": 7394,
      "fan": 7395,
      "je": 7396,
      "save": 7397,
      "ende": 7398,
      "advent": 7399,
      "concer": 7400,
      "Independence": 7401,
      "abbey": 7402,
      "artistic": 7403,
      "strip": 7404,
      "rance": 7405,
      "pole": 7406,
      "mainland": 7407,
      "trav": 7408,
      "metals": 7409,
      "educated": 7410,
      "claiming": 7411,
      "civilization": 7412,
      "consistent": 7413,
      "democratic": 7414,
      "mutual": 7415,
      "details": 7416,
      "exclusively": 7417,
      "junction": 7418,
      "tools": 7419,
      "skills": 7420,
      "cinem": 7421,
      "Cold": 7422,
      "Jr": 7423,
      "Much": 7424,
      "UE": 7425,
      "uous": 7426,
      "vacc": 7427,
      "wr": 7428,
      "wed": 7429,
      "onial": 7430,
      "arose": 7431,
      "itar": 7432,
      "iture": 7433,
      "urs": 7434,
      "clergy": 7435,
      "agent": 7436,
      "ibilities": 7437,
      "partially": 7438,
      "intent": 7439,
      "boat": 7440,
      "relief": 7441,
      "Once": 7442,
      "numbered": 7443,
      "varied": 7444,
      "funeral": 7445,
      "1956": 7446,
      "voters": 7447,
      "Victorian": 7448,
      "peninsula": 7449,
      "secure": 7450,
      "distinctive": 7451,
      "vania": 7452,
      "Area": 7453,
      "Ukrain": 7454,
      "annexed": 7455,
      "shopping": 7456,
      "picture": 7457,
      "modified": 7458,
      "aristoc": 7459,
      "Medicine": 7460,
      "Young": 7461,
      "51": 7462,
      "53": 7463,
      "Aust": 7464,
      "Athen": 7465,
      "Daily": 7466,
      "Ori": 7467,
      "Sud": 7468,
      "ien": 7469,
      "jan": 7470,
      "pes": 7471,
      "wers": 7472,
      "remov": 7473,
      "itudes": 7474,
      "tower": 7475,
      "leaves": 7476,
      "whites": 7477,
      "embar": 7478,
      "raise": 7479,
      "comic": 7480,
      "proof": 7481,
      "osph": 7482,
      "ongo": 7483,
      "flows": 7484,
      "mining": 7485,
      "kness": 7486,
      "conscious": 7487,
      "governing": 7488,
      "invited": 7489,
      "Leban": 7490,
      "Dec": 7491,
      "pointed": 7492,
      "receives": 7493,
      "solo": 7494,
      "1952": 7495,
      "criter": 7496,
      "layers": 7497,
      "civilian": 7498,
      "civilians": 7499,
      "recognised": 7500,
      "Coast": 7501,
      "closer": 7502,
      "meetings": 7503,
      "concerning": 7504,
      "campaigns": 7505,
      "surviving": 7506,
      "neighboring": 7507,
      "easy": 7508,
      "Golden": 7509,
      "BeiDou": 7510,
      "Obama": 7511,
      "protocol": 7512,
      "Hungary": 7513,
      "attracted": 7514,
      "uniform": 7515,
      "basketball": 7516,
      "900": 7517,
      "Tam": 7518,
      "Turn": 7519,
      "Win": 7520,
      "bases": 7521,
      "duties": 7522,
      "tas": 7523,
      "thick": 7524,
      "onian": 7525,
      "ora": 7526,
      "stan": 7527,
      "rocks": 7528,
      "urated": 7529,
      "convention": 7530,
      "una": 7531,
      "rac": 7532,
      "reserv": 7533,
      "ockey": 7534,
      "attached": 7535,
      "crimes": 7536,
      "looking": 7537,
      "Head": 7538,
      "Ford": 7539,
      "operational": 7540,
      "ennium": 7541,
      "willing": 7542,
      "1957": 7543,
      "accum": 7544,
      "Abd": 7545,
      "Corps": 7546,
      "synthetic": 7547,
      "regulation": 7548,
      "adolescence": 7549,
      "Downtown": 7550,
      "abulary": 7551,
      "Brasilia": 7552,
      "61": 7553,
      "72": 7554,
      "Home": 7555,
      "pic": 7556,
      "swe": 7557,
      "sphere": 7558,
      "wo": 7559,
      "org": 7560,
      "elab": 7561,
      "elve": 7562,
      "olics": 7563,
      "unity": 7564,
      "defect": 7565,
      "defic": 7566,
      "istical": 7567,
      "permit": 7568,
      "centres": 7569,
      "phony": 7570,
      "coordin": 7571,
      "links": 7572,
      "Prov": 7573,
      "1943": 7574,
      "Canal": 7575,
      "1951": 7576,
      "facilit": 7577,
      "draft": 7578,
      "rocket": 7579,
      "Turks": 7580,
      "storm": 7581,
      "Walter": 7582,
      "eye": 7583,
      "distinguish": 7584,
      "Solar": 7585,
      "Samoa": 7586,
      "deposits": 7587,
      "Economic": 7588,
      "aspirated": 7589,
      "NYC": 7590,
      "alumni": 7591,
      "Edison": 7592,
      "Jin": 7593,
      "Tang": 7594,
      "flying": 7595,
      "none": 7596,
      "ninet": 7597,
      "rub": 7598,
      "task": 7599,
      "uz": 7600,
      "vul": 7601,
      "inary": 7602,
      "instruct": 7603,
      "atoms": 7604,
      "urg": 7605,
      "unlike": 7606,
      "proceed": 7607,
      "allied": 7608,
      "antenn": 7609,
      "actors": 7610,
      "prev": 7611,
      "interactions": 7612,
      "desire": 7613,
      "understood": 7614,
      "finite": 7615,
      "Energy": 7616,
      "legally": 7617,
      "charges": 7618,
      "icket": 7619,
      "Peace": 7620,
      "barri": 7621,
      "Lutheran": 7622,
      "findings": 7623,
      "wealthy": 7624,
      "difficulty": 7625,
      "avalry": 7626,
      "Panthers": 7627,
      "quartered": 7628,
      "revolutionary": 7629,
      "conservation": 7630,
      "absorbed": 7631,
      "licensed": 7632,
      "message": 7633,
      "Sweden": 7634,
      "sylvania": 7635,
      "refugees": 7636,
      "Sicily": 7637,
      "Caesar": 7638,
      "Nevertheless": 7639,
      "Chihuahua": 7640,
      "9th": 7641,
      "Dynast": 7642,
      "OR": 7643,
      "Oh": 7644,
      "rats": 7645,
      "wart": 7646,
      "editions": 7647,
      "itan": 7648,
      "entit": 7649,
      "emic": 7650,
      "cler": 7651,
      "Channel": 7652,
      "compare": 7653,
      "irect": 7654,
      "archy": 7655,
      "oked": 7656,
      "Warner": 7657,
      "filed": 7658,
      "ront": 7659,
      "factory": 7660,
      "followers": 7661,
      "Christmas": 7662,
      "generate": 7663,
      "1946": 7664,
      "1947": 7665,
      "structural": 7666,
      "architects": 7667,
      "Arabs": 7668,
      "sentence": 7669,
      "Catholics": 7670,
      "specialized": 7671,
      "Williams": 7672,
      "indicated": 7673,
      "ukary": 7674,
      "promised": 7675,
      "oriented": 7676,
      "forests": 7677,
      "HDI": 7678,
      "HDTV": 7679,
      "pollution": 7680,
      "Hotel": 7681,
      "sponsored": 7682,
      "rebels": 7683,
      "girls": 7684,
      "Pennsylvania": 7685,
      "opponents": 7686,
      "Connectic": 7687,
      "perspective": 7688,
      "IPCC": 7689,
      "Bad": 7690,
      "Hu": 7691,
      "Pale": 7692,
      "SC": 7693,
      "Vis": 7694,
      "bass": 7695,
      "cue": 7696,
      "eda": 7697,
      "icult": 7698,
      "lywood": 7699,
      "geomet": 7700,
      "reserves": 7701,
      "proclaimed": 7702,
      "Inc": 7703,
      "abst": 7704,
      "ocking": 7705,
      "doors": 7706,
      "dual": 7707,
      "evacu": 7708,
      "plain": 7709,
      "uez": 7710,
      "boards": 7711,
      "Armed": 7712,
      "airports": 7713,
      "thereby": 7714,
      "engage": 7715,
      "opera": 7716,
      "Auto": 7717,
      "Shah": 7718,
      "technic": 7719,
      "1942": 7720,
      "Mayor": 7721,
      "1937": 7722,
      "acquire": 7723,
      "Communic": 7724,
      "respective": 7725,
      "Montini": 7726,
      "vertical": 7727,
      "younger": 7728,
      "clearly": 7729,
      "collections": 7730,
      "discussion": 7731,
      "Military": 7732,
      "Operation": 7733,
      "competitions": 7734,
      "Railway": 7735,
      "rifice": 7736,
      "Natural": 7737,
      "blacks": 7738,
      "Taylor": 7739,
      "Connecticut": 7740,
      "Buc": 7741,
      "Bah": 7742,
      "Jay": 7743,
      "Kur": 7744,
      "nit": 7745,
      "oon": 7746,
      "scr": 7747,
      "inated": 7748,
      "eland": 7749,
      "adding": 7750,
      "unemployment": 7751,
      "emed": 7752,
      "empires": 7753,
      "isters": 7754,
      "ott": 7755,
      "acular": 7756,
      "estimate": 7757,
      "romag": 7758,
      "math": 7759,
      "ager": 7760,
      "outube": 7761,
      "partnership": 7762,
      "genet": 7763,
      "aka": 7764,
      "collaps": 7765,
      "Argent": 7766,
      "Engine": 7767,
      "stands": 7768,
      "tests": 7769,
      "missile": 7770,
      "succession": 7771,
      "technological": 7772,
      "appeal": 7773,
      "competing": 7774,
      "Trust": 7775,
      "argues": 7776,
      "panel": 7777,
      "morph": 7778,
      "elsewhere": 7779,
      "museums": 7780,
      "sacrifice": 7781,
      "CEO": 7782,
      "Daniel": 7783,
      "Pact": 7784,
      "Sel": 7785,
      "faster": 7786,
      "sz": 7787,
      "tics": 7788,
      "uma": 7789,
      "intr": 7790,
      "erals": 7791,
      "atically": 7792,
      "rout": 7793,
      "implic": 7794,
      "congress": 7795,
      "ista": 7796,
      "prosper": 7797,
      "1930": 7798,
      "portions": 7799,
      "spaces": 7800,
      "extension": 7801,
      "Marx": 7802,
      "Prote": 7803,
      "programme": 7804,
      "representing": 7805,
      "sequently": 7806,
      "planes": 7807,
      "culmin": 7808,
      "accident": 7809,
      "painting": 7810,
      "adoption": 7811,
      "bombs": 7812,
      "victims": 7813,
      "emergency": 7814,
      "manufactured": 7815,
      "protesters": 7816,
      "productive": 7817,
      "crossed": 7818,
      "publishing": 7819,
      "ulsion": 7820,
      "replacement": 7821,
      "detailed": 7822,
      "Members": 7823,
      "arranged": 7824,
      "arrangement": 7825,
      "turb": 7826,
      "extinct": 7827,
      "virtually": 7828,
      "cabinet": 7829,
      "loyal": 7830,
      "ferson": 7831,
      "enforcement": 7832,
      "Balkans": 7833,
      "infringement": 7834,
      "piano": 7835,
      "Industrial": 7836,
      "surrounded": 7837,
      "Hitler": 7838,
      "54": 7839,
      "Has": 7840,
      "Night": 7841,
      "Nik": 7842,
      "fairs": 7843,
      "mese": 7844,
      "thood": 7845,
      "inland": 7846,
      "escape": 7847,
      "ented": 7848,
      "imag": 7849,
      "impossible": 7850,
      "Inn": 7851,
      "didn": 7852,
      "1917": 7853,
      "uble": 7854,
      "1800": 7855,
      "cathedral": 7856,
      "lobe": 7857,
      "identical": 7858,
      "transit": 7859,
      "thered": 7860,
      "170": 7861,
      "signs": 7862,
      "hymn": 7863,
      "complement": 7864,
      "falls": 7865,
      "handle": 7866,
      "Medieval": 7867,
      "Schol": 7868,
      "literally": 7869,
      "conception": 7870,
      "Burmese": 7871,
      "holders": 7872,
      "interested": 7873,
      "maintaining": 7874,
      "Samuel": 7875,
      "UNF": 7876,
      "crop": 7877,
      "Moon": 7878,
      "Calvin": 7879,
      "wrestler": 7880,
      "descended": 7881,
      "slowly": 7882,
      "fossil": 7883,
      "Scout": 7884,
      "prevalent": 7885,
      "vessels": 7886,
      "Cau": 7887,
      "Gil": 7888,
      "Jour": 7889,
      "LP": 7890,
      "Saf": 7891,
      "Show": 7892,
      "gone": 7893,
      "narr": 7894,
      "rons": 7895,
      "vac": 7896,
      "eras": 7897,
      "retreat": 7898,
      "isition": 7899,
      "unte": 7900,
      "decess": 7901,
      "pest": 7902,
      "abil": 7903,
      "permitted": 7904,
      "osaur": 7905,
      "predecess": 7906,
      "coin": 7907,
      "suburban": 7908,
      "involve": 7909,
      "hero": 7910,
      "Priv": 7911,
      "guil": 7912,
      "headquartered": 7913,
      "showing": 7914,
      "seeking": 7915,
      "proteins": 7916,
      "maintains": 7917,
      "functional": 7918,
      "windows": 7919,
      "boundary": 7920,
      "psychology": 7921,
      "hysics": 7922,
      "Broadway": 7923,
      "detect": 7924,
      "circumstances": 7925,
      "Roger": 7926,
      "Bulgar": 7927,
      "alphabet": 7928,
      "UEFA": 7929,
      "97": 7930,
      "Every": 7931,
      "Hud": 7932,
      "Lor": 7933,
      "Liver": 7934,
      "MI": 7935,
      "Rou": 7936,
      "RNA": 7937,
      "Sin": 7938,
      "grain": 7939,
      "hosp": 7940,
      "rice": 7941,
      "inhab": 7942,
      "ati": 7943,
      "enacted": 7944,
      "semin": 7945,
      "beaut": 7946,
      "consequence": 7947,
      "ocl": 7948,
      "indirect": 7949,
      "adequ": 7950,
      "intermed": 7951,
      "offensive": 7952,
      "chose": 7953,
      "feud": 7954,
      "trains": 7955,
      "linear": 7956,
      "168": 7957,
      "solve": 7958,
      "migrate": 7959,
      "administered": 7960,
      "painted": 7961,
      "Harbor": 7962,
      "commerce": 7963,
      "finding": 7964,
      "engineers": 7965,
      "involvement": 7966,
      "Temple": 7967,
      "improvements": 7968,
      "walk": 7969,
      "alloys": 7970,
      "Ukraine": 7971,
      "sculpture": 7972,
      "congregations": 7973,
      "Sumerian": 7974,
      "Jefferson": 7975,
      "adapted": 7976,
      "AI": 7977,
      "Ara": 7978,
      "CIA": 7979,
      "GM": 7980,
      "Gener": 7981,
      "Mali": 7982,
      "Open": 7983,
      "Yang": 7984,
      "ecol": 7985,
      "eukary": 7986,
      "garden": 7987,
      "overs": 7988,
      "xi": 7989,
      "index": 7990,
      "refin": 7991,
      "reverse": 7992,
      "elle": 7993,
      "etime": 7994,
      "1922": 7995,
      "ials": 7996,
      "shar": 7997,
      "Champions": 7998,
      "preserved": 7999,
      "license": 8000,
      "ugby": 8001,
      "supplement": 8002,
      "Princip": 8003,
      "lined": 8004,
      "continuing": 8005,
      "literacy": 8006,
      "frequencies": 8007,
      "Mean": 8008,
      "ski": 8009,
      "entering": 8010,
      "Revolutionary": 8011,
      "bills": 8012,
      "Valencian": 8013,
      "Digital": 8014,
      "Crus": 8015,
      "symmet": 8016,
      "pronunciation": 8017,
      "papers": 8018,
      "negotiations": 8019,
      "opportunities": 8020,
      "chronic": 8021,
      "dramatic": 8022,
      "Ethiop": 8023,
      "lunar": 8024,
      "Aud": 8025,
      "Bann": 8026,
      "Front": 8027,
      "Let": 8028,
      "Pap": 8029,
      "TA": 8030,
      "VA": 8031,
      "Wel": 8032,
      "Women": 8033,
      "oir": 8034,
      "sel": 8035,
      "thin": 8036,
      "rey": 8037,
      "rebellion": 8038,
      "orm": 8039,
      "orous": 8040,
      "stors": 8041,
      "olt": 8042,
      "ceutical": 8043,
      "ima": 8044,
      "raids": 8045,
      "Init": 8046,
      "etary": 8047,
      "agents": 8048,
      "phosph": 8049,
      "Stan": 8050,
      "intention": 8051,
      "monks": 8052,
      "collected": 8053,
      "publications": 8054,
      "traits": 8055,
      "Heart": 8056,
      "drum": 8057,
      "releases": 8058,
      "backed": 8059,
      "130": 8060,
      "justice": 8061,
      "1936": 8062,
      "1938": 8063,
      "dominance": 8064,
      "shortly": 8065,
      "Ottomans": 8066,
      "acceptable": 8067,
      "adesh": 8068,
      "habitat": 8069,
      "salt": 8070,
      "chemicals": 8071,
      "cardinals": 8072,
      "responded": 8073,
      "measurement": 8074,
      "coding": 8075,
      "Crime": 8076,
      "attendance": 8077,
      "eyes": 8078,
      "Antarctic": 8079,
      "kilometers": 8080,
      "linguistic": 8081,
      "Director": 8082,
      "deployed": 8083,
      "Oxford": 8084,
      "armaceutical": 8085,
      "consecutive": 8086,
      "Little": 8087,
      "artificial": 8088,
      "antennas": 8089,
      "Fried": 8090,
      "Hok": 8091,
      "Tel": 8092,
      "Ve": 8093,
      "bis": 8094,
      "bits": 8095,
      "cow": 8096,
      "sters": 8097,
      "tourn": 8098,
      "ifest": 8099,
      "ques": 8100,
      "izon": 8101,
      "izona": 8102,
      "ogens": 8103,
      "premi": 8104,
      "Arizona": 8105,
      "helps": 8106,
      "epic": 8107,
      "epid": 8108,
      "Dean": 8109,
      "Declar": 8110,
      "Attic": 8111,
      "Color": 8112,
      "olving": 8113,
      "Therefore": 8114,
      "destination": 8115,
      "connects": 8116,
      "1931": 8117,
      "sugar": 8118,
      "stronger": 8119,
      "Serv": 8120,
      "dielectric": 8121,
      "emergence": 8122,
      "Hollywood": 8123,
      "expanding": 8124,
      "graduates": 8125,
      "symbols": 8126,
      "brothers": 8127,
      "nutri": 8128,
      "episodes": 8129,
      "Point": 8130,
      "Castle": 8131,
      "disputed": 8132,
      "stimul": 8133,
      "corresponding": 8134,
      "Cir": 8135,
      "IP": 8136,
      "Line": 8137,
      "Naz": 8138,
      "ahead": 8139,
      "oque": 8140,
      "vak": 8141,
      "replic": 8142,
      "revenues": 8143,
      "tomb": 8144,
      "lest": 8145,
      "unified": 8146,
      "raid": 8147,
      "exual": 8148,
      "primes": 8149,
      "ultimate": 8150,
      "firms": 8151,
      "ounds": 8152,
      "boom": 8153,
      "minute": 8154,
      "ancestor": 8155,
      "Isles": 8156,
      "transformed": 8157,
      "Death": 8158,
      "factories": 8159,
      "expelled": 8160,
      "viewers": 8161,
      "singing": 8162,
      "Author": 8163,
      "titled": 8164,
      "covering": 8165,
      "objective": 8166,
      "composer": 8167,
      "mechanics": 8168,
      "explos": 8169,
      "grav": 8170,
      "Defense": 8171,
      "Temuj": 8172,
      "theoretical": 8173,
      "humid": 8174,
      "mortg": 8175,
      "citizenship": 8176,
      "chairman": 8177,
      "Belgium": 8178,
      "cognitive": 8179,
      "prompted": 8180,
      "gymnast": 8181,
      "vertebrates": 8182,
      "inhabited": 8183,
      "Temujin": 8184,
      "93": 8185,
      "94": 8186,
      "Ale": 8187,
      "Garden": 8188,
      "Iber": 8189,
      "Ky": 8190,
      "Lama": 8191,
      "Sk": 8192,
      "Sher": 8193,
      "Turing": 8194,
      "Yong": 8195,
      "flex": 8196,
      "fiber": 8197,
      "hits": 8198,
      "iew": 8199,
      "mart": 8200,
      "nest": 8201,
      "rant": 8202,
      "raries": 8203,
      "tied": 8204,
      "remember": 8205,
      "enthus": 8206,
      "stars": 8207,
      "esy": 8208,
      "icks": 8209,
      "entrance": 8210,
      "oll": 8211,
      "secre": 8212,
      "whel": 8213,
      "optim": 8214,
      "resigned": 8215,
      "plates": 8216,
      "Start": 8217,
      "merger": 8218,
      "traced": 8219,
      "Carl": 8220,
      "getting": 8221,
      "declar": 8222,
      "significance": 8223,
      "spacecraft": 8224,
      "foods": 8225,
      "acceptance": 8226,
      "logic": 8227,
      "kyB": 8228,
      "electrons": 8229,
      "BSkyB": 8230,
      "hope": 8231,
      "codes": 8232,
      "fishing": 8233,
      "possession": 8234,
      "competitive": 8235,
      "Georgian": 8236,
      "galleries": 8237,
      "departments": 8238,
      "glaciers": 8239,
      "enjoyed": 8240,
      "membrane": 8241,
      "obligations": 8242,
      "franchise": 8243,
      "diarrhea": 8244,
      "abstract": 8245,
      "Declaration": 8246,
      "Cas": 8247,
      "CII": 8248,
      "Mas": 8249,
      "Pier": 8250,
      "Ros": 8251,
      "Wii": 8252,
      "aqu": 8253,
      "bid": 8254,
      "furn": 8255,
      "gal": 8256,
      "iro": 8257,
      "uct": 8258,
      "ancing": 8259,
      "enroll": 8260,
      "beings": 8261,
      "owed": 8262,
      "imped": 8263,
      "unless": 8264,
      "emiss": 8265,
      "abund": 8266,
      "tech": 8267,
      "ceded": 8268,
      "divor": 8269,
      "Russell": 8270,
      "olves": 8271,
      "referring": 8272,
      "mbled": 8273,
      "authorized": 8274,
      "Federation": 8275,
      "absence": 8276,
      "promise": 8277,
      "nobles": 8278,
      "resource": 8279,
      "vocabulary": 8280,
      "comprised": 8281,
      "bottom": 8282,
      "Opera": 8283,
      "friendly": 8284,
      "championship": 8285,
      "Hungarian": 8286,
      "conferencing": 8287,
      "merchants": 8288,
      "angelical": 8289,
      "nutrition": 8290,
      "husband": 8291,
      "Similarly": 8292,
      "ctenoph": 8293,
      "Nicholas": 8294,
      "wrong": 8295,
      "Ukrainian": 8296,
      "ongoing": 8297,
      "Hudson": 8298,
      "Cru": 8299,
      "Fred": 8300,
      "HS": 8301,
      "Ram": 8302,
      "Vat": 8303,
      "fusion": 8304,
      "gap": 8305,
      "voy": 8306,
      "itage": 8307,
      "sects": 8308,
      "hear": 8309,
      "hearing": 8310,
      "gets": 8311,
      "accent": 8312,
      "perors": 8313,
      "overwhel": 8314,
      "assim": 8315,
      "disaster": 8316,
      "anything": 8317,
      "newer": 8318,
      "capabilities": 8319,
      "noise": 8320,
      "domain": 8321,
      "rolled": 8322,
      "Romance": 8323,
      "1959": 8324,
      "holid": 8325,
      "migrants": 8326,
      "Exam": 8327,
      "Brook": 8328,
      "Heritage": 8329,
      "infectious": 8330,
      "contestant": 8331,
      "transmitted": 8332,
      "farming": 8333,
      "experimental": 8334,
      "Saturn": 8335,
      "villages": 8336,
      "Upper": 8337,
      "suspended": 8338,
      "Movement": 8339,
      "iblical": 8340,
      "romagnetic": 8341,
      "Liverpool": 8342,
      "67": 8343,
      "Ath": 8344,
      "Cra": 8345,
      "DJ": 8346,
      "Mugh": 8347,
      "Tar": 8348,
      "Upon": 8349,
      "bureau": 8350,
      "cavalry": 8351,
      "dor": 8352,
      "rum": 8353,
      "tu": 8354,
      "youtube": 8355,
      "inspir": 8356,
      "erated": 8357,
      "remo": 8358,
      "chamber": 8359,
      "moon": 8360,
      "rome": 8361,
      "1919": 8362,
      "clin": 8363,
      "notice": 8364,
      "inton": 8365,
      "aching": 8366,
      "presidency": 8367,
      "Ther": 8368,
      "mines": 8369,
      "ancestors": 8370,
      "eenth": 8371,
      "Andrew": 8372,
      "margin": 8373,
      "borne": 8374,
      "Indians": 8375,
      "porter": 8376,
      "singles": 8377,
      "rained": 8378,
      "practiced": 8379,
      "lords": 8380,
      "terminal": 8381,
      "corporate": 8382,
      "commanded": 8383,
      "celebration": 8384,
      "integration": 8385,
      "MPEG": 8386,
      "steps": 8387,
      "fellow": 8388,
      "Franklin": 8389,
      "recommend": 8390,
      "Metropolitan": 8391,
      "Years": 8392,
      "Legisl": 8393,
      "phenomenon": 8394,
      "RIBA": 8395,
      "Continental": 8396,
      "lachta": 8397,
      "Alfred": 8398,
      "SFSR": 8399,
      "Sudan": 8400,
      "UNFPA": 8401,
      "Caucas": 8402,
      "57": 8403,
      "69": 8404,
      "Ah": 8405,
      "Harr": 8406,
      "Sect": 8407,
      "Writ": 8408,
      "athe": 8409,
      "fired": 8410,
      "icism": 8411,
      "iva": 8412,
      "acial": 8413,
      "inters": 8414,
      "coln": 8415,
      "desk": 8416,
      "aux": 8417,
      "specified": 8418,
      "movies": 8419,
      "Marg": 8420,
      "Marath": 8421,
      "guest": 8422,
      "passes": 8423,
      "casting": 8424,
      "divide": 8425,
      "Neolithic": 8426,
      "declare": 8427,
      "holder": 8428,
      "defining": 8429,
      "advice": 8430,
      "Trib": 8431,
      "availability": 8432,
      "logical": 8433,
      "ospel": 8434,
      "indicates": 8435,
      "mechanisms": 8436,
      "Broncos": 8437,
      "oultry": 8438,
      "pathogens": 8439,
      "customs": 8440,
      "automat": 8441,
      "affiliate": 8442,
      "provincial": 8443,
      "suitable": 8444,
      "Manchu": 8445,
      "subsidiary": 8446,
      "Lincoln": 8447,
      "curriculum": 8448,
      "mounted": 8449,
      "Ohio": 8450,
      "AN": 8451,
      "Agency": 8452,
      "Ban": 8453,
      "Mir": 8454,
      "bat": 8455,
      "cens": 8456,
      "fro": 8457,
      "gel": 8458,
      "hence": 8459,
      "pel": 8460,
      "pump": 8461,
      "scar": 8462,
      "inherit": 8463,
      "really": 8464,
      "stall": 8465,
      "chick": 8466,
      "sectors": 8467,
      "segments": 8468,
      "uten": 8469,
      "apore": 8470,
      "ocent": 8471,
      "Howard": 8472,
      "twelve": 8473,
      "eva": 8474,
      "afford": 8475,
      "ideology": 8476,
      "corner": 8477,
      "finance": 8478,
      "Aside": 8479,
      "Control": 8480,
      "asonic": 8481,
      "variants": 8482,
      "drives": 8483,
      "drama": 8484,
      "meters": 8485,
      "tribal": 8486,
      "occurring": 8487,
      "volumes": 8488,
      "responses": 8489,
      "federalism": 8490,
      "weekly": 8491,
      "potentially": 8492,
      "pathogen": 8493,
      "easier": 8494,
      "instrumental": 8495,
      "infantry": 8496,
      "sympto": 8497,
      "debuted": 8498,
      "dangerous": 8499,
      "sponsor": 8500,
      "pushed": 8501,
      "priests": 8502,
      "Gallery": 8503,
      "Dynasty": 8504,
      "entitled": 8505,
      "Vatican": 8506,
      "Ag": 8507,
      "Pius": 8508,
      "Sab": 8509,
      "Sina": 8510,
      "aes": 8511,
      "bond": 8512,
      "fold": 8513,
      "nom": 8514,
      "react": 8515,
      "ching": 8516,
      "heating": 8517,
      "ceased": 8518,
      "lyn": 8519,
      "uncertain": 8520,
      "deemed": 8521,
      "emes": 8522,
      "reson": 8523,
      "aints": 8524,
      "tees": 8525,
      "Stra": 8526,
      "pregn": 8527,
      "monitor": 8528,
      "flights": 8529,
      "cores": 8530,
      "Alpine": 8531,
      "fron": 8532,
      "fee": 8533,
      "Normand": 8534,
      "capability": 8535,
      "oster": 8536,
      "Spir": 8537,
      "Affairs": 8538,
      "cellular": 8539,
      "Interstate": 8540,
      "southwest": 8541,
      "dictator": 8542,
      "Freedom": 8543,
      "housed": 8544,
      "morning": 8545,
      "participation": 8546,
      "madaris": 8547,
      "Cape": 8548,
      "closure": 8549,
      "qualities": 8550,
      "flee": 8551,
      "couple": 8552,
      "transmitter": 8553,
      "ASCII": 8554,
      "Patri": 8555,
      "framework": 8556,
      "Famicom": 8557,
      "Wilson": 8558,
      "atmospher": 8559,
      "Macedonian": 8560,
      "innovation": 8561,
      "advertising": 8562,
      "legitimate": 8563,
      "pronounced": 8564,
      "guarant": 8565,
      "crossing": 8566,
      "szlachta": 8567,
      "Agr": 8568,
      "Beng": 8569,
      "Di": 8570,
      "Dom": 8571,
      "Fall": 8572,
      "Jac": 8573,
      "Lower": 8574,
      "bars": 8575,
      "fts": 8576,
      "nt": 8577,
      "theolog": 8578,
      "anch": 8579,
      "forcing": 8580,
      "imprison": 8581,
      "unknown": 8582,
      "racy": 8583,
      "clust": 8584,
      "iah": 8585,
      "aft": 8586,
      "fert": 8587,
      "intense": 8588,
      "reliable": 8589,
      "Those": 8590,
      "internationally": 8591,
      "fruit": 8592,
      "identification": 8593,
      "traders": 8594,
      "fluid": 8595,
      "lesser": 8596,
      "decis": 8597,
      "communist": 8598,
      "tribution": 8599,
      "raining": 8600,
      "rainforest": 8601,
      "topic": 8602,
      "marketing": 8603,
      "Charter": 8604,
      "libraries": 8605,
      "occupy": 8606,
      "minorities": 8607,
      "millions": 8608,
      "strengthen": 8609,
      "displays": 8610,
      "propag": 8611,
      "boroughs": 8612,
      "Singapore": 8613,
      "initiative": 8614,
      "Palestine": 8615,
      "predominantly": 8616,
      "Article": 8617,
      "acknowledged": 8618,
      "()": 8619,
      "Dog": 8620,
      "Gates": 8621,
      "Hus": 8622,
      "ML": 8623,
      "Sav": 8624,
      "SNES": 8625,
      "Wes": 8626,
      "bub": 8627,
      "iots": 8628,
      "tell": 8629,
      "wet": 8630,
      "zed": 8631,
      "stical": 8632,
      "stability": 8633,
      "root": 8634,
      "aded": 8635,
      "ivered": 8636,
      "termed": 8637,
      "Index": 8638,
      "ameter": 8639,
      "ipel": 8640,
      "formats": 8641,
      "landed": 8642,
      "interaction": 8643,
      "tace": 8644,
      "governance": 8645,
      "Reformed": 8646,
      "Market": 8647,
      "supports": 8648,
      "Produ": 8649,
      "facto": 8650,
      "Queens": 8651,
      "Others": 8652,
      "Abbey": 8653,
      "corporation": 8654,
      "Brah": 8655,
      "donated": 8656,
      "annelids": 8657,
      "blocks": 8658,
      "infections": 8659,
      "ISO": 8660,
      "bankrupt": 8661,
      "Bernard": 8662,
      "recovery": 8663,
      "Denmark": 8664,
      "Throughout": 8665,
      "explanation": 8666,
      "Administration": 8667,
      "bronze": 8668,
      "Bishop": 8669,
      "collapsed": 8670,
      "hospitals": 8671,
      "Normandy": 8672,
      "82": 8673,
      "Cities": 8674,
      "Hom": 8675,
      "Ps": 8676,
      "Pic": 8677,
      "Syn": 8678,
      "VII": 8679,
      "Watch": 8680,
      "catal": 8681,
      "grap": 8682,
      "navy": 8683,
      "rics": 8684,
      "sn": 8685,
      "tap": 8686,
      "thew": 8687,
      "revolt": 8688,
      "enable": 8689,
      "orian": 8690,
      "icing": 8691,
      "Whit": 8692,
      "heard": 8693,
      "devoted": 8694,
      "ules": 8695,
      "assign": 8696,
      "assault": 8697,
      "ritual": 8698,
      "ints": 8699,
      "merc": 8700,
      "pressing": 8701,
      "cancell": 8702,
      "coined": 8703,
      "grid": 8704,
      "grants": 8705,
      "kingham": 8706,
      "curs": 8707,
      "legend": 8708,
      "Prim": 8709,
      "persist": 8710,
      "humanism": 8711,
      "delivered": 8712,
      "140": 8713,
      "childhood": 8714,
      "static": 8715,
      "believes": 8716,
      "1934": 8717,
      "territorial": 8718,
      "returning": 8719,
      "conceptual": 8720,
      "composers": 8721,
      "rupted": 8722,
      "zero": 8723,
      "1876": 8724,
      "chemistry": 8725,
      "implementation": 8726,
      "consumers": 8727,
      "Karl": 8728,
      "recovered": 8729,
      "depicted": 8730,
      "dissolved": 8731,
      "Current": 8732,
      "Baby": 8733,
      "Pictures": 8734,
      "ricane": 8735,
      "coronation": 8736,
      "Indonesia": 8737,
      "criteria": 8738,
      "vulner": 8739,
      "Buckingham": 8740,
      "89": 8741,
      "Es": 8742,
      "Five": 8743,
      "Kings": 8744,
      "Lie": 8745,
      "Rico": 8746,
      "Scient": 8747,
      "bai": 8748,
      "gang": 8749,
      "nings": 8750,
      "ths": 8751,
      "institute": 8752,
      "isations": 8753,
      "icop": 8754,
      "irts": 8755,
      "lah": 8756,
      "Independent": 8757,
      "exports": 8758,
      "este": 8759,
      "estate": 8760,
      "clan": 8761,
      "umed": 8762,
      "umber": 8763,
      "agh": 8764,
      "worms": 8765,
      "phard": 8766,
      "anger": 8767,
      "rence": 8768,
      "server": 8769,
      "Alban": 8770,
      "provisions": 8771,
      "ailand": 8772,
      "Begin": 8773,
      "generations": 8774,
      "standardized": 8775,
      "Madrid": 8776,
      "fighters": 8777,
      "freed": 8778,
      "laboratory": 8779,
      "Nigerian": 8780,
      "cluding": 8781,
      "Cretace": 8782,
      "lux": 8783,
      "hypothesis": 8784,
      "XXIII": 8785,
      "delayed": 8786,
      "dispute": 8787,
      "Machine": 8788,
      "simultaneously": 8789,
      "transistor": 8790,
      "Cretaceous": 8791,
      "Cer": 8792,
      "LD": 8793,
      "Liter": 8794,
      "Set": 8795,
      "aided": 8796,
      "cav": 8797,
      "fu": 8798,
      "hired": 8799,
      "ih": 8800,
      "liv": 8801,
      "sap": 8802,
      "zones": 8803,
      "esh": 8804,
      "roof": 8805,
      "chance": 8806,
      "sures": 8807,
      "Chair": 8808,
      "endor": 8809,
      "stron": 8810,
      "compact": 8811,
      "angered": 8812,
      "preserv": 8813,
      "cancer": 8814,
      "Thailand": 8815,
      "End": 8816,
      "ologically": 8817,
      "median": 8818,
      "supplied": 8819,
      "See": 8820,
      "governmental": 8821,
      "patient": 8822,
      "facing": 8823,
      "occasions": 8824,
      "biograph": 8825,
      "associations": 8826,
      "regardless": 8827,
      "accounted": 8828,
      "communicate": 8829,
      "1909": 8830,
      "manufacture": 8831,
      "regulated": 8832,
      "closest": 8833,
      "PCB": 8834,
      "infected": 8835,
      "hotel": 8836,
      "sensitive": 8837,
      "conquer": 8838,
      "anthropologists": 8839,
      "kien": 8840,
      "nominated": 8841,
      "TCM": 8842,
      "wildlife": 8843,
      "municipalities": 8844,
      "algorithm": 8845,
      "Umayyad": 8846,
      "removal": 8847,
      "remote": 8848,
      "86": 8849,
      "Azer": 8850,
      "EE": 8851,
      "Lim": 8852,
      "Wild": 8853,
      "duration": 8854,
      "las": 8855,
      "othe": 8856,
      "rush": 8857,
      "infer": 8858,
      "revol": 8859,
      "itable": 8860,
      "itative": 8861,
      "sect": 8862,
      "forth": 8863,
      "reserved": 8864,
      "manifest": 8865,
      "avia": 8866,
      "clude": 8867,
      "aga": 8868,
      "monopol": 8869,
      "intervention": 8870,
      "Anatol": 8871,
      "underlying": 8872,
      "ceram": 8873,
      "apping": 8874,
      "venture": 8875,
      "citing": 8876,
      "patri": 8877,
      "evening": 8878,
      "federation": 8879,
      "definitions": 8880,
      "advances": 8881,
      "ethn": 8882,
      "Max": 8883,
      "piracy": 8884,
      "check": 8885,
      "Termin": 8886,
      "comprise": 8887,
      "observation": 8888,
      "Cambridge": 8889,
      "theorem": 8890,
      "hysical": 8891,
      "shifted": 8892,
      "challenged": 8893,
      "bachev": 8894,
      "Locke": 8895,
      "Gorbachev": 8896,
      "Leader": 8897,
      "diox": 8898,
      "concerts": 8899,
      "declaration": 8900,
      "desktop": 8901,
      "Abu": 8902,
      "Agre": 8903,
      "Cost": 8904,
      "Dub": 8905,
      "Eu": 8906,
      "Eli": 8907,
      "Gaul": 8908,
      "Hon": 8909,
      "ID": 8910,
      "Lew": 8911,
      "Pom": 8912,
      "fict": 8913,
      "tum": 8914,
      "vation": 8915,
      "witness": 8916,
      "inser": 8917,
      "instein": 8918,
      "enance": 8919,
      "rotor": 8920,
      "leys": 8921,
      "charts": 8922,
      "oped": 8923,
      "petition": 8924,
      "prose": 8925,
      "etes": 8926,
      "1913": 8927,
      "clam": 8928,
      "enders": 8929,
      "preserve": 8930,
      "boost": 8931,
      "aked": 8932,
      "consent": 8933,
      "underground": 8934,
      "osevel": 8935,
      "parad": 8936,
      "inson": 8937,
      "nationalism": 8938,
      "requiring": 8939,
      "grammar": 8940,
      "missing": 8941,
      "banking": 8942,
      "download": 8943,
      "Century": 8944,
      "latest": 8945,
      "defines": 8946,
      "Adam": 8947,
      "Roosevel": 8948,
      "bandwidth": 8949,
      "Sym": 8950,
      "promoting": 8951,
      "Web": 8952,
      "Galile": 8953,
      "participants": 8954,
      "fraction": 8955,
      "CAA": 8956,
      "Malays": 8957,
      "comprises": 8958,
      "satellites": 8959,
      "gallery": 8960,
      "danger": 8961,
      "autonomous": 8962,
      "solely": 8963,
      "Mississ": 8964,
      "Dalai": 8965,
      "prayer": 8966,
      "portrayed": 8967,
      "Journal": 8968,
      "Meanwhile": 8969,
      "Atticus": 8970,
      "Services": 8971,
      "Examples": 8972,
      "AM": 8973,
      "Bang": 8974,
      "Base": 8975,
      "Jur": 8976,
      "MTV": 8977,
      "Now": 8978,
      "Pas": 8979,
      "TF": 8980,
      "Vice": 8981,
      "gay": 8982,
      "iaries": 8983,
      "rus": 8984,
      "tension": 8985,
      "vib": 8986,
      "ativity": 8987,
      "alumin": 8988,
      "stom": 8989,
      "esis": 8990,
      "asy": 8991,
      "ila": 8992,
      "ulating": 8993,
      "petro": 8994,
      "raising": 8995,
      "manage": 8996,
      "ocene": 8997,
      "ods": 8998,
      "prize": 8999,
      "plot": 9000,
      "plural": 9001,
      "ideals": 9002,
      "eleven": 9003,
      "finish": 9004,
      "finals": 9005,
      "Environment": 9006,
      "heresy": 9007,
      "ails": 9008,
      "charity": 9009,
      "completion": 9010,
      "biology": 9011,
      "volunte": 9012,
      "Trip": 9013,
      "closing": 9014,
      "circuits": 9015,
      "translations": 9016,
      "bulk": 9017,
      "bulbs": 9018,
      "transported": 9019,
      "qualified": 9020,
      "Finan": 9021,
      "wrestlers": 9022,
      "idealism": 9023,
      "absorb": 9024,
      "decorated": 9025,
      "Denver": 9026,
      "Eritrean": 9027,
      "Forest": 9028,
      "Children": 9029,
      "attraction": 9030,
      "Sahara": 9031,
      "conclusion": 9032,
      "Territory": 9033,
      "altitude": 9034,
      "atmospheric": 9035,
      "Azerbai": 9036,
      "Aene": 9037,
      "Apost": 9038,
      "Gray": 9039,
      "Hard": 9040,
      "Kent": 9041,
      "Kir": 9042,
      "Sound": 9043,
      "cill": 9044,
      "coff": 9045,
      "fighter": 9046,
      "hang": 9047,
      "mine": 9048,
      "nis": 9049,
      "tends": 9050,
      "ua": 9051,
      "eds": 9052,
      "icate": 9053,
      "iler": 9054,
      "admitted": 9055,
      "amph": 9056,
      "deck": 9057,
      "withdrew": 9058,
      "abroad": 9059,
      "excluded": 9060,
      "agar": 9061,
      "outcome": 9062,
      "ateral": 9063,
      "coach": 9064,
      "cruc": 9065,
      "Isa": 9066,
      "Represent": 9067,
      "warri": 9068,
      "Commer": 9069,
      "tract": 9070,
      "ailed": 9071,
      "Marine": 9072,
      "Johann": 9073,
      "acteria": 9074,
      "tested": 9075,
      "Shan": 9076,
      "talk": 9077,
      "readers": 9078,
      "missionaries": 9079,
      "everyday": 9080,
      "Madison": 9081,
      "Brother": 9082,
      "speeds": 9083,
      "transmitters": 9084,
      "sacr": 9085,
      "Somalis": 9086,
      "Galician": 9087,
      "Saxony": 9088,
      "gathering": 9089,
      "diagn": 9090,
      "immunity": 9091,
      "militia": 9092,
      "dimensions": 9093,
      "procedures": 9094,
      "predator": 9095,
      "Serbian": 9096,
      "Athens": 9097,
      "Hokkien": 9098,
      "Ax": 9099,
      "Gam": 9100,
      "Gir": 9101,
      "HIV": 9102,
      "Lam": 9103,
      "hin": 9104,
      "kg": 9105,
      "rally": 9106,
      "sa": 9107,
      "ving": 9108,
      "theat": 9109,
      "remark": 9110,
      "alk": 9111,
      "itime": 9112,
      "ander": 9113,
      "ilica": 9114,
      "unification": 9115,
      "vern": 9116,
      "persecution": 9117,
      "neocl": 9118,
      "uprising": 9119,
      "Chan": 9120,
      "plastic": 9121,
      "meter": 9122,
      "canal": 9123,
      "crude": 9124,
      "spar": 9125,
      "productions": 9126,
      "ugs": 9127,
      "loqu": 9128,
      "transform": 9129,
      "trace": 9130,
      "organisation": 9131,
      "Forbes": 9132,
      "driving": 9133,
      "drink": 9134,
      "Colleg": 9135,
      "refere": 9136,
      "Phill": 9137,
      "declining": 9138,
      "cope": 9139,
      "equality": 9140,
      "migrated": 9141,
      "everything": 9142,
      "Baroque": 9143,
      "Appal": 9144,
      "engineer": 9145,
      "1907": 9146,
      "visiting": 9147,
      "requirement": 9148,
      "familiar": 9149,
      "demographic": 9150,
      "Cypriot": 9151,
      "demands": 9152,
      "demol": 9153,
      "schedule": 9154,
      "fairly": 9155,
      "crucial": 9156,
      "granting": 9157,
      "fossils": 9158,
      "Officer": 9159,
      "Julian": 9160,
      "Communications": 9161,
      "Beginning": 9162,
      "Roosevelt": 9163,
      "Bat": 9164,
      "FCC": 9165,
      "Por": 9166,
      "RC": 9167,
      "Si": 9168,
      "Tre": 9169,
      "drought": 9170,
      "gor": 9171,
      "gau": 9172,
      "gardens": 9173,
      "len": 9174,
      "sop": 9175,
      "tone": 9176,
      "tended": 9177,
      "reactions": 9178,
      "republican": 9179,
      "orthodox": 9180,
      "constitute": 9181,
      "confront": 9182,
      "sud": 9183,
      "exile": 9184,
      "appre": 9185,
      "ocy": 9186,
      "1925": 9187,
      "tram": 9188,
      "actively": 9189,
      "evalu": 9190,
      "outs": 9191,
      "answer": 9192,
      "landmark": 9193,
      "genres": 9194,
      "interven": 9195,
      "desired": 9196,
      "Anth": 9197,
      "Andre": 9198,
      "erald": 9199,
      "subcontinent": 9200,
      "helicop": 9201,
      "variable": 9202,
      "deliber": 9203,
      "tallest": 9204,
      "Policy": 9205,
      "falling": 9206,
      "everyone": 9207,
      "Egyptians": 9208,
      "Arabia": 9209,
      "ographic": 9210,
      "Schools": 9211,
      "helping": 9212,
      "accessible": 9213,
      "1871": 9214,
      "circadian": 9215,
      "storms": 9216,
      "exceptions": 9217,
      "Week": 9218,
      "difficulties": 9219,
      "CDs": 9220,
      "Davis": 9221,
      "comprising": 9222,
      "glacial": 9223,
      "Morris": 9224,
      "progressive": 9225,
      "equipped": 9226,
      "Moreover": 9227,
      "snowfall": 9228,
      "Review": 9229,
      "requested": 9230,
      "eliminate": 9231,
      "glacier": 9232,
      "briefly": 9233,
      "Silver": 9234,
      "adequate": 9235,
      "nutrients": 9236,
      "Aqu": 9237,
      "Brun": 9238,
      "Fuj": 9239,
      "PL": 9240,
      "Scand": 9241,
      "Saudi": 9242,
      "Suez": 9243,
      "bath": 9244,
      "cad": 9245,
      "euro": 9246,
      "noun": 9247,
      "tz": 9248,
      "vital": 9249,
      "reci": 9250,
      "replacing": 9251,
      "enz": 9252,
      "alism": 9253,
      "stops": 9254,
      "aran": 9255,
      "iders": 9256,
      "illy": 9257,
      "heim": 9258,
      "uras": 9259,
      "emperors": 9260,
      "resort": 9261,
      "supre": 9262,
[...]
