{
  "version": "1.0",
  "truncation": null,
  "padding": null,
  "added_tokens": [
    {
      "id": 0,
      "content": "[UNK]",
      "single_word": false,
      "lstrip": false,
      "rstrip": false,
      "normalized": false,
      "special": true
    },
    {
      "id": 1,
      "content": "[CLS]",
      "single_word": false,
      "lstrip": false,
      "rstrip": false,
      "normalized": false,
      "special": true
    },
    {
      "id": 2,
      "content": "[SEP]",
      "single_word": false,
      "lstrip": false,
      "rstrip": false,
      "normalized": false,
      "special": true
    },
    {
      "id": 3,
      "content": "[PAD]",
      "single_word": false,
      "lstrip": false,
      "rstrip": false,
      "normalized": false,
      "special": true
    },
    {
      "id": 4,
      "content": "[MASK]",
      "single_word": false,
      "lstrip": false,
      "rstrip": false,
      "normalized": false,
      "special": true
    }
  ],
  "normalizer": null,
  "pre_tokenizer": {
    "type": "Whitespace"
  },
  "post_processor": {
    "type": "TemplateProcessing",
    "single": [
      {
        "SpecialToken": {
          "id": "[CLS]",
          "type_id": 0
        }
      },
      {
        "Sequence": {
          "id": "A",
          "type_id": 0
        }
      },
      {
        "SpecialToken": {
          "id": "[SEP]",
          "type_id": 0
        }
      }
    ],
    "pair": [
      {
        "SpecialToken": {
          "id": "[CLS]",
          "type_id": 0
        }
      },
      {
        "Sequence": {
          "id": "A",
          "type_id": 0
        }
      },
      {
        "SpecialToken": {
          "id": "[SEP]",
          "type_id": 0
        }
      },
      {
        "Sequence": {
          "id": "B",
          "type_id": 1
        }
      },
      {
        "SpecialToken": {
          "id": "[SEP]",
          "type_id": 1
        }
      }
    ],
    "special_tokens": {
      "[CLS]": {
        "id": "[CLS]",
        "ids": [
          1
        ],
        "tokens": [
          "[CLS]"
        ]
      },
      "[SEP]": {
        "id": "[SEP]",
        "ids": [
          2
        ],
        "tokens": [
          "[SEP]"
        ]
      }
    }
  },
  "decoder": null,
  "model": {
    "type": "BPE",
    "dropout": null,
    "unk_token": "[UNK]",
    "continuing_subword_prefix": null,
    "end_of_word_suffix": null,
    "fuse_unk": false,
    "byte_fallback": false,
    "ignore_merges": false,
    "vocab": {
      "[UNK]": 0,
      "[CLS]": 1,
      "[SEP]": 2,
      "[PAD]": 3,
      "[MASK]": 4,
      "!": 5,
      "(": 6,
      ")": 7,
      ",": 8,
      "-": 9,
      ".": 10,
      "0": 11,
      "1": 12,
      "2": 13,
      "3": 14,
      "4": 15,
      "5": 16,
      "6": 17,
      "7": 18,
      "8": 19,
      "9": 20,
      "A": 21,
      "B": 22,
      "C": 23,
      "D": 24,
      "E": 25,
      "F": 26,
      "G": 27,
      "H": 28,
      "I": 29,
      "J": 30,
      "K": 31,
      "L": 32,
      "M": 33,
      "N": 34,
      "O": 35,
      "P": 36,
      "Q": 37,
      "R": 38,
      "S": 39,
      "T": 40,
      "U": 41,
      "V": 42,
      "W": 43,
      "X": 44,
      "Y": 45,
      "Z": 46,
      "_": 47,
      "a": 48,
      "b": 49,
      "c": 50,
      "d": 51,
      "e": 52,
      "f": 53,
      "g": 54,
      "h": 55,
      "i": 56,
      "j": 57,
      "k": 58,
      "l": 59,
      "m": 60,
      "n": 61,
      "o": 62,
      "p": 63,
      "q": 64,
      "r": 65,
      "s": 66,
      "t": 67,
      "u": 68,
      "v": 69,
      "w": 70,
      "x": 71,
      "y": 72,
      "z": 73,
      "th": 74,
      "in": 75,
      "an": 76,
      "the": 77,
      "er": 78,
      "on": 79,
      "re": 80,
      "at": 81,
      "en": 82,
      "ed": 83,
      "al": 84,
      "or": 85,
      "st": 86,
      "of": 87,
      "ar": 88,
      "and": 89,
      "es": 90,
      "as": 91,
      "it": 92,
      "ic": 93,
      "is": 94,
      "ion": 95,
      "ing": 96,
      "to": 97,
      "ro": 98,
      "ou": 99,
      "le": 100,
      "ent": 101,
      "ch": 102,
      "om": 103,
      "he": 104,
      "il": 105,
      "se": 106,
      "de": 107,
      "ct": 108,
      "ly": 109,
      "ol": 110,
      "be": 111,
      "am": 112,
      "ce": 113,
      "ation": 114,
      "ve": 115,
      "for": 116,
      "ur": 117,
      "ad": 118,
      "im": 119,
      "ver": 120,
      "wh": 121,
      "ig": 122,
      "ow": 123,
      "con": 124,
      "un": 125,
      "The": 126,
      "id": 127,
      "ir": 128,
      "was": 129,
      "us": 130,
      "ul": 131,
      "ter": 132,
      "op": 133,
      "la": 134,
      "wi": 135,
      "ra": 136,
      "ge": 137,
      "are": 138,
      "by": 139,
      "ist": 140,
      "mo": 141,
      "with": 142,
      "pe": 143,
      "te": 144,
      "res": 145,
      "that": 146,
      "pro": 147,
      "com": 148,
      "su": 149,
      "ut": 150,
      "ity": 151,
      "ate": 152,
      "ere": 153,
      "ma": 154,
      "ri": 155,
      "Wh": 156,
      "ers": 157,
      "ot": 158,
      "ab": 159,
      "ne": 160,
      "ment": 161,
      "In": 162,
      "ci": 163,
      "ther": 164,
      "all": 165,
      "00": 166,
      "ex": 167,
      "oun": 168,
      "di": 169,
      "rom": 170,
      "ac": 171,
      "19": 172,
      "per": 173,
      "man": 174,
      "el": 175,
      "et": 176,
      "from": 177,
      "ap": 178,
      "ich": 179,
      "em": 180,
      "li": 181,
      "ant": 182,
      "cl": 183,
      "so": 184,
      "art": 185,
      "ies": 186,
      "est": 187,
      "um": 188,
      "os": 189,
      "qu": 190,
      "igh": 191,
      "od": 192,
      "ag": 193,
      "ay": 194,
      "ian": 195,
      "ive": 196,
      "ated": 197,
      "ish": 198,
      "ld": 199,
      "were": 200,
      "ical": 201,
      "ess": 202,
      "ha": 203,
      "which": 204,
      "ort": 205,
      "his": 206,
      "ain": 207,
      "over": 208,
      "ear": 209,
      "ia": 210,
      "der": 211,
      "lo": 212,
      "ill": 213,
      "du": 214,
      "gh": 215,
      "ud": 216,
      "sh": 217,
      "ast": 218,
      "ran": 219,
      "Ch": 220,
      "end": 221,
      "What": 222,
      "act": 223,
      "ber": 224,
      "up": 225,
      "tw": 226,
      "ary": 227,
      "ong": 228,
      "ard": 229,
      "cent": 230,
      "ally": 231,
      "fe": 232,
      "ph": 233,
      "ous": 234,
      "our": 235,
      "ame": 236,
      "not": 237,
      "one": 238,
      "its": 239,
      "form": 240,
      "out": 241,
      "ions": 242,
      "ure": 243,
      "ass": 244,
      "ine": 245,
      "ke": 246,
      "wor": 247,
      "fic": 248,
      "iv": 249,
      "port": 250,
      "comp": 251,
      "rit": 252,
      "other": 253,
      "ult": 254,
      "og": 255,
      "str": 256,
      "cont": 257,
      "part": 258,
      "20": 259,
      "have": 260,
      "age": 261,
      "ub": 262,
      "ev": 263,
      "ome": 264,
      "St": 265,
      "has": 266,
      "own": 267,
      "ence": 268,
      "ight": 269,
      "red": 270,
      "pt": 271,
      "iz": 272,
      "but": 273,
      "Un": 274,
      "pl": 275,
      "their": 276,
      "ations": 277,
      "also": 278,
      "vi": 279,
      "land": 280,
      "af": 281,
      "ree": 282,
      "pr": 283,
      "had": 284,
      "ign": 285,
      "ew": 286,
      "ates": 287,
      "pla": 288,
      "ial": 289,
      "),": 290,
      "au": 291,
      "fer": 292,
      "ount": 293,
      "fir": 294,
      "ach": 295,
      "ck": 296,
      "200": 297,
      "cor": 298,
      "18": 299,
      "ip": 300,
      "mer": 301,
      "ition": 302,
      "av": 303,
      "ore": 304,
      "ction": 305,
      "ound": 306,
      "me": 307,
      "ren": 308,
      "vel": 309,
      "cre": 310,
      "int": 311,
      "most": 312,
      "dis": 313,
      "mon": 314,
      "ced": 315,
      "gu": 316,
      "pres": 317,
      "po": 318,
      "ry": 319,
      "pre": 320,
      "bo": 321,
      "year": 322,
      "ater": 323,
      "incl": 324,
      "first": 325,
      "ould": 326,
      "ime": 327,
      "gen": 328,
      "low": 329,
      "many": 330,
      "did": 331,
      "do": 332,
      "uring": 333,
      "vers": 334,
      "ces": 335,
      "ll": 336,
      "ser": 337,
      "gro": 338,
      "Th": 339,
      "used": 340,
      "ak": 341,
      "who": 342,
      "such": 343,
      "sy": 344,
      "co": 345,
      "this": 346,
      "able": 347,
      "can": 348,
      "ue": 349,
      "lar": 350,
      "ens": 351,
      "spe": 352,
      "ib": 353,
      "att": 354,
      "201": 355,
      "ited": 356,
      "ict": 357,
      "ational": 358,
      "been": 359,
      "ite": 360,
      "pol": 361,
      "min": 362,
      "ele": 363,
      "ding": 364,
      ").": 365,
      "reg": 366,
      "ory": 367,
      "more": 368,
      "if": 369,
      "ance": 370,
      "inter": 371,
      "col": 372,
      "pos": 373,
      "ef": 374,
      "ough": 375,
      "ile": 376,
      "ican": 377,
      "cess": 378,
      "It": 379,
      "into": 380,
      "rou": 381,
      "what": 382,
      "ks": 383,
      "lish": 384,
      "ice": 385,
      "rel": 386,
      "any": 387,
      "than": 388,
      "ever": 389,
      "ell": 390,
      "pop": 391,
      "ors": 392,
      "pub": 393,
      "ism": 394,
      "new": 395,
      "oc": 396,
      "rad": 397,
      "des": 398,
      "count": 399,
      "ire": 400,
      "kn": 401,
      "city": 402,
      "rough": 403,
      "ide": 404,
      "gan": 405,
      "use": 406,
      "they": 407,
      "includ": 408,
      "cial": 409,
      "ese": 410,
      "popul": 411,
      "fin": 412,
      "large": 413,
      "An": 414,
      "two": 415,
      "ury": 416,
      "ities": 417,
      "ern": 418,
      "overn": 419,
      "ust": 420,
      "ual": 421,
      "arch": 422,
      "bec": 423,
      "no": 424,
      "time": 425,
      "some": 426,
      "een": 427,
      "ds": 428,
      "ved": 429,
      "fl": 430,
      "tra": 431,
      "amp": 432,
      "Ar": 433,
      "ty": 434,
      "ents": 435,
      "under": 436,
      "ased": 437,
      "Amer": 438,
      "king": 439,
      "How": 440,
      "after": 441,
      "cons": 442,
      "Al": 443,
      "ten": 444,
      "lic": 445,
      "ans": 446,
      "mar": 447,
      "ase": 448,
      "sp": 449,
      "cho": 450,
      "ts": 451,
      "stem": 452,
      "les": 453,
      "her": 454,
      "reat": 455,
      "tween": 456,
      "between": 457,
      "produ": 458,
      "ments": 459,
      "ative": 460,
      "New": 461,
      "uro": 462,
      "As": 463,
      "ru": 464,
      "vis": 465,
      "we": 466,
      "comm": 467,
      "ose": 468,
      "cur": 469,
      "led": 470,
      "tem": 471,
      "state": 472,
      "ath": 473,
      "sub": 474,
      "velop": 475,
      "med": 476,
      "ob": 477,
      "cted": 478,
      "during": 479,
      "num": 480,
      "ics": 481,
      "bu": 482,
      "eral": 483,
      "century": 484,
      "ivers": 485,
      "En": 486,
      "govern": 487,
      "day": 488,
      "main": 489,
      "ood": 490,
      "ident": 491,
      "olog": 492,
      "ang": 493,
      "stru": 494,
      "Re": 495,
      "ons": 496,
      "gr": 497,
      "air": 498,
      "high": 499,
      "only": 500,
      "way": 501,
      "Euro": 502,
      "ep": 503,
      "would": 504,
      "develop": 505,
      "ince": 506,
      "though": 507,
      "system": 508,
      "United": 509,
      "000": 510,
      "rans": 511,
      "Af": 512,
      "ople": 513,
      "call": 514,
      "ack": 515,
      "outh": 516,
      "ail": 517,
      "ower": 518,
      "Com": 519,
      "when": 520,
      "ating": 521,
      "Europe": 522,
      "This": 523,
      "through": 524,
      "peri": 525,
      "them": 526,
      "ution": 527,
      "known": 528,
      "dif": 529,
      "Brit": 530,
      "fore": 531,
      "ted": 532,
      "play": 533,
      "ann": 534,
      "loc": 535,
      "ari": 536,
      "iss": 537,
      "there": 538,
      "ists": 539,
      "chool": 540,
      "ace": 541,
      "ok": 542,
      "orth": 543,
      "ins": 544,
      "cap": 545,
      "cy": 546,
      "je": 547,
      "par": 548,
      "trans": 549,
      "ale": 550,
      "bor": 551,
      "ind": 552,
      "public": 553,
      "old": 554,
      "may": 555,
      "national": 556,
      "jor": 557,
      "cond": 558,
      "ric": 559,
      "als": 560,
      "illion": 561,
      "war": 562,
      "cts": 563,
      "sup": 564,
      "found": 565,
      "sa": 566,
      "Con": 567,
      "He": 568,
      "world": 569,
      "ular": 570,
      "serv": 571,
      "17": 572,
      "und": 573,
      "Ger": 574,
      "years": 575,
      "American": 576,
      "buil": 577,
      "lan": 578,
      "De": 579,
      "people": 580,
      "leg": 581,
      "cept": 582,
      "group": 583,
      "vid": 584,
      "where": 585,
      "Chin": 586,
      "sel": 587,
      "about": 588,
      "ied": 589,
      "including": 590,
      "ron": 591,
      "Is": 592,
      "ful": 593,
      "urch": 594,
      "set": 595,
      "urn": 596,
      "well": 597,
      "major": 598,
      "stit": 599,
      "mem": 600,
      "ific": 601,
      "dep": 602,
      "ost": 603,
      "gy": 604,
      "dom": 605,
      "called": 606,
      "ural": 607,
      "work": 608,
      "ually": 609,
      "eng": 610,
      "ward": 611,
      "ered": 612,
      "offic": 613,
      "ants": 614,
      "10": 615,
      "199": 616,
      "15": 617,
      "ca": 618,
      "ms": 619,
      "ys": 620,
      "government": 621,
      "law": 622,
      "while": 623,
      "War": 624,
      "hist": 625,
      "my": 626,
      "add": 627,
      "car": 628,
      "Eng": 629,
      "became": 630,
      "these": 631,
      "uch": 632,
      "ized": 633,
      "On": 634,
      "contin": 635,
      "number": 636,
      "States": 637,
      "hu": 638,
      "uss": 639,
      "ures": 640,
      "West": 641,
      "ta": 642,
      "ship": 643,
      "made": 644,
      "ollow": 645,
      "ton": 646,
      "inv": 647,
      "Le": 648,
      "power": 649,
      "br": 650,
      "ically": 651,
      "ven": 652,
      "ause": 653,
      "again": 654,
      "ily": 655,
      "mus": 656,
      "dist": 657,
      "ings": 658,
      "Who": 659,
      "ond": 660,
      "Par": 661,
      "ret": 662,
      "char": 663,
      "polit": 664,
      "uc": 665,
      "sign": 666,
      "0s": 667,
      "unt": 668,
      "ature": 669,
      "ress": 670,
      "requ": 671,
      "ie": 672,
      "early": 673,
      "ft": 674,
      "ix": 675,
      "both": 676,
      "ple": 677,
      "ise": 678,
      "wn": 679,
      "langu": 680,
      "differ": 681,
      "population": 682,
      "school": 683,
      "sc": 684,
      "Se": 685,
      "ians": 686,
      "oh": 687,
      "imes": 688,
      "organ": 689,
      "16": 690,
      "For": 691,
      "iversity": 692,
      "mil": 693,
      "II": 694,
      "Fran": 695,
      "ason": 696,
      "long": 697,
      "vari": 698,
      "Be": 699,
      "soci": 700,
      "come": 701,
      "present": 702,
      "speci": 703,
      "sur": 704,
      "cult": 705,
      "lead": 706,
      "ude": 707,
      "fil": 708,
      "val": 709,
      "When": 710,
      "BC": 711,
      "later": 712,
      "million": 713,
      "pri": 714,
      "being": 715,
      "elect": 716,
      "three": 717,
      "test": 718,
      "ters": 719,
      "like": 720,
      "stud": 721,
      "lished": 722,
      "ving": 723,
      "go": 724,
      "then": 725,
      "incre": 726,
      "stand": 727,
      "British": 728,
      "bers": 729,
      "period": 730,
      "ork": 731,
      "ctive": 732,
      "Em": 733,
      "contro": 734,
      "12": 735,
      "ible": 736,
      "igin": 737,
      "oper": 738,
      "often": 739,
      "ves": 740,
      "Gree": 741,
      "estab": 742,
      "follow": 743,
      "por": 744,
      "class": 745,
      "Au": 746,
      "lin": 747,
      "less": 748,
      "west": 749,
      "iel": 750,
      "ital": 751,
      "result": 752,
      "cover": 753,
      "area": 754,
      "flu": 755,
      "how": 756,
      "ext": 757,
      "light": 758,
      "name": 759,
      "ral": 760,
      "rench": 761,
      "recor": 762,
      "fam": 763,
      "met": 764,
      "lim": 765,
      "198": 766,
      "chan": 767,
      "US": 768,
      "sever": 769,
      "hy": 770,
      "ith": 771,
      "ning": 772,
      "dec": 773,
      "ious": 774,
      "ros": 775,
      "ble": 776,
      "conom": 777,
      "trad": 778,
      "partic": 779,
      "French": 780,
      "ility": 781,
      "Indi": 782,
      "depend": 783,
      "consid": 784,
      "thern": 785,
      "pers": 786,
      "197": 787,
      "second": 788,
      "exp": 789,
      "fact": 790,
      "ages": 791,
      "ild": 792,
      "Mar": 793,
      "dire": 794,
      "sim": 795,
      "origin": 796,
      "ouse": 797,
      "cr": 798,
      "ert": 799,
      "Joh": 800,
      "sol": 801,
      "mark": 802,
      "rist": 803,
      "bro": 804,
      "Rom": 805,
      "men": 806,
      "does": 807,
      "writ": 808,
      "Ro": 809,
      "against": 810,
      "largest": 811,
      "Sp": 812,
      "suc": 813,
      "sm": 814,
      "common": 815,
      "ries": 816,
      "music": 817,
      "German": 818,
      "Pr": 819,
      "will": 820,
      "since": 821,
      "comple": 822,
      "self": 823,
      "point": 824,
      "North": 825,
      "io": 826,
      "him": 827,
      "gre": 828,
      "John": 829,
      "country": 830,
      "cri": 831,
      "sing": 832,
      "ium": 833,
      "ract": 834,
      "based": 835,
      "now": 836,
      "Wor": 837,
      "last": 838,
      "econom": 839,
      "acter": 840,
      "could": 841,
      "At": 842,
      "import": 843,
      "pire": 844,
      "four": 845,
      "commun": 846,
      "rest": 847,
      "So": 848,
      "head": 849,
      "human": 850,
      "remain": 851,
      "East": 852,
      "back": 853,
      "Christ": 854,
      "resp": 855,
      "ames": 856,
      "European": 857,
      "much": 858,
      "14": 859,
      "moder": 860,
      "ices": 861,
      "mot": 862,
      "allow": 863,
      "ended": 864,
      "196": 865,
      "gener": 866,
      "ional": 867,
      "several": 868,
      "Pro": 869,
      "each": 870,
      "mat": 871,
      "include": 872,
      "South": 873,
      "support": 874,
      "13": 875,
      "chn": 876,
      "lack": 877,
      "pass": 878,
      "influ": 879,
      "design": 880,
      "ology": 881,
      "lit": 882,
      "ica": 883,
      "relig": 884,
      "vent": 885,
      "ban": 886,
      "enn": 887,
      "ired": 888,
      "right": 889,
      "until": 890,
      "ick": 891,
      "miss": 892,
      "gin": 893,
      "Col": 894,
      "different": 895,
      "Car": 896,
      "success": 897,
      "same": 898,
      "itary": 899,
      "small": 900,
      "began": 901,
      "However": 902,
      "son": 903,
      "gram": 904,
      "view": 905,
      "World": 906,
      "non": 907,
      "vil": 908,
      "line": 909,
      "50": 910,
      "une": 911,
      "ove": 912,
      "place": 913,
      "modern": 914,
      "indu": 915,
      "appro": 916,
      "rele": 917,
      "hel": 918,
      "language": 919,
      "cording": 920,
      "continu": 921,
      "side": 922,
      "off": 923,
      "political": 924,
      "down": 925,
      "cient": 926,
      "ash": 927,
      "around": 928,
      "need": 929,
      "ah": 930,
      "tal": 931,
      "show": 932,
      "appe": 933,
      "even": 934,
      "ety": 935,
      "yn": 936,
      "ste": 937,
      "term": 938,
      "within": 939,
      "because": 940,
      "app": 941,
      "vide": 942,
      "ox": 943,
      "before": 944,
      "those": 945,
      "ga": 946,
      "ref": 947,
      "194": 948,
      "imate": 949,
      "ample": 950,
      "Ph": 951,
      "cast": 952,
      "among": 953,
      "liam": 954,
      "mber": 955,
      "City": 956,
      "Roman": 957,
      "bre": 958,
      "very": 959,
      "ball": 960,
      "King": 961,
      "cour": 962,
      "lands": 963,
      "tri": 964,
      "University": 965,
      "ject": 966,
      "divid": 967,
      "effe": 968,
      "ived": 969,
      "cla": 970,
      "By": 971,
      "ctor": 972,
      "building": 973,
      "Cent": 974,
      "pat": 975,
      "There": 976,
      "ined": 977,
      "minist": 978,
      "olution": 979,
      "press": 980,
      "ger": 981,
      "raph": 982,
      "near": 983,
      "water": 984,
      "alth": 985,
      "Chinese": 986,
      "ade": 987,
      "example": 988,
      "team": 989,
      "states": 990,
      "ged": 991,
      "English": 992,
      "season": 993,
      "ised": 994,
      "vision": 995,
      "ting": 996,
      "techn": 997,
      "start": 998,
      "Or": 999,
      "late": 1000,
      "nor": 1001,
      "ization": 1002,
      "ars": 1003,
      "military": 1004,
      "mand": 1005,
      "ross": 1006,
      "formed": 1007,
      "curren": 1008,
      "run": 1009,
      "ord": 1010,
      "cit": 1011,
      "wide": 1012,
      "open": 1013,
      "itions": 1014,
      "ences": 1015,
      "rece": 1016,
      "she": 1017,
      "using": 1018,
      "ague": 1019,
      "ird": 1020,
      "along": 1021,
      "process": 1022,
      "ped": 1023,
      "move": 1024,
      "ives": 1025,
      "tradition": 1026,
      "Li": 1027,
      "ris": 1028,
      "apan": 1029,
      "established": 1030,
      "xt": 1031,
      "grow": 1032,
      "life": 1033,
      "ls": 1034,
      "Japan": 1035,
      "ained": 1036,
      "person": 1037,
      "home": 1038,
      "After": 1039,
      "important": 1040,
      "countries": 1041,
      "order": 1042,
      "child": 1043,
      "Russ": 1044,
      "ases": 1045,
      "poss": 1046,
      "ality": 1047,
      "members": 1048,
      "Bo": 1049,
      "30": 1050,
      "beli": 1051,
      "ges": 1052,
      "particular": 1053,
      "ially": 1054,
      "ribut": 1055,
      "lear": 1056,
      "cut": 1057,
      "development": 1058,
      "areas": 1059,
      "Empire": 1060,
      "level": 1061,
      "mit": 1062,
      "program": 1063,
      "Can": 1064,
      "tic": 1065,
      "thor": 1066,
      "still": 1067,
      "colle": 1068,
      "tro": 1069,
      "Inter": 1070,
      "fun": 1071,
      "Greek": 1072,
      "Pres": 1073,
      "ared": 1074,
      "ston": 1075,
      "ier": 1076,
      "China": 1077,
      "refer": 1078,
      "rain": 1079,
      "lay": 1080,
      "France": 1081,
      "ories": 1082,
      "fa": 1083,
      "popular": 1084,
      "held": 1085,
      "thod": 1086,
      "struct": 1087,
      "species": 1088,
      "top": 1089,
      "considered": 1090,
      "prim": 1091,
      "due": 1092,
      "town": 1093,
      "ergy": 1094,
      "see": 1095,
      "mb": 1096,
      "win": 1097,
      "Jew": 1098,
      "sch": 1099,
      "ize": 1100,
      "These": 1101,
      "bet": 1102,
      "During": 1103,
      "equ": 1104,
      "fiel": 1105,
      "claim": 1106,
      "bed": 1107,
      "tit": 1108,
      "National": 1109,
      "educ": 1110,
      "become": 1111,
      "loy": 1112,
      "chang": 1113,
      "tle": 1114,
      "May": 1115,
      "Church": 1116,
      "oot": 1117,
      "attle": 1118,
      "once": 1119,
      "195": 1120,
      "ner": 1121,
      "idd": 1122,
      "gest": 1123,
      "ali": 1124,
      "11": 1125,
      "control": 1126,
      "developed": 1127,
      "York": 1128,
      "lam": 1129,
      "dest": 1130,
      "east": 1131,
      "They": 1132,
      "Some": 1133,
      "typ": 1134,
      "ai": 1135,
      "record": 1136,
      "region": 1137,
      "cell": 1138,
      "located": 1139,
      "social": 1140,
      "jo": 1141,
      "25": 1142,
      "cra": 1143,
      "ified": 1144,
      "Lond": 1145,
      "put": 1146,
      "local": 1147,
      "udi": 1148,
      "stitution": 1149,
      "groups": 1150,
      "London": 1151,
      "az": 1152,
      "ute": 1153,
      "prof": 1154,
      "descri": 1155,
      "Ne": 1156,
      "ling": 1157,
      "fed": 1158,
      "ps": 1159,
      "provid": 1160,
      "ines": 1161,
      "former": 1162,
      "bus": 1163,
      "current": 1164,
      "Pol": 1165,
      "omet": 1166,
      "giv": 1167,
      "emp": 1168,
      "sequ": 1169,
      "ration": 1170,
      "report": 1171,
      "Mus": 1172,
      "ides": 1173,
      "aw": 1174,
      "death": 1175,
      "Mon": 1176,
      "atic": 1177,
      "ody": 1178,
      "ator": 1179,
      "official": 1180,
      "nam": 1181,
      "ense": 1182,
      "ctions": 1183,
      "sum": 1184,
      "adv": 1185,
      "issu": 1186,
      "crit": 1187,
      "histor": 1188,
      "cing": 1189,
      "tern": 1190,
      "pract": 1191,
      "Ge": 1192,
      "let": 1193,
      "vir": 1194,
      "independ": 1195,
      "cot": 1196,
      "cop": 1197,
      "tak": 1198,
      "read": 1199,
      "ilar": 1200,
      "signific": 1201,
      "rul": 1202,
      "Gen": 1203,
      "cil": 1204,
      "fac": 1205,
      "Man": 1206,
      "ient": 1207,
      "force": 1208,
      "Nor": 1209,
      "def": 1210,
      "forces": 1211,
      "addition": 1212,
      "prote": 1213,
      "Which": 1214,
      "another": 1215,
      "just": 1216,
      "que": 1217,
      "Sh": 1218,
      "event": 1219,
      "although": 1220,
      "house": 1221,
      "rese": 1222,
      "posed": 1223,
      "type": 1224,
      "Ac": 1225,
      "history": 1226,
      "direct": 1227,
      "exist": 1228,
      "cul": 1229,
      "ley": 1230,
      "hal": 1231,
      "general": 1232,
      "ains": 1233,
      "Ad": 1234,
      "ictor": 1235,
      "pur": 1236,
      "lor": 1237,
      "bour": 1238,
      "ness": 1239,
      "position": 1240,
      "vo": 1241,
      "iver": 1242,
      "Union": 1243,
      "defin": 1244,
      "camp": 1245,
      "193": 1246,
      "north": 1247,
      "author": 1248,
      "church": 1249,
      "percent": 1250,
      "five": 1251,
      "wards": 1252,
      "cert": 1253,
      "intro": 1254,
      "colon": 1255,
      "hol": 1256,
      "get": 1257,
      "significant": 1258,
      "mun": 1259,
      "various": 1260,
      "India": 1261,
      "sk": 1262,
      "yal": 1263,
      "ival": 1264,
      "rab": 1265,
      "..": 1266,
      "occ": 1267,
      "built": 1268,
      "introdu": 1269,
      "ination": 1270,
      "formation": 1271,
      "bas": 1272,
      "ently": 1273,
      "vol": 1274,
      "represent": 1275,
      "pa": 1276,
      "usually": 1277,
      "energy": 1278,
      "ked": 1279,
      "urther": 1280,
      "schools": 1281,
      "film": 1282,
      "make": 1283,
      "market": 1284,
      "reach": 1285,
      "ards": 1286,
      "character": 1287,
      "omen": 1288,
      "2010": 1289,
      "Su": 1290,
      "mission": 1291,
      "aver": 1292,
      "reet": 1293,
      "far": 1294,
      "ina": 1295,
      "sty": 1296,
      "compe": 1297,
      "iddle": 1298,
      "return": 1299,
      "took": 1300,
      "plic": 1301,
      "Victor": 1302,
      "vest": 1303,
      "Ju": 1304,
      "ability": 1305,
      "forms": 1306,
      "ene": 1307,
      "every": 1308,
      "Lu": 1309,
      "hand": 1310,
      "saw": 1311,
      "rican": 1312,
      "bal": 1313,
      "Jan": 1314,
      "Ital": 1315,
      "cu": 1316,
      "redu": 1317,
      "Pa": 1318,
      "mic": 1319,
      "sou": 1320,
      "40": 1321,
      "religious": 1322,
      "occur": 1323,
      "ze": 1324,
      "ological": 1325,
      "however": 1326,
      "company": 1327,
      "change": 1328,
      "Pe": 1329,
      "comb": 1330,
      "ouncil": 1331,
      "following": 1332,
      "great": 1333,
      "south": 1334,
      "range": 1335,
      "nat": 1336,
      "post": 1337,
      "Char": 1338,
      "ram": 1339,
      "conne": 1340,
      "capital": 1341,
      "England": 1342,
      "cog": 1343,
      "Where": 1344,
      "bi": 1345,
      "cially": 1346,
      "row": 1347,
      "ole": 1348,
      "civil": 1349,
      "needed": 1350,
      "stat": 1351,
      "grad": 1352,
      "included": 1353,
      "few": 1354,
      "similar": 1355,
      "dra": 1356,
      "tele": 1357,
      "separ": 1358,
      "hip": 1359,
      "viet": 1360,
      "Phil": 1361,
      "Wil": 1362,
      "activ": 1363,
      "individ": 1364,
      "Soviet": 1365,
      "istic": 1366,
      "iness": 1367,
      "Ma": 1368,
      "ensive": 1369,
      "hom": 1370,
      "associ": 1371,
      "dro": 1372,
      "body": 1373,
      "uses": 1374,
      "bir": 1375,
      "begin": 1376,
      "cogn": 1377,
      "Sw": 1378,
      "inte": 1379,
      "Port": 1380,
      "study": 1381,
      "rate": 1382,
      "Britain": 1383,
      "total": 1384,
      "phil": 1385,
      "ency": 1386,
      "single": 1387,
      "init": 1388,
      "bert": 1389,
      "struction": 1390,
      "vious": 1391,
      "without": 1392,
      "ential": 1393,
      "treat": 1394,
      "field": 1395,
      "lect": 1396,
      "take": 1397,
      "oss": 1398,
      "fall": 1399,
      "third": 1400,
      "America": 1401,
      "family": 1402,
      "mig": 1403,
      "Other": 1404,
      "research": 1405,
      "economic": 1406,
      "ators": 1407,
      "tember": 1408,
      "Sep": 1409,
      "mode": 1410,
      "Arab": 1411,
      "service": 1412,
      "stry": 1413,
      "Min": 1414,
      "free": 1415,
      "ik": 1416,
      "individual": 1417,
      "broad": 1418,
      "invol": 1419,
      "proble": 1420,
      "uary": 1421,
      "osop": 1422,
      "itect": 1423,
      "Mac": 1424,
      "olic": 1425,
      "plan": 1426,
      "Geor": 1427,
      "na": 1428,
      "territ": 1429,
      "continued": 1430,
      "Fe": 1431,
      "unch": 1432,
      "League": 1433,
      "According": 1434,
      "Med": 1435,
      "2008": 1436,
      "ug": 1437,
      "ales": 1438,
      "came": 1439,
      "created": 1440,
      "ways": 1441,
      "bar": 1442,
      "Christian": 1443,
      "Que": 1444,
      "ffic": 1445,
      "Oc": 1446,
      "ops": 1447,
      "ek": 1448,
      "game": 1449,
      "produced": 1450,
      "60": 1451,
      "said": 1452,
      "2013": 1453,
      "released": 1454,
      "September": 1455,
      "feat": 1456,
      "studi": 1457,
      "phys": 1458,
      "culture": 1459,
      "His": 1460,
      "bur": 1461,
      "eth": 1462,
      "har": 1463,
      "month": 1464,
      "education": 1465,
      "Bar": 1466,
      "Gu": 1467,
      "African": 1468,
      "mult": 1469,
      "host": 1470,
      "placed": 1471,
      "series": 1472,
      "tempt": 1473,
      "inc": 1474,
      "ata": 1475,
      "sure": 1476,
      "Islam": 1477,
      "western": 1478,
      "stral": 1479,
      "mi": 1480,
      "gust": 1481,
      "gl": 1482,
      "stri": 1483,
      "times": 1484,
      "asing": 1485,
      "cir": 1486,
      "24": 1487,
      "six": 1488,
      "sour": 1489,
      "evolution": 1490,
      "earli": 1491,
      "mater": 1492,
      "wood": 1493,
      "omin": 1494,
      "hest": 1495,
      "bum": 1496,
      "Germany": 1497,
      "President": 1498,
      "NA": 1499,
      "anim": 1500,
      "sent": 1501,
      "Canad": 1502,
      "turn": 1503,
      "June": 1504,
      "espe": 1505,
      "parts": 1506,
      "2009": 1507,
      "vate": 1508,
      "polic": 1509,
      "Co": 1510,
      "January": 1511,
      "Air": 1512,
      "attempt": 1513,
      "played": 1514,
      "students": 1515,
      "God": 1516,
      "disc": 1517,
      "rule": 1518,
      "August": 1519,
      "San": 1520,
      "thing": 1521,
      "stant": 1522,
      "ither": 1523,
      "tr": 1524,
      "inci": 1525,
      "2011": 1526,
      "cause": 1527,
      "cience": 1528,
      "pread": 1529,
      "production": 1530,
      "half": 1531,
      "ples": 1532,
      "netw": 1533,
      "mean": 1534,
      "international": 1535,
      "given": 1536,
      "teach": 1537,
      "rock": 1538,
      "central": 1539,
      "road": 1540,
      "100": 1541,
      "tar": 1542,
      "liter": 1543,
      "ake": 1544,
      "dev": 1545,
      "administ": 1546,
      "philosop": 1547,
      "ports": 1548,
      "lym": 1549,
      "Egy": 1550,
      "ana": 1551,
      "July": 1552,
      "atin": 1553,
      "dyn": 1554,
      "blo": 1555,
      "role": 1556,
      "den": 1557,
      "One": 1558,
      "nic": 1559,
      "short": 1560,
      "Egypt": 1561,
      "higher": 1562,
      "band": 1563,
      "aries": 1564,
      "Ex": 1565,
      "argu": 1566,
      "lower": 1567,
      "enc": 1568,
      "Victoria": 1569,
      "sex": 1570,
      "cities": 1571,
      "original": 1572,
      "Many": 1573,
      "iev": 1574,
      "rict": 1575,
      "With": 1576,
      "ably": 1577,
      "Austral": 1578,
      "ograph": 1579,
      "ootball": 1580,
      "2007": 1581,
      "stitut": 1582,
      "ured": 1583,
      "proper": 1584,
      "ats": 1585,
      "To": 1586,
      "ock": 1587,
      "previous": 1588,
      "23": 1589,
      "generally": 1590,
      "announ": 1591,
      "bes": 1592,
      "named": 1593,
      "Ap": 1594,
      "ring": 1595,
      "March": 1596,
      "avail": 1597,
      "Paris": 1598,
      "ues": 1599,
      "throughout": 1600,
      "architect": 1601,
      "especially": 1602,
      "tober": 1603,
      "era": 1604,
      "ery": 1605,
      "Great": 1606,
      "special": 1607,
      "19th": 1608,
      "club": 1609,
      "Cath": 1610,
      "others": 1611,
      "experi": 1612,
      "speak": 1613,
      "October": 1614,
      "bit": 1615,
      "further": 1616,
      "know": 1617,
      "scient": 1618,
      "average": 1619,
      "children": 1620,
      "km": 1621,
      "21": 1622,
      "natural": 1623,
      "Western": 1624,
      "reed": 1625,
      "sug": 1626,
      "album": 1627,
      "ico": 1628,
      "ham": 1629,
      "employ": 1630,
      "mid": 1631,
      "action": 1632,
      "material": 1633,
      "list": 1634,
      "systems": 1635,
      "recent": 1636,
      "strong": 1637,
      "mass": 1638,
      "recogn": 1639,
      "compos": 1640,
      "2014": 1641,
      "Bey": 1642,
      "ony": 1643,
      "enced": 1644,
      "member": 1645,
      "2012": 1646,
      "useum": 1647,
      "days": 1648,
      "rap": 1649,
      "Ti": 1650,
      "inst": 1651,
      "anish": 1652,
      "ometimes": 1653,
      "uan": 1654,
      "case": 1655,
      "ones": 1656,
      "concept": 1657,
      "kill": 1658,
      "Me": 1659,
      "arily": 1660,
      "temper": 1661,
      "close": 1662,
      "stead": 1663,
      "ending": 1664,
      "vin": 1665,
      "liament": 1666,
      "should": 1667,
      "Pal": 1668,
      "private": 1669,
      "relation": 1670,
      "ush": 1671,
      "won": 1672,
      "Har": 1673,
      "pred": 1674,
      "university": 1675,
      "Cl": 1676,
      "Ser": 1677,
      "udd": 1678,
      "ites": 1679,
      "Ot": 1680,
      "ished": 1681,
      "making": 1682,
      "must": 1683,
      "left": 1684,
      "compan": 1685,
      "covered": 1686,
      "growth": 1687,
      "River": 1688,
      "nation": 1689,
      "ken": 1690,
      "lav": 1691,
      "key": 1692,
      "General": 1693,
      "quar": 1694,
      "quest": 1695,
      "ided": 1696,
      "School": 1697,
      "ighest": 1698,
      "imately": 1699,
      "ental": 1700,
      "face": 1701,
      "Mex": 1702,
      "ago": 1703,
      "majority": 1704,
      "influence": 1705,
      "ster": 1706,
      "Dece": 1707,
      "president": 1708,
      "highest": 1709,
      "song": 1710,
      "Super": 1711,
      "December": 1712,
      "army": 1713,
      "fail": 1714,
      "moved": 1715,
      "Cour": 1716,
      "decl": 1717,
      "Sy": 1718,
      "successful": 1719,
      "Ear": 1720,
      "Kingdom": 1721,
      "Beyonce": 1722,
      "launch": 1723,
      "commer": 1724,
      "frequ": 1725,
      "ried": 1726,
      "across": 1727,
      "Queen": 1728,
      "rid": 1729,
      "tor": 1730,
      "ption": 1731,
      "ground": 1732,
      "Council": 1733,
      "pen": 1734,
      "domin": 1735,
      "craft": 1736,
      "establish": 1737,
      "ids": 1738,
      "languages": 1739,
      "Bow": 1740,
      "traditional": 1741,
      "Apr": 1742,
      "oto": 1743,
      "adop": 1744,
      "certain": 1745,
      "nal": 1746,
      "works": 1747,
      "ung": 1748,
      "April": 1749,
      "aven": 1750,
      "rights": 1751,
      "maint": 1752,
      "80": 1753,
      "Nove": 1754,
      "standard": 1755,
      "theory": 1756,
      "opin": 1757,
      "received": 1758,
      "black": 1759,
      "State": 1760,
      "November": 1761,
      "increased": 1762,
      "lied": 1763,
      "particularly": 1764,
      "sometimes": 1765,
      "tempor": 1766,
      "method": 1767,
      "real": 1768,
      "acks": 1769,
      "offer": 1770,
      "cal": 1771,
      "ots": 1772,
      "trade": 1773,
      "ler": 1774,
      "finan": 1775,
      "Republic": 1776,
      "termin": 1777,
      "rael": 1778,
      "cost": 1779,
      "reme": 1780,
      "apt": 1781,
      "published": 1782,
      "appear": 1783,
      "Otto": 1784,
      "having": 1785,
      "22": 1786,
      "book": 1787,
      "Although": 1788,
      "Russian": 1789,
      "word": 1790,
      "invest": 1791,
      "ison": 1792,
      "Colle": 1793,
      "Japanese": 1794,
      "conc": 1795,
      "aged": 1796,
      "attack": 1797,
      "While": 1798,
      "2006": 1799,
      "iate": 1800,
      "available": 1801,
      "best": 1802,
      "princi": 1803,
      "federal": 1804,
      "party": 1805,
      "rather": 1806,
      "pain": 1807,
      "exe": 1808,
      "interest": 1809,
      "ches": 1810,
      "inf": 1811,
      "founded": 1812,
      "mal": 1813,
      "Mad": 1814,
      "rica": 1815,
      "Tibet": 1816,
      "bs": 1817,
      "ining": 1818,
      "ision": 1819,
      "Muslim": 1820,
      "idence": 1821,
      "peror": 1822,
      "terms": 1823,
      "text": 1824,
      "aren": 1825,
      "Sch": 1826,
      "tion": 1827,
      "court": 1828,
      "Africa": 1829,
      "She": 1830,
      "Hu": 1831,
      "Spanish": 1832,
      "Latin": 1833,
      "Gre": 1834,
      "International": 1835,
      "Budd": 1836,
      "profess": 1837,
      "women": 1838,
      "legal": 1839,
      "20th": 1840,
      "dig": 1841,
      "cle": 1842,
      "dri": 1843,
      "Bur": 1844,
      "William": 1845,
      "perial": 1846,
      "business": 1847,
      "gra": 1848,
      "Comp": 1849,
      "possible": 1850,
      "No": 1851,
      "food": 1852,
      "meas": 1853,
      "Scot": 1854,
      "Catholic": 1855,
      "ply": 1856,
      "cultural": 1857,
      "asty": 1858,
      "rought": 1859,
      "jud": 1860,
      "feature": 1861,
      "effect": 1862,
      "27": 1863,
      "Im": 1864,
      "either": 1865,
      "atter": 1866,
      "ships": 1867,
      "glo": 1868,
      "itself": 1869,
      "ister": 1870,
      "date": 1871,
      "ius": 1872,
      "enci": 1873,
      "ho": 1874,
      "jects": 1875,
      "hous": 1876,
      "Israel": 1877,
      "avy": 1878,
      "All": 1879,
      "lled": 1880,
      "style": 1881,
      "rev": 1882,
      "respons": 1883,
      "suggest": 1884,
      "accept": 1885,
      "ify": 1886,
      "Cor": 1887,
      "187": 1888,
      "net": 1889,
      "Ottoman": 1890,
      "hold": 1891,
      "introduced": 1892,
      "regard": 1893,
      "amount": 1894,
      "Part": 1895,
      "live": 1896,
      "ought": 1897,
      "Army": 1898,
      "House": 1899,
      "TV": 1900,
      "electric": 1901,
      "final": 1902,
      "written": 1903,
      "ae": 1904,
      "ming": 1905,
      "agree": 1906,
      "univers": 1907,
      "estim": 1908,
      "occup": 1909,
      "bru": 1910,
      "rup": 1911,
      "acy": 1912,
      "mag": 1913,
      "billion": 1914,
      "ink": 1915,
      "white": 1916,
      "impro": 1917,
      "Ed": 1918,
      "atory": 1919,
      "College": 1920,
      "care": 1921,
      "ened": 1922,
      "wa": 1923,
      "space": 1924,
      "nel": 1925,
      "rote": 1926,
      "anted": 1927,
      "served": 1928,
      ".,": 1929,
      "cade": 1930,
      "Ab": 1931,
      "Tur": 1932,
      "hi": 1933,
      "syn": 1934,
      "Val": 1935,
      "viron": 1936,
      "announced": 1937,
      "audi": 1938,
      "Am": 1939,
      "sla": 1940,
      "video": 1941,
      "bl": 1942,
      "construction": 1943,
      "Court": 1944,
      "2015": 1945,
      "Indian": 1946,
      "corpor": 1947,
      "allowed": 1948,
      "pect": 1949,
      "ping": 1950,
      "ering": 1951,
      "Des": 1952,
      "citation": 1953,
      "Armen": 1954,
      "ria": 1955,
      "respon": 1956,
      "Han": 1957,
      "provide": 1958,
      "George": 1959,
      "lex": 1960,
      "lies": 1961,
      "wrote": 1962,
      "Bowl": 1963,
      "hood": 1964,
      "increasing": 1965,
      "uries": 1966,
      "Nap": 1967,
      "island": 1968,
      "southern": 1969,
      "according": 1970,
      "Act": 1971,
      "followed": 1972,
      "Gr": 1973,
      "rail": 1974,
      "schol": 1975,
      "Govern": 1976,
      "seen": 1977,
      "Park": 1978,
      "board": 1979,
      "mor": 1980,
      "capt": 1981,
      "hard": 1982,
      "neigh": 1983,
      "foreign": 1984,
      "lines": 1985,
      "designed": 1986,
      "quare": 1987,
      "pite": 1988,
      "health": 1989,
      "Febru": 1990,
      "February": 1991,
      "related": 1992,
      "complete": 1993,
      "ray": 1994,
      "ufact": 1995,
      "active": 1996,
      "ront": 1997,
      "distin": 1998,
      "pan": 1999,
      "From": 2000,
      "mount": 2001,
      "movement": 2002,
      "Middle": 2003,
      "vict": 2004,
      "selves": 2005,
      "ances": 2006,
      "hab": 2007,
      "pot": 2008,
      "ends": 2009,
      "affe": 2010,
      "aut": 2011,
      "asser": 2012,
      "antic": 2013,
      "isl": 2014,
      "acc": 2015,
      "itive": 2016,
      "thus": 2017,
      "anal": 2018,
      "primary": 2019,
      "26": 2020,
      "Rich": 2021,
      "account": 2022,
      "190": 2023,
      "ification": 2024,
      "break": 2025,
      "say": 2026,
      "sound": 2027,
      "least": 2028,
      "fort": 2029,
      "anti": 2030,
      "dam": 2031,
      "2005": 2032,
      "industry": 2033,
      "appoint": 2034,
      "thought": 2035,
      "network": 2036,
      "version": 2037,
      "services": 2038,
      "28": 2039,
      "data": 2040,
      "complex": 2041,
      "changes": 2042,
      "bel": 2043,
      "leading": 2044,
      "ief": 2045,
      "labor": 2046,
      "utch": 2047,
      "Cong": 2048,
      "themselves": 2049,
      "television": 2050,
      "pal": 2051,
      "associated": 2052,
      "bran": 2053,
      "broadcast": 2054,
      "Ber": 2055,
      "foc": 2056,
      "Res": 2057,
      "Sou": 2058,
      "relative": 2059,
      "Jews": 2060,
      "required": 2061,
      "gress": 2062,
      "emer": 2063,
      "entire": 2064,
      "ging": 2065,
      "consist": 2066,
      "asons": 2067,
      "except": 2068,
      "ateg": 2069,
      "ctively": 2070,
      "roy": 2071,
      "whe": 2072,
      "tour": 2073,
      "viol": 2074,
      "Asia": 2075,
      "structure": 2076,
      "brought": 2077,
      "partment": 2078,
      "described": 2079,
      "Most": 2080,
      "wealth": 2081,
      "hib": 2082,
      "dynasty": 2083,
      "coming": 2084,
      "Pruss": 2085,
      "tax": 2086,
      "flict": 2087,
      "caused": 2088,
      "northern": 2089,
      "ask": 2090,
      "Central": 2091,
      "plants": 2092,
      "asion": 2093,
      "minor": 2094,
      "bom": 2095,
      "upon": 2096,
      "erous": 2097,
      "sen": 2098,
      "increase": 2099,
      "remained": 2100,
      "29": 2101,
      "full": 2102,
      "theast": 2103,
      "meet": 2104,
      "chem": 2105,
      "access": 2106,
      "command": 2107,
      "urban": 2108,
      "cret": 2109,
      "Napole": 2110,
      "good": 2111,
      "ilities": 2112,
      "gs": 2113,
      "189": 2114,
      "communic": 2115,
      "Fed": 2116,
      "mix": 2117,
      "color": 2118,
      "coast": 2119,
      "Street": 2120,
      "financial": 2121,
      "almost": 2122,
      "contain": 2123,
      "UK": 2124,
      "dol": 2125,
      "Pop": 2126,
      "believ": 2127,
      "father": 2128,
      "Napoleon": 2129,
      "han": 2130,
      "community": 2131,
      "Dutch": 2132,
      "kes": 2133,
      "past": 2134,
      "Since": 2135,
      "ax": 2136,
      "exam": 2137,
      "Count": 2138,
      "quality": 2139,
      "Kore": 2140,
      "manufact": 2141,
      "aj": 2142,
      "Aust": 2143,
      "events": 2144,
      "Haven": 2145,
      "imp": 2146,
      "includes": 2147,
      "plant": 2148,
      "Sun": 2149,
      "today": 2150,
      "round": 2151,
      "environ": 2152,
      "gether": 2153,
      "We": 2154,
      "condu": 2155,
      "engine": 2156,
      "science": 2157,
      "buildings": 2158,
      "started": 2159,
      "games": 2160,
      "teen": 2161,
      "Som": 2162,
      "instru": 2163,
      "ows": 2164,
      "Her": 2165,
      "dog": 2166,
      "ceed": 2167,
      "centuries": 2168,
      "laws": 2169,
      "sell": 2170,
      "compu": 2171,
      "hour": 2172,
      "Center": 2173,
      "ior": 2174,
      "za": 2175,
      "rown": 2176,
      "specific": 2177,
      "Jewish": 2178,
      "etro": 2179,
      "tre": 2180,
      "aign": 2181,
      "loss": 2182,
      "forced": 2183,
      "conf": 2184,
      "Royal": 2185,
      "commercial": 2186,
      "owers": 2187,
      "ored": 2188,
      "went": 2189,
      "race": 2190,
      "next": 2191,
      "Luther": 2192,
      "ned": 2193,
      "died": 2194,
      "fav": 2195,
      "contribut": 2196,
      "lon": 2197,
      "sea": 2198,
      "whose": 2199,
      "outside": 2200,
      "station": 2201,
      "exper": 2202,
      "policy": 2203,
      "ights": 2204,
      "means": 2205,
      "neg": 2206,
      "verse": 2207,
      "indic": 2208,
      "beginning": 2209,
      "forman": 2210,
      "Carol": 2211,
      "cases": 2212,
      "independent": 2213,
      "knowled": 2214,
      "zer": 2215,
      "expand": 2216,
      "Chopin": 2217,
      "provided": 2218,
      "Tu": 2219,
      "travel": 2220,
      "ream": 2221,
      "taken": 2222,
      "185": 2223,
      "consider": 2224,
      "Sam": 2225,
      "express": 2226,
      "sett": 2227,
      "concern": 2228,
      "acqu": 2229,
      "aff": 2230,
      "augh": 2231,
      "ington": 2232,
      "III": 2233,
      "ethnic": 2234,
      "cer": 2235,
      "spo": 2236,
      "mechan": 2237,
      "White": 2238,
      "aircraft": 2239,
      "stor": 2240,
      "execut": 2241,
      "Do": 2242,
      "applic": 2243,
      "oil": 2244,
      "mental": 2245,
      "institut": 2246,
      "venue": 2247,
      "ney": 2248,
      "enna": 2249,
      "ership": 2250,
      "reported": 2251,
      "bon": 2252,
      "ties": 2253,
      "never": 2254,
      "media": 2255,
      "capac": 2256,
      "uran": 2257,
      "Greece": 2258,
      "constitution": 2259,
      "status": 2260,
      "gun": 2261,
      "companies": 2262,
      "hor": 2263,
      "economy": 2264,
      "deb": 2265,
      "typically": 2266,
      "living": 2267,
      "Rh": 2268,
      "suf": 2269,
      "500": 2270,
      "regul": 2271,
      "Mong": 2272,
      "bacter": 2273,
      "sw": 2274,
      "Rome": 2275,
      "sit": 2276,
      "rian": 2277,
      "lif": 2278,
      "Cy": 2279,
      "conflict": 2280,
      "ising": 2281,
      "defe": 2282,
      "referred": 2283,
      "sec": 2284,
      "186": 2285,
      "Commun": 2286,
      "standing": 2287,
      "Vir": 2288,
      "instead": 2289,
      "together": 2290,
      "legisl": 2291,
      "center": 2292,
      "Pre": 2293,
      "rise": 2294,
      "ounter": 2295,
      "Bal": 2296,
      "oth": 2297,
      "help": 2298,
      "35": 2299,
      "born": 2300,
      "ama": 2301,
      "pay": 2302,
      "inal": 2303,
      "spread": 2304,
      "Dis": 2305,
      "Mel": 2306,
      "migr": 2307,
      "claimed": 2308,
      "compet": 2309,
      "diale": 2310,
      "famous": 2311,
      "ABC": 2312,
      "diffic": 2313,
      "limited": 2314,
      "strict": 2315,
      "ention": 2316,
      "La": 2317,
      "opened": 2318,
      "working": 2319,
      "information": 2320,
      "mother": 2321,
      "fem": 2322,
      "lost": 2323,
      "sexual": 2324,
      "Mongol": 2325,
      "separate": 2326,
      "Australia": 2327,
      "demon": 2328,
      "widely": 2329,
      "High": 2330,
      "stitute": 2331,
      "settle": 2332,
      "Revolution": 2333,
      "words": 2334,
      "Mexico": 2335,
      "meaning": 2336,
      "campaign": 2337,
      "resist": 2338,
      "passed": 2339,
      "citiz": 2340,
      "difficult": 2341,
      "performan": 2342,
      "visit": 2343,
      "base": 2344,
      "Battle": 2345,
      "Ho": 2346,
      "radio": 2347,
      "fri": 2348,
      "temporary": 2349,
      "Americans": 2350,
      "estimated": 2351,
      "Eastern": 2352,
      "ancient": 2353,
      "ximately": 2354,
      "ather": 2355,
      "critic": 2356,
      "Per": 2357,
      "Nasser": 2358,
      "AC": 2359,
      "troops": 2360,
      "isms": 2361,
      "contra": 2362,
      "elected": 2363,
      "188": 2364,
      "sof": 2365,
      "reached": 2366,
      "Bron": 2367,
      "dr": 2368,
      "eventually": 2369,
      "estic": 2370,
      "model": 2371,
      "cks": 2372,
      "teams": 2373,
      "regions": 2374,
      "demonstr": 2375,
      "cele": 2376,
      "gar": 2377,
      "pit": 2378,
      "idents": 2379,
      "religion": 2380,
      "Paul": 2381,
      "Island": 2382,
      "dise": 2383,
      "week": 2384,
      "ras": 2385,
      "seven": 2386,
      "above": 2387,
      "title": 2388,
      "thes": 2389,
      "prevent": 2390,
      "football": 2391,
      "liber": 2392,
      "90": 2393,
      "Iran": 2394,
      "che": 2395,
      "Fir": 2396,
      "youn": 2397,
      "pose": 2398,
      "flo": 2399,
      "van": 2400,
      "gave": 2401,
      "istan": 2402,
      "45": 2403,
      "Bra": 2404,
      "commit": 2405,
      "eastern": 2406,
      "larger": 2407,
      "regular": 2408,
      "birth": 2409,
      "Company": 2410,
      "PC": 2411,
      "destroy": 2412,
      "uel": 2413,
      "Reg": 2414,
      "surv": 2415,
      "ded": 2416,
      "Parliament": 2417,
      "ousand": 2418,
      "ensus": 2419,
      "ades": 2420,
      "Ste": 2421,
      "ben": 2422,
      "atives": 2423,
      "speed": 2424,
      "produce": 2425,
      "Mo": 2426,
      "Fre": 2427,
      "office": 2428,
      "clos": 2429,
      "Emperor": 2430,
      "cells": 2431,
      "particip": 2432,
      "sele": 2433,
      "Alex": 2434,
      "First": 2435,
      "directly": 2436,
      "aint": 2437,
      "oney": 2438,
      "Sup": 2439,
      "Islamic": 2440,
      "source": 2441,
      "inse": 2442,
      "oms": 2443,
      "elev": 2444,
      "Italy": 2445,
      "Canada": 2446,
      "atch": 2447,
      "semb": 2448,
      "technology": 2449,
      "territory": 2450,
      "powers": 2451,
      "commonly": 2452,
      "Te": 2453,
      "months": 2454,
      "Pri": 2455,
      "Tw": 2456,
      "fig": 2457,
      "graph": 2458,
      "replaced": 2459,
      "arri": 2460,
      "subsequ": 2461,
      "bey": 2462,
      "necess": 2463,
      "earlier": 2464,
      "Mi": 2465,
      "2000": 2466,
      "Hen": 2467,
      "jing": 2468,
      "district": 2469,
      "esla": 2470,
      "Bost": 2471,
      "bul": 2472,
      "Vi": 2473,
      "ills": 2474,
      "greater": 2475,
      "scri": 2476,
      "function": 2477,
      "ique": 2478,
      "site": 2479,
      "pic": 2480,
      "ference": 2481,
      "transl": 2482,
      "mostly": 2483,
      "protest": 2484,
      "Dav": 2485,
      "Charles": 2486,
      "size": 2487,
      "vert": 2488,
      "ets": 2489,
      "believed": 2490,
      "Tesla": 2491,
      "chest": 2492,
      "strial": 2493,
      "architecture": 2494,
      "mocr": 2495,
      "Ca": 2496,
      "suffer": 2497,
      "If": 2498,
      "pon": 2499,
      "little": 2500,
      "Boston": 2501,
      "Black": 2502,
      "clus": 2503,
      "empire": 2504,
      "scientific": 2505,
      "atal": 2506,
      "ford": 2507,
      "numbers": 2508,
      "Bu": 2509,
      "election": 2510,
      "levels": 2511,
      "Carolina": 2512,
      "Old": 2513,
      "oura": 2514,
      "motion": 2515,
      "Italian": 2516,
      "Eston": 2517,
      "involved": 2518,
      "abs": 2519,
      "ky": 2520,
      "Bel": 2521,
      "clear": 2522,
      "kind": 2523,
      "deal": 2524,
      "annual": 2525,
      "ires": 2526,
      "ready": 2527,
      "Philip": 2528,
      "icle": 2529,
      "independence": 2530,
      "photo": 2531,
      "...": 2532,
      "ES": 2533,
      "decla": 2534,
      "away": 2535,
      "response": 2536,
      "70": 2537,
      "Mary": 2538,
      "ength": 2539,
      "largely": 2540,
      "arm": 2541,
      "2004": 2542,
      "types": 2543,
      "Ire": 2544,
      "respe": 2545,
      "practice": 2546,
      "Mount": 2547,
      "comes": 2548,
      "box": 2549,
      "prior": 2550,
      "adopted": 2551,
      "FA": 2552,
      "oks": 2553,
      "sold": 2554,
      "border": 2555,
      "personal": 2556,
      "nearly": 2557,
      "Lou": 2558,
      "Del": 2559,
      "primarily": 2560,
      "Mu": 2561,
      "Congress": 2562,
      "indows": 2563,
      "flow": 2564,
      "thro": 2565,
      "famil": 2566,
      "via": 2567,
      "Atl": 2568,
      "problems": 2569,
      "AD": 2570,
      "fire": 2571,
      "ores": 2572,
      "Olym": 2573,
      "My": 2574,
      "society": 2575,
      "share": 2576,
      "evidence": 2577,
      "killed": 2578,
      "curity": 2579,
      "Treat": 2580,
      "UN": 2581,
      "pun": 2582,
      "Gal": 2583,
      "thousand": 2584,
      "oles": 2585,
      "tee": 2586,
      "Ireland": 2587,
      "celebr": 2588,
      "don": 2589,
      "effic": 2590,
      "Museum": 2591,
      "cross": 2592,
      "sil": 2593,
      "plann": 2594,
      "require": 2595,
      "variety": 2596,
      "classical": 2597,
      "whether": 2598,
      "prom": 2599,
      "transport": 2600,
      "Protest": 2601,
      "divided": 2602,
      "experim": 2603,
      "stations": 2604,
      "knowledge": 2605,
      "approximately": 2606,
      "spir": 2607,
      "ank": 2608,
      "compon": 2609,
      "Grand": 2610,
      "acts": 2611,
      "philosophy": 2612,
      "release": 2613,
      "nia": 2614,
      "ena": 2615,
      "subject": 2616,
      "fut": 2617,
      "ula": 2618,
      "animals": 2619,
      "Under": 2620,
      "studies": 2621,
      "domestic": 2622,
      "green": 2623,
      "fund": 2624,
      "Thom": 2625,
      "police": 2626,
      "Hist": 2627,
      "rich": 2628,
      "James": 2629,
      "cru": 2630,
      "Arch": 2631,
      "earth": 2632,
      "Party": 2633,
      "street": 2634,
      "erry": 2635,
      "reason": 2636,
      "Federal": 2637,
      "ane": 2638,
      "ctr": 2639,
      "Wash": 2640,
      "threat": 2641,
      "print": 2642,
      "rapid": 2643,
      "institutions": 2644,
      "mad": 2645,
      "elements": 2646,
      "leader": 2647,
      "gas": 2648,
      "neighbor": 2649,
      "universities": 2650,
      "front": 2651,
      "path": 2652,
      "vot": 2653,
      "authority": 2654,
      "stic": 2655,
      "Cub": 2656,
      "big": 2657,
      "ibility": 2658,
      "docu": 2659,
      "whom": 2660,
      "organization": 2661,
      "Cali": 2662,
      "itor": 2663,
      "oxy": 2664,
      "actions": 2665,
      "183": 2666,
      "Alexand": 2667,
      "birds": 2668,
      "nature": 2669,
      "enh": 2670,
      "mn": 2671,
      "portion": 2672,
      "influenced": 2673,
      "issue": 2674,
      "Not": 2675,
      "ino": 2676,
      "himself": 2677,
      "Du": 2678,
      "Spe": 2679,
      "Bell": 2680,
      "ampion": 2681,
      "glass": 2682,
      "mos": 2683,
      "soon": 2684,
      "ented": 2685,
      "Apple": 2686,
      "relationship": 2687,
      "Hy": 2688,
      "aving": 2689,
      "expe": 2690,
      "kingdom": 2691,
      "originally": 2692,
      "might": 2693,
      "approach": 2694,
      "gradu": 2695,
      "temperature": 2696,
      "habit": 2697,
      "sal": 2698,
      "adium": 2699,
      "supported": 2700,
      "Earth": 2701,
      "distribut": 2702,
      "mediate": 2703,
      "situ": 2704,
      "climate": 2705,
      "afi": 2706,
      "plement": 2707,
      "cust": 2708,
      "berg": 2709,
      "mach": 2710,
      "unting": 2711,
      "dict": 2712,
      "infe": 2713,
      "super": 2714,
      "problem": 2715,
      "night": 2716,
      "ya": 2717,
      "Mal": 2718,
      "Russia": 2719,
      "hon": 2720,
      "etic": 2721,
      "brid": 2722,
      "Ir": 2723,
      "iated": 2724,
      "numerous": 2725,
      "remains": 2726,
      "square": 2727,
      "mainly": 2728,
      "Ok": 2729,
      "stated": 2730,
      "too": 2731,
      "aster": 2732,
      "Mer": 2733,
      "formal": 2734,
      "changed": 2735,
      "Gadd": 2736,
      "Pers": 2737,
      "Washington": 2738,
      "dru": 2739,
      "defined": 2740,
      "owned": 2741,
      "chemical": 2742,
      "smaller": 2743,
      "recorded": 2744,
      "experience": 2745,
      "clud": 2746,
      "arma": 2747,
      "longer": 2748,
      "48": 2749,
      "And": 2750,
      "eight": 2751,
      "keep": 2752,
      "atures": 2753,
      "clo": 2754,
      "undred": 2755,
      "Associ": 2756,
      "likely": 2757,
      "declared": 2758,
      "gree": 2759,
      "league": 2760,
      "expans": 2761,
      "Wal": 2762,
      "pel": 2763,
      "symb": 2764,
      "added": 2765,
      "ordin": 2766,
      "chlor": 2767,
      "stream": 2768,
      "havi": 2769,
      "scale": 2770,
      "Chic": 2771,
      "avo": 2772,
      "alle": 2773,
      "prime": 2774,
      "draw": 2775,
      "fel": 2776,
      "drop": 2777,
      "rew": 2778,
      "create": 2779,
      "istics": 2780,
      "returned": 2781,
      "income": 2782,
      "operations": 2783,
      "features": 2784,
      "Chicago": 2785,
      "altern": 2786,
      "Dar": 2787,
      "happ": 2788,
      "onna": 2789,
      "lying": 2790,
      "peace": 2791,
      "serve": 2792,
      "gain": 2793,
      "royal": 2794,
      "oldest": 2795,
      "xim": 2796,
      "carry": 2797,
      "future": 2798,
      "vince": 2799,
      "ugu": 2800,
      "centre": 2801,
      "tail": 2802,
      "wall": 2803,
      "concent": 2804,
      "cific": 2805,
      "Another": 2806,
      "paper": 2807,
      "Gaddafi": 2808,
      "Pan": 2809,
      "records": 2810,
      "computer": 2811,
      "ission": 2812,
      "determin": 2813,
      "lived": 2814,
      "historical": 2815,
      "ami": 2816,
      "Art": 2817,
      "ida": 2818,
      "aval": 2819,
      "Henry": 2820,
      "Saint": 2821,
      "promin": 2822,
      "activity": 2823,
      "75": 2824,
      "dou": 2825,
      "agement": 2826,
      "highly": 2827,
      "cred": 2828,
      "electr": 2829,
      "evol": 2830,
      "nine": 2831,
      "Cup": 2832,
      "Offic": 2833,
      "launched": 2834,
      "qual": 2835,
      "nuc": 2836,
      "demand": 2837,
      "perform": 2838,
      "regional": 2839,
      "interpre": 2840,
      "iter": 2841,
      "battle": 2842,
      "log": 2843,
      "fix": 2844,
      "earliest": 2845,
      "CA": 2846,
      "airs": 2847,
      "surface": 2848,
      "award": 2849,
      "ranked": 2850,
      "collection": 2851,
      "bourne": 2852,
      "relatively": 2853,
      "Yale": 2854,
      "sens": 2855,
      "behavi": 2856,
      "artists": 2857,
      "physical": 2858,
      "utes": 2859,
      "politan": 2860,
      "aring": 2861,
      "currently": 2862,
      "Mont": 2863,
      "Atlantic": 2864,
      "CD": 2865,
      "lahom": 2866,
      "Po": 2867,
      "eve": 2868,
      "Eis": 2869,
      "money": 2870,
      "bound": 2871,
      "incorpor": 2872,
      "Oklahom": 2873,
      "El": 2874,
      "firm": 2875,
      "previously": 2876,
      "ctors": 2877,
      "estival": 2878,
      "resulting": 2879,
      "cis": 2880,
      "cean": 2881,
      "metro": 2882,
      "Spain": 2883,
      "integr": 2884,
      "responsible": 2885,
      "sole": 2886,
      "towards": 2887,
      "agreement": 2888,
      "Jes": 2889,
      "mis": 2890,
      "aid": 2891,
      "Slav": 2892,
      "Its": 2893,
      "torch": 2894,
      "umb": 2895,
      "orient": 2896,
      "marked": 2897,
      "cou": 2898,
      "oplast": 2899,
      "polog": 2900,
      "hind": 2901,
      "resulted": 2902,
      "officially": 2903,
      "Madonna": 2904,
      "arts": 2905,
      "miles": 2906,
      "Law": 2907,
      "issues": 2908,
      "fle": 2909,
      "Louis": 2910,
      "BS": 2911,
      "Sea": 2912,
      "professional": 2913,
      "ror": 2914,
      "auto": 2915,
      "vention": 2916,
      "islands": 2917,
      "carri": 2918,
      "imm": 2919,
      "poor": 2920,
      "quarter": 2921,
      "project": 2922,
      "Melbourne": 2923,
      "izations": 2924,
      "Red": 2925,
      "fol": 2926,
      "18th": 2927,
      "encies": 2928,
      "ean": 2929,
      "division": 2930,
      "discovered": 2931,
      "counter": 2932,
      "Oklahoma": 2933,
      "occurred": 2934,
      "middle": 2935,
      "izing": 2936,
      "hop": 2937,
      "parties": 2938,
      "Common": 2939,
      "wid": 2940,
      "Follow": 2941,
      "acters": 2942,
      "multip": 2943,
      "2003": 2944,
      "igned": 2945,
      "scholars": 2946,
      "Califor": 2947,
      "Second": 2948,
      "iles": 2949,
      "Prince": 2950,
      "discuss": 2951,
      "Jose": 2952,
      "isation": 2953,
      "aim": 2954,
      "churches": 2955,
      "iger": 2956,
      "cand": 2957,
      "players": 2958,
      "micro": 2959,
      "value": 2960,
      "industrial": 2961,
      "Portugu": 2962,
      "Following": 2963,
      "ov": 2964,
      "ingu": 2965,
      "MP": 2966,
      "Nan": 2967,
      "administration": 2968,
      "performance": 2969,
      "expansion": 2970,
      "ems": 2971,
      "kil": 2972,
      "purch": 2973,
      "Univers": 2974,
      "identity": 2975,
      "gold": 2976,
      "jected": 2977,
      "humans": 2978,
      "Minister": 2979,
      "Day": 2980,
      "Hou": 2981,
      "tware": 2982,
      "Thomas": 2983,
      "DNA": 2984,
      "mann": 2985,
      "load": 2986,
      "Bro": 2987,
      "2001": 2988,
      "Warsaw": 2989,
      "stone": 2990,
      "student": 2991,
      "sources": 2992,
      "Rhine": 2993,
      "god": 2994,
      "uda": 2995,
      "characters": 2996,
      "always": 2997,
      "already": 2998,
      "communities": 2999,
      "appeared": 3000,
      "Sal": 3001,
      "recording": 3002,
      "uk": 3003,
      "pressure": 3004,
      "Supreme": 3005,
      "agric": 3006,
      "houses": 3007,
      "compared": 3008,
      "hit": 3009,
      "acade": 3010,
      "hundred": 3011,
      "latter": 3012,
      "ously": 3013,
      "Pacific": 3014,
      "Times": 3015,
      "iving": 3016,
      "individuals": 3017,
      "Music": 3018,
      "Portuguese": 3019,
      "fight": 3020,
      "better": 3021,
      "agricult": 3022,
      "paren": 3023,
      "igen": 3024,
      "valu": 3025,
      "writing": 3026,
      "appointed": 3027,
      "mier": 3028,
      "tu": 3029,
      "proposed": 3030,
      "products": 3031,
      "imperial": 3032,
      "heavy": 3033,
      "phas": 3034,
      "crim": 3035,
      "AF": 3036,
      "Just": 3037,
      "pattern": 3038,
      "literature": 3039,
      "tex": 3040,
      "Hall": 3041,
      "names": 3042,
      "cannot": 3043,
      "course": 3044,
      "campus": 3045,
      "Southern": 3046,
      "hours": 3047,
      "cas": 3048,
      "ideas": 3049,
      "Bay": 3050,
      "Khan": 3051,
      "signed": 3052,
      "stren": 3053,
      "Institute": 3054,
      "forest": 3055,
      "ara": 3056,
      "becoming": 3057,
      "ension": 3058,
      "rat": 3059,
      "arian": 3060,
      "river": 3061,
      "monarch": 3062,
      "categ": 3063,
      "hunting": 3064,
      "conditions": 3065,
      "California": 3066,
      "tain": 3067,
      "books": 3068,
      "programs": 3069,
      "revolution": 3070,
      "fif": 3071,
      "stop": 3072,
      "Qu": 3073,
      "sam": 3074,
      "presence": 3075,
      "Sum": 3076,
      "units": 3077,
      "raised": 3078,
      "soldi": 3079,
      "Why": 3080,
      "give": 3081,
      "pton": 3082,
      "worldwide": 3083,
      "Tri": 3084,
      "native": 3085,
      "pring": 3086,
      "Treaty": 3087,
      "voc": 3088,
      "benef": 3089,
      "fully": 3090,
      "Polish": 3091,
      "quick": 3092,
      "helped": 3093,
      "Virgin": 3094,
      "Association": 3095,
      "rates": 3096,
      "anta": 3097,
      "Canadian": 3098,
      "hydro": 3099,
      "Windows": 3100,
      "jour": 3101,
      "contrast": 3102,
      "Fort": 3103,
      "populations": 3104,
      "repe": 3105,
      "Fin": 3106,
      "Commission": 3107,
      "del": 3108,
      "Constitution": 3109,
      "transfer": 3110,
      "phere": 3111,
      "Houston": 3112,
      "summer": 3113,
      "emphas": 3114,
      "County": 3115,
      "cos": 3116,
      "lican": 3117,
      "stage": 3118,
      "restrict": 3119,
      "reser": 3120,
      "treaty": 3121,
      "65": 3122,
      "global": 3123,
      "publican": 3124,
      "streng": 3125,
      "object": 3126,
      "basis": 3127,
      "Die": 3128,
      "oxygen": 3129,
      "performed": 3130,
      "defeated": 3131,
      "Mic": 3132,
      "agreed": 3133,
      "nations": 3134,
      "decre": 3135,
      "1980s": 3136,
      "Robert": 3137,
      "ieval": 3138,
      "Apol": 3139,
      "Ter": 3140,
      "31": 3141,
      "adult": 3142,
      "phen": 3143,
      "enhower": 3144,
      "Eisenhower": 3145,
      "reli": 3146,
      "musical": 3147,
      "Liber": 3148,
      "promo": 3149,
      "notable": 3150,
      "contains": 3151,
      "cris": 3152,
      "Flor": 3153,
      "odes": 3154,
      "length": 3155,
      "aily": 3156,
      "encoura": 3157,
      "Of": 3158,
      "ctic": 3159,
      "completed": 3160,
      "mosa": 3161,
      "growing": 3162,
      "potential": 3163,
      "Civ": 3164,
      "Dist": 3165,
      "ech": 3166,
      "software": 3167,
      "fla": 3168,
      "ques": 3169,
      "Northern": 3170,
      "chief": 3171,
      "progress": 3172,
      "gg": 3173,
      "forts": 3174,
      "feder": 3175,
      "vote": 3176,
      "fr": 3177,
      "mob": 3178,
      "Orthod": 3179,
      "thropolog": 3180,
      "track": 3181,
      "granted": 3182,
      "Dig": 3183,
      "aur": 3184,
      "museum": 3185,
      "competition": 3186,
      "More": 3187,
      "300": 3188,
      "Eli": 3189,
      "LE": 3190,
      "Mc": 3191,
      "onom": 3192,
      "burg": 3193,
      "assist": 3194,
      "content": 3195,
      "holds": 3196,
      "zon": 3197,
      "below": 3198,
      "cting": 3199,
      "failed": 3200,
      "Br": 3201,
      "operation": 3202,
      "44": 3203,
      "motor": 3204,
      "idea": 3205,
      "you": 3206,
      "Plym": 3207,
      "brain": 3208,
      "winter": 3209,
      "Station": 3210,
      "180": 3211,
      "creation": 3212,
      "Despite": 3213,
      "atre": 3214,
      "1970s": 3215,
      "female": 3216,
      "Kerry": 3217,
      "degree": 3218,
      "reduced": 3219,
      "aled": 3220,
      "poly": 3221,
      "Democr": 3222,
      "covery": 3223,
      "decided": 3224,
      "decision": 3225,
      "umn": 3226,
      "residents": 3227,
      "ieve": 3228,
      "Protestant": 3229,
      "migration": 3230,
      "EU": 3231,
      "hism": 3232,
      "product": 3233,
      "behind": 3234,
      "matter": 3235,
      "percentage": 3236,
      "copy": 3237,
      "families": 3238,
      "2002": 3239,
      "applied": 3240,
      "argued": 3241,
      "sense": 3242,
      "ume": 3243,
      "Albert": 3244,
      "sembly": 3245,
      "sus": 3246,
      "perman": 3247,
      "match": 3248,
      "cro": 3249,
      "shif": 3250,
      "additional": 3251,
      "49": 3252,
      "Tra": 3253,
      "belief": 3254,
      "fra": 3255,
      "bell": 3256,
      "phy": 3257,
      "question": 3258,
      "invasion": 3259,
      "Francis": 3260,
      "effects": 3261,
      "Irish": 3262,
      "rative": 3263,
      "Nations": 3264,
      "immediate": 3265,
      "speaking": 3266,
      "roun": 3267,
      "Jo": 3268,
      "mond": 3269,
      "specif": 3270,
      "prob": 3271,
      "copper": 3272,
      "territories": 3273,
      "Mil": 3274,
      "People": 3275,
      "disease": 3276,
      "Richard": 3277,
      "citizens": 3278,
      "controlled": 3279,
      "young": 3280,
      "conver": 3281,
      "ita": 3282,
      "tel": 3283,
      "ruled": 3284,
      "fish": 3285,
      "maintain": 3286,
      "bacteria": 3287,
      "David": 3288,
      "cere": 3289,
      "von": 3290,
      "find": 3291,
      "Department": 3292,
      "medical": 3293,
      "impact": 3294,
      "Sim": 3295,
      "rated": 3296,
      "iation": 3297,
      "quant": 3298,
      "definition": 3299,
      "Imperial": 3300,
      "electron": 3301,
      "mathem": 3302,
      "noted": 3303,
      "extreme": 3304,
      "Government": 3305,
      "digital": 3306,
      "soldiers": 3307,
      "Mich": 3308,
      "conserv": 3309,
      "multiple": 3310,
      "ito": 3311,
      "taking": 3312,
      "Mor": 3313,
      "psy": 3314,
      "respond": 3315,
      "But": 3316,
      "wides": 3317,
      "acu": 3318,
      "advant": 3319,
      "Jesus": 3320,
      "gained": 3321,
      "attacks": 3322,
      "solar": 3323,
      "improve": 3324,
      "Pat": 3325,
      "resour": 3326,
      "newsp": 3327,
      "Soci": 3328,
      "spoken": 3329,
      "dies": 3330,
      "brother": 3331,
      "purpose": 3332,
      "ugal": 3333,
      "Hell": 3334,
      "Hol": 3335,
      "itness": 3336,
      "limit": 3337,
      "aging": 3338,
      "location": 3339,
      "colonial": 3340,
      "activities": 3341,
      "Football": 3342,
      "Sever": 3343,
      "Ange": 3344,
      "metal": 3345,
      "direction": 3346,
      "eas": 3347,
      "osp": 3348,
      "pet": 3349,
      "da": 3350,
      "bring": 3351,
      "Because": 3352,
      "therefore": 3353,
      "cotton": 3354,
      "circ": 3355,
      "Gro": 3356,
      "bra": 3357,
      "fourth": 3358,
      "iP": 3359,
      "implement": 3360,
      "continue": 3361,
      "sun": 3362,
      "province": 3363,
      "mitted": 3364,
      "initially": 3365,
      "mut": 3366,
      "star": 3367,
      "allows": 3368,
      "devices": 3369,
      "Green": 3370,
      "ament": 3371,
      "joined": 3372,
      "itch": 3373,
      "achiev": 3374,
      "faith": 3375,
      "Mag": 3376,
      "mole": 3377,
      "visions": 3378,
      "grew": 3379,
      "sac": 3380,
      "itzer": 3381,
      "Liby": 3382,
      "Korea": 3383,
      "Premier": 3384,
      "iang": 3385,
      "shall": 3386,
      "Miami": 3387,
      "code": 3388,
      "try": 3389,
      "pie": 3390,
      "reign": 3391,
      "ivity": 3392,
      "consists": 3393,
      "store": 3394,
      "va": 3395,
      "leaders": 3396,
      "believe": 3397,
      "contemporary": 3398,
      "whole": 3399,
      "clubs": 3400,
      "extensive": 3401,
      "giving": 3402,
      "Apollo": 3403,
      "ave": 3404,
      "Bill": 3405,
      "llig": 3406,
      "Pl": 3407,
      "Class": 3408,
      "Mod": 3409,
      "Turk": 3410,
      "oples": 3411,
      "block": 3412,
      "settlement": 3413,
      "Bl": 3414,
      "expl": 3415,
      "Civil": 3416,
      "antib": 3417,
      "bomb": 3418,
      "mill": 3419,
      "note": 3420,
      "Scott": 3421,
      "crisis": 3422,
      "mir": 3423,
      "Div": 3424,
      "achieve": 3425,
      "films": 3426,
      "derived": 3427,
      "possess": 3428,
      "expla": 3429,
      "blood": 3430,
      "400": 3431,
      "format": 3432,
      "Portugal": 3433,
      "story": 3434,
      "ounds": 3435,
      "Orthodox": 3436,
      "script": 3437,
      "step": 3438,
      "Sir": 3439,
      "eties": 3440,
      "featured": 3441,
      "1990s": 3442,
      "shows": 3443,
      "represented": 3444,
      "sports": 3445,
      "organisms": 3446,
      "Diego": 3447,
      "38": 3448,
      "BM": 3449,
      "supply": 3450,
      "officials": 3451,
      "widespread": 3452,
      "extra": 3453,
      "identified": 3454,
      "continent": 3455,
      "ios": 3456,
      "exhib": 3457,
      "sha": 3458,
      "desc": 3459,
      "running": 3460,
      "36": 3461,
      "Tele": 3462,
      "igation": 3463,
      "render": 3464,
      "examples": 3465,
      "quickly": 3466,
      "secondary": 3467,
      "results": 3468,
      "provides": 3469,
      "Detro": 3470,
      "ying": 3471,
      "equip": 3472,
      "Secret": 3473,
      "rules": 3474,
      "greg": 3475,
      "mas": 3476,
      "volt": 3477,
      "fill": 3478,
      "ening": 3479,
      "Frank": 3480,
      "training": 3481,
      "Detroit": 3482,
      "conqu": 3483,
      "destroyed": 3484,
      "iot": 3485,
      "78": 3486,
      "amed": 3487,
      "expanded": 3488,
      "DS": 3489,
      "aves": 3490,
      "expected": 3491,
      "sat": 3492,
      "Plymouth": 3493,
      "Asian": 3494,
      "bot": 3495,
      "distinct": 3496,
      "consum": 3497,
      "32": 3498,
      "anced": 3499,
      "property": 3500,
      "Avenue": 3501,
      "section": 3502,
      "affil": 3503,
      "friend": 3504,
      "defeat": 3505,
      "weak": 3506,
      "grand": 3507,
      "Force": 3508,
      "composed": 3509,
      "Over": 3510,
      "wise": 3511,
      "hap": 3512,
      "element": 3513,
      "charge": 3514,
      "Florida": 3515,
      "mes": 3516,
      "Islands": 3517,
      "inn": 3518,
      "peoples": 3519,
      "songs": 3520,
      "bri": 3521,
      "sales": 3522,
      "college": 3523,
      "Tibetan": 3524,
      "sover": 3525,
      "Jer": 3526,
      "quake": 3527,
      "Several": 3528,
      "iPod": 3529,
      "quarters": 3530,
      "Lord": 3531,
      "older": 3532,
      "bank": 3533,
      "nar": 3534,
      "rare": 3535,
      "chloroplast": 3536,
      "resistance": 3537,
      "relations": 3538,
      "46": 3539,
      "bish": 3540,
      "ey": 3541,
      "mixed": 3542,
      "ville": 3543,
      "custom": 3544,
      "enter": 3545,
      "basic": 3546,
      "pir": 3547,
      "CE": 3548,
      "contest": 3549,
      "Universal": 3550,
      "ampton": 3551,
      "existence": 3552,
      "Pla": 3553,
      "places": 3554,
      "views": 3555,
      "fields": 3556,
      "Doctor": 3557,
      "BBC": 3558,
      "Cal": 3559,
      "Lab": 3560,
      "metropolitan": 3561,
      "medic": 3562,
      "doctr": 3563,
      "1960s": 3564,
      "decline": 3565,
      "audio": 3566,
      "Niger": 3567,
      "SA": 3568,
      "peak": 3569,
      "playing": 3570,
      "worked": 3571,
      "colonies": 3572,
      "necessary": 3573,
      "minority": 3574,
      "orial": 3575,
      "divers": 3576,
      "lers": 3577,
      "shown": 3578,
      "memory": 3579,
      "wear": 3580,
      "atest": 3581,
      "eign": 3582,
      "address": 3583,
      "Switzer": 3584,
      "blue": 3585,
      "illa": 3586,
      "gaz": 3587,
      "favor": 3588,
      "Sha": 3589,
      "You": 3590,
      "vice": 3591,
      "despite": 3592,
      "goal": 3593,
      "true": 3594,
      "ero": 3595,
      "prominent": 3596,
      "vary": 3597,
      "oph": 3598,
      "racial": 3599,
      "respectively": 3600,
      "internal": 3601,
      "ception": 3602,
      "combined": 3603,
      "animal": 3604,
      "install": 3605,
      "occupied": 3606,
      "phal": 3607,
      "Switzerland": 3608,
      "offered": 3609,
      "Acade": 3610,
      "geograph": 3611,
      "cles": 3612,
      "prison": 3613,
      "Hay": 3614,
      "Ming": 3615,
      "meant": 3616,
      "carried": 3617,
      "gla": 3618,
      "exclus": 3619,
      "rising": 3620,
      "34": 3621,
      "heart": 3622,
      "aught": 3623,
      "onic": 3624,
      "differences": 3625,
      "methods": 3626,
      "freed": 3627,
      "enough": 3628,
      "ark": 3629,
      "adoles": 3630,
      "focus": 3631,
      "symbol": 3632,
      "Pub": 3633,
      "rary": 3634,
      "points": 3635,
      "Cam": 3636,
      "oral": 3637,
      "compar": 3638,
      "allowing": 3639,
      "District": 3640,
      "philosoph": 3641,
      "Palace": 3642,
      "increasingly": 3643,
      "nut": 3644,
      "thed": 3645,
      "els": 3646,
      "neighborhood": 3647,
      "demo": 3648,
      "issued": 3649,
      "Two": 3650,
      "ti": 3651,
      "recognized": 3652,
      "Bronx": 3653,
      "weap": 3654,
      "Sen": 3655,
      "Catal": 3656,
      "Play": 3657,
      "distingu": 3658,
      "generation": 3659,
      "feed": 3660,
      "simple": 3661,
      "remaining": 3662,
      "dogs": 3663,
      "Hellen": 3664,
      "provin": 3665,
      "adel": 3666,
      "System": 3667,
      "ders": 3668,
      "room": 3669,
      "Poland": 3670,
      "practices": 3671,
      "thousands": 3672,
      "Tem": 3673,
      "zone": 3674,
      "parliament": 3675,
      "Armenian": 3676,
      "reve": 3677,
      "intended": 3678,
      "olin": 3679,
      "Prussia": 3680,
      "99": 3681,
      "Dell": 3682,
      "mm": 3683,
      "opt": 3684,
      "atell": 3685,
      "critical": 3686,
      "corre": 3687,
      "37": 3688,
      "ensity": 3689,
      "frequently": 3690,
      "Olympic": 3691,
      "Society": 3692,
      "Cap": 3693,
      "Ken": 3694,
      "bridge": 3695,
      "dance": 3696,
      "pul": 3697,
      "Def": 3698,
      "IS": 3699,
      "icip": 3700,
      "ises": 3701,
      "workers": 3702,
      "makes": 3703,
      "libr": 3704,
      "genetic": 3705,
      "turned": 3706,
      "recently": 3707,
      "hun": 3708,
      "colla": 3709,
      "Braz": 3710,
      "constru": 3711,
      "magaz": 3712,
      "Both": 3713,
      "dram": 3714,
      "die": 3715,
      "Mass": 3716,
      "usion": 3717,
      "rick": 3718,
      "ka": 3719,
      "contract": 3720,
      "indigen": 3721,
      "starting": 3722,
      "planned": 3723,
      "card": 3724,
      "edition": 3725,
      "Buddhism": 3726,
      "Gold": 3727,
      "Idol": 3728,
      "tend": 3729,
      "Best": 3730,
      "detail": 3731,
      "Ash": 3732,
      "downtown": 3733,
      "Delhi": 3734,
      "attra": 3735,
      "job": 3736,
      "ciences": 3737,
      "operating": 3738,
      "letter": 3739,
      "Tuc": 3740,
      "anthropolog": 3741,
      "preser": 3742,
      "Sol": 3743,
      "efforts": 3744,
      "hua": 3745,
      "azi": 3746,
      "indigenous": 3747,
      "unit": 3748,
      "worth": 3749,
      "plays": 3750,
      "captured": 3751,
      "victory": 3752,
      "closed": 3753,
      "texts": 3754,
      "effective": 3755,
      "cluded": 3756,
      "Sax": 3757,
      "decade": 3758,
      "constant": 3759,
      "temperatures": 3760,
      "beyond": 3761,
      "spring": 3762,
      "organizations": 3763,
      "Tucson": 3764,
      "carbon": 3765,
      "extended": 3766,
      "refused": 3767,
      "ospital": 3768,
      "security": 3769,
      "Seattle": 3770,
      "materials": 3771,
      "executive": 3772,
      "55": 3773,
      "Mart": 3774,
      "antenna": 3775,
      "ively": 3776,
      "47": 3777,
      "Bas": 3778,
      "environment": 3779,
      "yet": 3780,
      "controvers": 3781,
      "Valenci": 3782,
      "capacity": 3783,
      "IV": 3784,
      "ils": 3785,
      "cultures": 3786,
      "decis": 3787,
      "Southampton": 3788,
      "branch": 3789,
      "folk": 3790,
      "leges": 3791,
      "instance": 3792,
      "document": 3793,
      "cide": 3794,
      "accepted": 3795,
      "Den": 3796,
      "aper": 3797,
      "cha": 3798,
      "establishment": 3799,
      "insects": 3800,
      "marri": 3801,
      "39": 3802,
      "Oper": 3803,
      "spl": 3804,
      "Cha": 3805,
      "Histor": 3806,
      "nuclear": 3807,
      "Cr": 3808,
      "developing": 3809,
      "interpret": 3810,
      "Rock": 3811,
      "imin": 3812,
      "historic": 3813,
      "ulf": 3814,
      "opposed": 3815,
      "Ages": 3816,
      "belong": 3817,
      "sought": 3818,
      "icated": 3819,
      "cript": 3820,
      "Airport": 3821,
      "transition": 3822,
      "zinc": 3823,
      "appearance": 3824,
      "PA": 3825,
      "sector": 3826,
      "reduce": 3827,
      "article": 3828,
      "measure": 3829,
      "Hel": 3830,
      "Mem": 3831,
      "department": 3832,
      "wrest": 3833,
      "phone": 3834,
      "governments": 3835,
      "elections": 3836,
      "paid": 3837,
      "heat": 3838,
      "receive": 3839,
      "listed": 3840,
      "slow": 3841,
      "standards": 3842,
      ".)": 3843,
      "epis": 3844,
      "pack": 3845,
      "tin": 3846,
      "Commit": 3847,
      "organized": 3848,
      "rea": 3849,
      "mention": 3850,
      "Nanjing": 3851,
      "vard": 3852,
      "county": 3853,
      "tribes": 3854,
      "uranium": 3855,
      "Darwin": 3856,
      "done": 3857,
      "ately": 3858,
      "1990": 3859,
      "Gl": 3860,
      "Byz": 3861,
      "Scotland": 3862,
      "Cro": 3863,
      "suffered": 3864,
      "serious": 3865,
      "Byzant": 3866,
      "Pope": 3867,
      "psych": 3868,
      "mel": 3869,
      "academic": 3870,
      "hot": 3871,
      "33": 3872,
      "Hill": 3873,
      "fell": 3874,
      "player": 3875,
      "ceremon": 3876,
      "sovereign": 3877,
      "phase": 3878,
      "Egyptian": 3879,
      "wal": 3880,
      "abol": 3881,
      "div": 3882,
      "pharma": 3883,
      "prefer": 3884,
      "dollar": 3885,
      "nob": 3886,
      "1991": 3887,
      "entered": 3888,
      "publish": 3889,
      "novel": 3890,
      "substant": 3891,
      "observ": 3892,
      "Australian": 3893,
      "burn": 3894,
      "attend": 3895,
      "finally": 3896,
      "inking": 3897,
      "deep": 3898,
      "Christians": 3899,
      "Qing": 3900,
      "mountain": 3901,
      "Whitehead": 3902,
      "management": 3903,
      "chall": 3904,
      "castle": 3905,
      "absor": 3906,
      "Ze": 3907,
      "atom": 3908,
      "secret": 3909,
      "Recor": 3910,
      "Mah": 3911,
      "Os": 3912,
      "eks": 3913,
      "los": 3914,
      "factors": 3915,
      "communication": 3916,
      "Rad": 3917,
      "Rus": 3918,
      "Sm": 3919,
      "LED": 3920,
      "unique": 3921,
      "minim": 3922,
      "avoid": 3923,
      "abad": 3924,
      "importance": 3925,
      "yards": 3926,
      "Thus": 3927,
      "classes": 3928,
      "Time": 3929,
      "sets": 3930,
      "kept": 3931,
      "lling": 3932,
      "ysis": 3933,
      "genes": 3934,
      "attempted": 3935,
      "SR": 3936,
      "vic": 3937,
      "suit": 3938,
      "ables": 3939,
      "instruments": 3940,
      "wing": 3941,
      "else": 3942,
      "ays": 3943,
      "flight": 3944,
      "surroun": 3945,
      "reasons": 3946,
      "regarded": 3947,
      "Armenia": 3948,
      "ager": 3949,
      "ange": 3950,
      "Christianity": 3951,
      "graduate": 3952,
      "uris": 3953,
      "aded": 3954,
      "permanent": 3955,
      "wind": 3956,
      "gency": 3957,
      "settled": 3958,
      "upper": 3959,
      "Also": 3960,
      "objects": 3961,
      "principle": 3962,
      "ware": 3963,
      "Bei": 3964,
      "learning": 3965,
      "magne": 3966,
      "mathemat": 3967,
      "opening": 3968,
      "scre": 3969,
      "phon": 3970,
      "km2": 3971,
      "dialect": 3972,
      "speech": 3973,
      "dialects": 3974,
      "showed": 3975,
      "kin": 3976,
      "male": 3977,
      "attribut": 3978,
      "decades": 3979,
      "immune": 3980,
      "nes": 3981,
      "remo": 3982,
      "intend": 3983,
      "married": 3984,
      "150": 3985,
      "Sa": 3986,
      "iron": 3987,
      "weight": 3988,
      "portun": 3989,
      "council": 3990,
      "satell": 3991,
      "ini": 3992,
      "reform": 3993,
      "maxim": 3994,
      "oding": 3995,
      "Muslims": 3996,
      "Austria": 3997,
      "Modern": 3998,
      "stra": 3999,
      "preci": 4000,
      "Burke": 4001,
      "Cze": 4002,
      "Trans": 4003,
      "chos": 4004,
      "emot": 4005,
      "gment": 4006,
      "positive": 4007,
      "phe": 4008,
      "replace": 4009,
      "refle": 4010,
      "Cast": 4011,
      "DP": 4012,
      "risk": 4013,
      "structures": 4014,
      "snow": 4015,
      "electro": 4016,
      "Book": 4017,
      "sequence": 4018,
      "rupt": 4019,
      "Richmond": 4020,
      "Festival": 4021,
      "spirit": 4022,
      "zy": 4023,
      "toward": 4024,
      "equal": 4025,
      "rating": 4026,
      "onto": 4027,
      "amb": 4028,
      "teaching": 4029,
      "1999": 4030,
      "hum": 4031,
      "nomin": 4032,
      "itude": 4033,
      "seasons": 4034,
      "Republican": 4035,
      "probably": 4036,
      "Kar": 4037,
      "traffic": 4038,
      "meeting": 4039,
      "negative": 4040,
      "ule": 4041,
      "viewed": 4042,
      "steam": 4043,
      "constitutional": 4044,
      "resources": 4045,
      "core": 4046,
      "Their": 4047,
      "park": 4048,
      "influential": 4049,
      "villa": 4050,
      "migrants": 4051,
      "theless": 4052,
      "simply": 4053,
      "significantly": 4054,
      "Estonia": 4055,
      "fast": 4056,
      "tru": 4057,
      "Command": 4058,
      "Brazil": 4059,
      "Ham": 4060,
      "oman": 4061,
      "emerged": 4062,
      "bin": 4063,
      "95": 4064,
      "Ty": 4065,
      "decor": 4066,
      "medieval": 4067,
      "passeng": 4068,
      "dem": 4069,
      "artist": 4070,
      "pron": 4071,
      "Greeks": 4072,
      "subsequent": 4073,
      "relay": 4074,
      "greatest": 4075,
      "connected": 4076,
      "Human": 4077,
      "protect": 4078,
      "dominant": 4079,
      "Dan": 4080,
      "ulation": 4081,
      "17th": 4082,
      "zh": 4083,
      "66": 4084,
      "here": 4085,
      "178": 4086,
      "USB": 4087,
      "damage": 4088,
      "understanding": 4089,
      "officers": 4090,
      "ruption": 4091,
      "advantage": 4092,
      "opposition": 4093,
      "labour": 4094,
      "comment": 4095,
      "Antar": 4096,
      "Prussian": 4097,
      "Alexander": 4098,
      "constructed": 4099,
      "Bet": 4100,
      "oft": 4101,
      "actually": 4102,
      "achieved": 4103,
      "Santa": 4104,
      "ont": 4105,
      "debut": 4106,
      "phia": 4107,
      "protection": 4108,
      "diversity": 4109,
      "HD": 4110,
      "device": 4111,
      "opportun": 4112,
      "Ann": 4113,
      "ceeded": 4114,
      "surrounding": 4115,
      "42": 4116,
      "Elect": 4117,
      "creating": 4118,
      "request": 4119,
      "dominated": 4120,
      "candid": 4121,
      "Ben": 4122,
      "andon": 4123,
      "resident": 4124,
      "Four": 4125,
      "gent": 4126,
      "wer": 4127,
      "yl": 4128,
      "inhabit": 4129,
      "Techn": 4130,
      "look": 4131,
      "gene": 4132,
      "minister": 4133,
      "ennes": 4134,
      "VI": 4135,
      "overall": 4136,
      "insula": 4137,
      "ternal": 4138,
      "sym": 4139,
      "kings": 4140,
      "Joseph": 4141,
      "initial": 4142,
      "arrest": 4143,
      "image": 4144,
      "build": 4145,
      "1989": 4146,
      "Philadel": 4147,
      "thesis": 4148,
      "ideal": 4149,
      "pression": 4150,
      "Internet": 4151,
      "olf": 4152,
      "Ind": 4153,
      "news": 4154,
      "sched": 4155,
      "components": 4156,
      "ode": 4157,
      "tur": 4158,
      "movements": 4159,
      "infra": 4160,
      "completely": 4161,
      "Bern": 4162,
      "coal": 4163,
      "Constant": 4164,
      "Philadelphia": 4165,
      "Academy": 4166,
      "ael": 4167,
      "iques": 4168,
      "selling": 4169,
      "Later": 4170,
      "feel": 4171,
      "courts": 4172,
      "icles": 4173,
      "compress": 4174,
      "suggested": 4175,
      "vation": 4176,
      "inj": 4177,
      "itation": 4178,
      "vey": 4179,
      "weeks": 4180,
      "authorities": 4181,
      "teenth": 4182,
      "awarded": 4183,
      "things": 4184,
      "Edward": 4185,
      "existing": 4186,
      "nd": 4187,
      "Lee": 4188,
      "lighten": 4189,
      "1920": 4190,
      "forming": 4191,
      "ureau": 4192,
      "route": 4193,
      "Yuan": 4194,
      "vast": 4195,
      "heav": 4196,
      "beer": 4197,
      "Secretary": 4198,
      "Domin": 4199,
      "wild": 4200,
      "oted": 4201,
      "Ob": 4202,
      "Quran": 4203,
      "pap": 4204,
      "inno": 4205,
      "propos": 4206,
      "notably": 4207,
      "disci": 4208,
      "1997": 4209,
      "severe": 4210,
      "incorporated": 4211,
      "iency": 4212,
      "zo": 4213,
      "Prime": 4214,
      "ceived": 4215,
      "lie": 4216,
      "attention": 4217,
      "ordered": 4218,
      "multi": 4219,
      "pian": 4220,
      "Fore": 4221,
      "cation": 4222,
      "wan": 4223,
      "AS": 4224,
      "plans": 4225,
      "closely": 4226,
      "acquired": 4227,
      "evolved": 4228,
      "lightenment": 4229,
      "EC": 4230,
      "dead": 4231,
      "byter": 4232,
      "uty": 4233,
      "predict": 4234,
      "isol": 4235,
      "amic": 4236,
      "Organ": 4237,
      "wave": 4238,
      "beth": 4239,
      "airport": 4240,
      "intellig": 4241,
      "Eliza": 4242,
      "Game": 4243,
      "scholar": 4244,
      "situation": 4245,
      "Go": 4246,
      "Ocean": 4247,
      "Group": 4248,
      "allo": 4249,
      "strength": 4250,
      "BI": 4251,
      "Sat": 4252,
      "consu": 4253,
      "operated": 4254,
      "greatly": 4255,
      "marriage": 4256,
      "dated": 4257,
      "fran": 4258,
      "exer": 4259,
      "Ba": 4260,
      "pse": 4261,
      "claims": 4262,
      "negot": 4263,
      "Tito": 4264,
      "sl": 4265,
      "signal": 4266,
      "housing": 4267,
      "Sand": 4268,
      "liver": 4269,
      "osis": 4270,
      "1998": 4271,
      "towns": 4272,
      "policies": 4273,
      "affected": 4274,
      "Edu": 4275,
      "veh": 4276,
      "strateg": 4277,
      "effort": 4278,
      "ield": 4279,
      "advanced": 4280,
      "maintained": 4281,
      "table": 4282,
      "Along": 4283,
      "alternative": 4284,
      "krit": 4285,
      "Tr": 4286,
      "Year": 4287,
      "institution": 4288,
      "alone": 4289,
      "Virginia": 4290,
      "treatment": 4291,
      "applications": 4292,
      "Up": 4293,
      "extin": 4294,
      "hydrogen": 4295,
      "Scottish": 4296,
      "Di": 4297,
      "traditions": 4298,
      "ji": 4299,
      "mers": 4300,
      "cycle": 4301,
      "dependent": 4302,
      "Spiel": 4303,
      "intel": 4304,
      "circu": 4305,
      "describe": 4306,
      "Mexican": 4307,
      "Jacks": 4308,
      "PS": 4309,
      "removed": 4310,
      "ads": 4311,
      "Like": 4312,
      "Slavic": 4313,
      "Goth": 4314,
      "Land": 4315,
      "bird": 4316,
      "thir": 4317,
      "ope": 4318,
      "contact": 4319,
      "600": 4320,
      "Dire": 4321,
      "Mark": 4322,
      "Spielberg": 4323,
      "intellect": 4324,
      "Science": 4325,
      "depict": 4326,
      "Swiss": 4327,
      "ridge": 4328,
      "Mid": 4329,
      "ses": 4330,
      "rot": 4331,
      "profit": 4332,
      "defense": 4333,
      "gradually": 4334,
      "punk": 4335,
      "Persian": 4336,
      "Jackson": 4337,
      "Ira": 4338,
      "renew": 4339,
      "earch": 4340,
      "breed": 4341,
      "Among": 4342,
      "Turkish": 4343,
      "batt": 4344,
      "ners": 4345,
      "stay": 4346,
      "stores": 4347,
      "Bapt": 4348,
      "Further": 4349,
      "ada": 4350,
      "istry": 4351,
      "formally": 4352,
      "poet": 4353,
      "Marshall": 4354,
      "career": 4355,
      "Los": 4356,
      "ki": 4357,
      "champion": 4358,
      "lock": 4359,
      "determined": 4360,
      "daily": 4361,
      "newly": 4362,
      "frequency": 4363,
      "thedral": 4364,
      "Sans": 4365,
      "Early": 4366,
      "alleg": 4367,
      "entially": 4368,
      "degre": 4369,
      "abandon": 4370,
      "gue": 4371,
      "presented": 4372,
      "Committee": 4373,
      "degrees": 4374,
      "touch": 4375,
      "Pak": 4376,
      "proved": 4377,
      "subs": 4378,
      "going": 4379,
      "powerful": 4380,
      "municip": 4381,
      "transmit": 4382,
      "refers": 4383,
      "providing": 4384,
      "fficient": 4385,
      "networ": 4386,
      "subsequently": 4387,
      "Public": 4388,
      "43": 4389,
      "wanted": 4390,
      "celon": 4391,
      "BCE": 4392,
      "ardi": 4393,
      "cracy": 4394,
      "Freder": 4395,
      "Records": 4396,
      "68": 4397,
      "fair": 4398,
      "Norman": 4399,
      "administrative": 4400,
      "tons": 4401,
      "alty": 4402,
      "preced": 4403,
      "earthquake": 4404,
      "distribution": 4405,
      "inher": 4406,
      "commission": 4407,
      "lingu": 4408,
      "Barcelon": 4409,
      "Barcelona": 4410,
      "insp": 4411,
      "gall": 4412,
      "ogen": 4413,
      "prey": 4414,
      "porters": 4415,
      "headquarters": 4416,
      "scientists": 4417,
      "Holy": 4418,
      "operate": 4419,
      "normal": 4420,
      "Nintend": 4421,
      "Rel": 4422,
      "Tod": 4423,
      "split": 4424,
      "lamp": 4425,
      "rd": 4426,
      "thetic": 4427,
      "ira": 4428,
      "formerly": 4429,
      "Tex": 4430,
      "armed": 4431,
      "attan": 4432,
      "strugg": 4433,
      "winning": 4434,
      "Hyder": 4435,
      "Justice": 4436,
      "Iraq": 4437,
      "Lake": 4438,
      "rejected": 4439,
      "16th": 4440,
      "slaves": 4441,
      "Chief": 4442,
      "visible": 4443,
      "tried": 4444,
      "Nintendo": 4445,
      "shared": 4446,
      "electrical": 4447,
      "classified": 4448,
      "Governor": 4449,
      "Korean": 4450,
      "pi": 4451,
      "assu": 4452,
      "bodies": 4453,
      "ancestry": 4454,
      "roughly": 4455,
      "supp": 4456,
      "Men": 4457,
      "Metro": 4458,
      "exchange": 4459,
      "union": 4460,
      "ranean": 4461,
      "machine": 4462,
      "Broad": 4463,
      "Sto": 4464,
      "fare": 4465,
      "feet": 4466,
      "bute": 4467,
      "application": 4468,
      "users": 4469,
      "plom": 4470,
      "values": 4471,
      "mandolin": 4472,
      "facilities": 4473,
      "characteristics": 4474,
      "eneg": 4475,
      "izes": 4476,
      "Newcastle": 4477,
      "1950s": 4478,
      "Arabic": 4479,
      "conducted": 4480,
      "floor": 4481,
      "iting": 4482,
      "ibly": 4483,
      "chester": 4484,
      "orientation": 4485,
      "foot": 4486,
      "fought": 4487,
      "oslav": 4488,
      "join": 4489,
      "CO": 4490,
      "til": 4491,
      "recomm": 4492,
      "Georg": 4493,
      "Nether": 4494,
      "correct": 4495,
      "sport": 4496,
      "woman": 4497,
      "ertain": 4498,
      "employed": 4499,
      "fifth": 4500,
      "magazine": 4501,
      "equipment": 4502,
      "discipl": 4503,
      "Free": 4504,
      "umen": 4505,
      "ensions": 4506,
      "Hispan": 4507,
      "literary": 4508,
      "arrived": 4509,
      "bill": 4510,
      "iding": 4511,
      "erson": 4512,
      "identify": 4513,
      "Charle": 4514,
      "saf": 4515,
      "itage": 4516,
      "takes": 4517,
      "iny": 4518,
      "adapt": 4519,
      "rival": 4520,
      "ached": 4521,
      "Somali": 4522,
      "frame": 4523,
      "Ele": 4524,
      "Hung": 4525,
      "Kath": 4526,
      "Studi": 4527,
      "arent": 4528,
      "Hayek": 4529,
      "bud": 4530,
      "stress": 4531,
      "Alask": 4532,
      "holding": 4533,
      "properties": 4534,
      "accur": 4535,
      "Mountains": 4536,
      "Hyderabad": 4537,
      "vised": 4538,
      "titles": 4539,
      "vie": 4540,
      "BA": 4541,
      "CC": 4542,
      "enem": 4543,
      "extent": 4544,
      "successfully": 4545,
      "analysis": 4546,
      "Elizabeth": 4547,
      "98": 4548,
      "clock": 4549,
      "explo": 4550,
      "Valley": 4551,
      "liberal": 4552,
      "Sub": 4553,
      "census": 4554,
      "politics": 4555,
      "environmental": 4556,
      "Sanskrit": 4557,
      "Lod": 4558,
      "prus": 4559,
      "Arts": 4560,
      "visited": 4561,
      "approved": 4562,
      "techniques": 4563,
      "Club": 4564,
      "Cyprus": 4565,
      "iterranean": 4566,
      "brief": 4567,
      "Byzantine": 4568,
      "Each": 4569,
      "Tai": 4570,
      "Tennes": 4571,
      "strate": 4572,
      "virt": 4573,
      "Native": 4574,
      "Order": 4575,
      "runs": 4576,
      "autonom": 4577,
      "anne": 4578,
      "aran": 4579,
      "leaving": 4580,
      "iance": 4581,
      "popularity": 4582,
      "Tuvalu": 4583,
      "heavily": 4584,
      "NF": 4585,
      "borough": 4586,
      "orders": 4587,
      "Czech": 4588,
      "bann": 4589,
      "chron": 4590,
      "cies": 4591,
      "rapidly": 4592,
      "41": 4593,
      "essential": 4594,
      "journal": 4595,
      "Libya": 4596,
      "Pen": 4597,
      "Square": 4598,
      "daugh": 4599,
      "ec": 4600,
      "jun": 4601,
      "pical": 4602,
      "haps": 4603,
      "leadership": 4604,
      "defence": 4605,
      "target": 4606,
      "ees": 4607,
      "tun": 4608,
      "versions": 4609,
      "antibiot": 4610,
      "Bank": 4611,
      "Stadium": 4612,
      "governor": 4613,
      "unds": 4614,
      "Three": 4615,
      "functions": 4616,
      "iest": 4617,
      "diplom": 4618,
      "itionally": 4619,
      "pursu": 4620,
      "umin": 4621,
      "Assembly": 4622,
      "1996": 4623,
      "factor": 4624,
      "ff": 4625,
      "poses": 4626,
      "Berm": 4627,
      "Don": 4628,
      "wife": 4629,
      "Through": 4630,
      "causes": 4631,
      "dates": 4632,
      "contributed": 4633,
      "clothing": 4634,
      "Raj": 4635,
      "projects": 4636,
      "spent": 4637,
      "FBI": 4638,
      "juris": 4639,
      "pure": 4640,
      "vacu": 4641,
      "bands": 4642,
      "Viet": 4643,
      "Lib": 4644,
      "XX": 4645,
      "director": 4646,
      "banks": 4647,
      "Tennessee": 4648,
      "ola": 4649,
      "ulated": 4650,
      "emperor": 4651,
      "Presbyter": 4652,
      "Confeder": 4653,
      "Mediterranean": 4654,
      "actual": 4655,
      "equival": 4656,
      "figures": 4657,
      "Office": 4658,
      "san": 4659,
      "edon": 4660,
      "aters": 4661,
      "stries": 4662,
      "sust": 4663,
      "milit": 4664,
      "continues": 4665,
      "patent": 4666,
      "master": 4667,
      "price": 4668,
      "issance": 4669,
      "inspired": 4670,
      "cise": 4671,
      "theories": 4672,
      "iment": 4673,
      "letters": 4674,
      "sed": 4675,
      "iced": 4676,
      "rent": 4677,
      "poll": 4678,
      "joy": 4679,
      "freedom": 4680,
      "conquest": 4681,
      "diverse": 4682,
      "inside": 4683,
      "175": 4684,
      "Research": 4685,
      "manufacturing": 4686,
      "AA": 4687,
      "ography": 4688,
      "newspaper": 4689,
      "inhabitants": 4690,
      "depart": 4691,
      "producing": 4692,
      "kilomet": 4693,
      "Democratic": 4694,
      "weapons": 4695,
      "umann": 4696,
      "neut": 4697,
      "cutive": 4698,
      "occurs": 4699,
      "Division": 4700,
      "Leg": 4701,
      "Social": 4702,
      "targe": 4703,
      "theore": 4704,
      "Arsen": 4705,
      "Macedon": 4706,
      "Dame": 4707,
      "Ga": 4708,
      "dete": 4709,
      "positions": 4710,
      "mur": 4711,
      "door": 4712,
      "oration": 4713,
      "acted": 4714,
      "moving": 4715,
      "ultimately": 4716,
      "joint": 4717,
      "Duke": 4718,
      "double": 4719,
      "apart": 4720,
      "twent": 4721,
      "cry": 4722,
      "osex": 4723,
      "adolescent": 4724,
      "Texas": 4725,
      "warz": 4726,
      "writers": 4727,
      "traditionally": 4728,
      "Major": 4729,
      "Pun": 4730,
      "Carn": 4731,
      "drug": 4732,
      "ellow": 4733,
      "Anglo": 4734,
      "studio": 4735,
      "physic": 4736,
      "regarding": 4737,
      "Today": 4738,
      "1994": 4739,
      "doctrine": 4740,
      "Pakistan": 4741,
      "osexual": 4742,
      "mom": 4743,
      "crime": 4744,
      "failure": 4745,
      "attacked": 4746,
      "BY": 4747,
      "Sky": 4748,
      "density": 4749,
      "tree": 4750,
      "ato": 4751,
      "atmos": 4752,
      "output": 4753,
      "64": 4754,
      "iary": 4755,
      "alp": 4756,
      "asc": 4757,
      "wars": 4758,
      "experienced": 4759,
      "Commonwealth": 4760,
      "Arsenal": 4761,
      "whereas": 4762,
      "Fil": 4763,
      "Tor": 4764,
      "dry": 4765,
      "seem": 4766,
      "Muham": 4767,
      "icas": 4768,
      "aste": 4769,
      "discrim": 4770,
      "Ant": 4771,
      "norm": 4772,
      "drive": 4773,
      "Somal": 4774,
      "licens": 4775,
      "magnetic": 4776,
      "aland": 4777,
      "arms": 4778,
      "elimin": 4779,
      "Enlightenment": 4780,
      "behavior": 4781,
      "ias": 4782,
      "think": 4783,
      "aser": 4784,
      "managed": 4785,
      "1992": 4786,
      "Long": 4787,
      "Win": 4788,
      "online": 4789,
      "requires": 4790,
      "channel": 4791,
      "entirely": 4792,
      "79": 4793,
      "Hindu": 4794,
      "Navy": 4795,
      "colony": 4796,
      "improved": 4797,
      "DC": 4798,
      "gi": 4799,
      "mod": 4800,
      "grounds": 4801,
      "principles": 4802,
      "converted": 4803,
      "descend": 4804,
      "broke": 4805,
      "occasion": 4806,
      "communications": 4807,
      "hall": 4808,
      "taught": 4809,
      "itors": 4810,
      "continental": 4811,
      "Schwarz": 4812,
      "MS": 4813,
      "usal": 4814,
      "allies": 4815,
      "chosen": 4816,
      "uge": 4817,
      "That": 4818,
      "introduction": 4819,
      "120": 4820,
      "thr": 4821,
      "Found": 4822,
      "TC": 4823,
      "BYU": 4824,
      "Mos": 4825,
      "ishes": 4826,
      "trading": 4827,
      "Method": 4828,
      "Song": 4829,
      "bio": 4830,
      "eg": 4831,
      "Buddhist": 4832,
      "intellectual": 4833,
      "Sur": 4834,
      "speakers": 4835,
      "expressed": 4836,
      "Netherlands": 4837,
      "Zh": 4838,
      "2016": 4839,
      "1970": 4840,
      "styles": 4841,
      "selection": 4842,
      "Tom": 4843,
      "dang": 4844,
      "venues": 4845,
      "difference": 4846,
      "Notre": 4847,
      "immediately": 4848,
      "maximum": 4849,
      "enegger": 4850,
      "Schwarzenegger": 4851,
      "Census": 4852,
      "rural": 4853,
      "user": 4854,
      "connection": 4855,
      "teachers": 4856,
      "Age": 4857,
      "Rail": 4858,
      "cycl": 4859,
      "reference": 4860,
      "storage": 4861,
      "extremely": 4862,
      "stood": 4863,
      "Child": 4864,
      "secular": 4865,
      "TO": 4866,
      "proto": 4867,
      "etc": 4868,
      "arden": 4869,
      "expensive": 4870,
      "educational": 4871,
      "legislation": 4872,
      "translation": 4873,
      "Vietnam": 4874,
      "fest": 4875,
      "component": 4876,
      "Camp": 4877,
      "Uk": 4878,
      "Xbox": 4879,
      "fuel": 4880,
      "imon": 4881,
      "Michael": 4882,
      "Gra": 4883,
      "Yug": 4884,
      "oul": 4885,
      "amental": 4886,
      "attract": 4887,
      "Catalan": 4888,
      "ii": 4889,
      "ween": 4890,
      "models": 4891,
      "drugs": 4892,
      "flag": 4893,
      "Pu": 4894,
      "rig": 4895,
      "omer": 4896,
      "discovery": 4897,
      "gor": 4898,
      "astron": 4899,
      "declined": 4900,
      "capable": 4901,
      "depending": 4902,
      "1940": 4903,
      "1945": 4904,
      "Between": 4905,
      "thers": 4906,
      "Romans": 4907,
      "parents": 4908,
      "Zealand": 4909,
      "Kathmand": 4910,
      "Yugoslav": 4911,
      "Bible": 4912,
      "Sing": 4913,
      "height": 4914,
      "serving": 4915,
      "library": 4916,
      "GDP": 4917,
      "rose": 4918,
      "1979": 4919,
      "Angeles": 4920,
      "Lan": 4921,
      "slight": 4922,
      "periods": 4923,
      "Add": 4924,
      "Hugu": 4925,
      "Education": 4926,
      "Gothic": 4927,
      "stadium": 4928,
      "Micros": 4929,
      "vacuum": 4930,
      "Muhammad": 4931,
      "OS": 4932,
      "mam": 4933,
      "encing": 4934,
      "udes": 4935,
      "Peter": 4936,
      "architectural": 4937,
      "Kathmandu": 4938,
      "ker": 4939,
      "movie": 4940,
      "shop": 4941,
      "missions": 4942,
      "switch": 4943,
      "combination": 4944,
      "satellite": 4945,
      "NES": 4946,
      "staff": 4947,
      "offices": 4948,
      "investig": 4949,
      "mentioned": 4950,
      "Awards": 4951,
      "Life": 4952,
      "slave": 4953,
      "provinces": 4954,
      "edy": 4955,
      "Though": 4956,
      "ologies": 4957,
      "Ari": 4958,
      "reforms": 4959,
      "ione": 4960,
      "concluded": 4961,
      "principal": 4962,
      "cab": 4963,
      "races": 4964,
      "Manh": 4965,
      "markets": 4966,
      "debate": 4967,
      "revealed": 4968,
      "Microsoft": 4969,
      "800": 4970,
      "Cur": 4971,
      "1995": 4972,
      "Germanic": 4973,
      "Southeast": 4974,
      "causing": 4975,
      "1988": 4976,
      "measures": 4977,
      "fighting": 4978,
      "mosaic": 4979,
      "Plan": 4980,
      "Champion": 4981,
      "Manhattan": 4982,
      "uration": 4983,
      "ado": 4984,
      "Brown": 4985,
      "uni": 4986,
      "paralle": 4987,
      "Columb": 4988,
      "gins": 4989,
      "resh": 4990,
      "rific": 4991,
      "Develop": 4992,
      "Swed": 4993,
      "asked": 4994,
      "concert": 4995,
      "cape": 4996,
      "Croat": 4997,
      "lig": 4998,
      "Martin": 4999,
      "ams": 5000,
      "etary": 5001,
      "invent": 5002,
      "reports": 5003,
      "alco": 5004,
      "Stand": 5005,
      "presents": 5006,
      "yard": 5007,
      "urai": 5008,
      "News": 5009,
      "Comcast": 5010,
      "deploy": 5011,
      "efficient": 5012,
      "Ashken": 5013,
      "Ver": 5014,
      "cool": 5015,
      "directed": 5016,
      "Germans": 5017,
      "silver": 5018,
      "fru": 5019,
      "stance": 5020,
      "judic": 5021,
      "pects": 5022,
      "advoc": 5023,
      "diction": 5024,
      "mess": 5025,
      "sufficient": 5026,
      "agriculture": 5027,
      "pm": 5028,
      "respect": 5029,
      "iverse": 5030,
      "Alaska": 5031,
      "Bon": 5032,
      "vit": 5033,
      "advert": 5034,
      "pool": 5035,
      "Newton": 5036,
      "apparent": 5037,
      "Nigeria": 5038,
      "drew": 5039,
      "naval": 5040,
      "pra": 5041,
      "republic": 5042,
      "sey": 5043,
      "lives": 5044,
      "brew": 5045,
      "bn": 5046,
      "din": 5047,
      "contained": 5048,
      "employment": 5049,
      "nels": 5050,
      "sites": 5051,
      "ano": 5052,
      "mind": 5053,
      "nearby": 5054,
      "exception": 5055,
      "roll": 5056,
      "firmed": 5057,
      "typical": 5058,
      "attempts": 5059,
      "electricity": 5060,
      "saying": 5061,
      "Ama": 5062,
      "Bus": 5063,
      "gir": 5064,
      "volume": 5065,
      "77": 5066,
      "biological": 5067,
      "involve": 5068,
      "nom": 5069,
      "Theatre": 5070,
      "crew": 5071,
      "producer": 5072,
      "relationships": 5073,
      "dedicated": 5074,
      "promoted": 5075,
      "2nd": 5076,
      "Road": 5077,
      "predomin": 5078,
      "focused": 5079,
      "honor": 5080,
      "Library": 5081,
      "shap": 5082,
      "marine": 5083,
      "tool": 5084,
      "transmission": 5085,
      "invented": 5086,
      "Manch": 5087,
      "Stat": 5088,
      "cules": 5089,
      "grade": 5090,
      "figure": 5091,
      "felt": 5092,
      "voltage": 5093,
      "85": 5094,
      "sq": 5095,
      "constitut": 5096,
      "revenue": 5097,
      "citizen": 5098,
      "IBM": 5099,
      "got": 5100,
      "processes": 5101,
      "Galic": 5102,
      "sides": 5103,
      "leave": 5104,
      "foundation": 5105,
      "audience": 5106,
      "seas": 5107,
      "ichuan": 5108,
      "disput": 5109,
      "annually": 5110,
      "distance": 5111,
      "originated": 5112,
      "distinction": 5113,
      "engineering": 5114,
      "Hong": 5115,
      "incess": 5116,
      "aph": 5117,
      "coastal": 5118,
      "repeated": 5119,
      "medicine": 5120,
      "review": 5121,
      "console": 5122,
      "phr": 5123,
      "mort": 5124,
      "proportion": 5125,
      "cable": 5126,
      "laid": 5127,
      "compounds": 5128,
      "Erit": 5129,
      "Sil": 5130,
      "ille": 5131,
      "retail": 5132,
      "appropri": 5133,
      "containing": 5134,
      "copyright": 5135,
      "conquered": 5136,
      "Nam": 5137,
      "iland": 5138,
      "solution": 5139,
      "fundamental": 5140,
      "Sony": 5141,
      "prep": 5142,
      "Arist": 5143,
      "serves": 5144,
      "Valencia": 5145,
      "Huguen": 5146,
      "arrange": 5147,
      "choice": 5148,
      "changing": 5149,
      "dropped": 5150,
      "ience": 5151,
      "abilities": 5152,
      "ounder": 5153,
      "Iranian": 5154,
      "Net": 5155,
      "Rena": 5156,
      "pair": 5157,
      "setting": 5158,
      "oxide": 5159,
      "networks": 5160,
      "Mill": 5161,
      "Tower": 5162,
      "Wales": 5163,
      "amin": 5164,
      "oppos": 5165,
      "emit": 5166,
      "demonstrated": 5167,
      "limits": 5168,
      "Beijing": 5169,
      "promot": 5170,
      "lowest": 5171,
      "kilometres": 5172,
      "haz": 5173,
      "marks": 5174,
      "credit": 5175,
      "consumption": 5176,
      "mere": 5177,
      "eries": 5178,
      "observed": 5179,
      "technical": 5180,
      "annel": 5181,
      "Health": 5182,
      "homes": 5183,
      "Power": 5184,
      "finding": 5185,
      "longest": 5186,
      "ju": 5187,
      "lu": 5188,
      "enforce": 5189,
      "advance": 5190,
      "Freem": 5191,
      "CBS": 5192,
      "stock": 5193,
      "gather": 5194,
      "Nept": 5195,
      "Neumann": 5196,
      "Dou": 5197,
      "renamed": 5198,
      "1985": 5199,
      "investment": 5200,
      "bury": 5201,
      "pher": 5202,
      "ultan": 5203,
      "external": 5204,
      "liqu": 5205,
      "collabor": 5206,
      "publication": 5207,
      "condition": 5208,
      "stein": 5209,
      "concerns": 5210,
      "lot": 5211,
      "uls": 5212,
      "surrender": 5213,
      "goods": 5214,
      "Bermuda": 5215,
      "76": 5216,
      "avi": 5217,
      "dy": 5218,
      "ocide": 5219,
      "aria": 5220,
      "inequality": 5221,
      "matches": 5222,
      "historians": 5223,
      "roads": 5224,
      "Lo": 5225,
      "rooms": 5226,
      "iring": 5227,
      "plat": 5228,
      "colleges": 5229,
      "fault": 5230,
      "teacher": 5231,
      "alcohol": 5232,
      "push": 5233,
      "entertain": 5234,
      "divisions": 5235,
      "eme": 5236,
      "agencies": 5237,
      "webs": 5238,
      "subjects": 5239,
      "analy": 5240,
      "phenomen": 5241,
      "arist": 5242,
      "Service": 5243,
      "Estonian": 5244,
      "Amazon": 5245,
      "Loc": 5246,
      "depos": 5247,
      "bels": 5248,
      "ump": 5249,
      "writer": 5250,
      "daughter": 5251,
      "Je": 5252,
      "cam": 5253,
      "retained": 5254,
      "reflect": 5255,
      "effectively": 5256,
      "manufactur": 5257,
      "Conference": 5258,
      "hypo": 5259,
      "initi": 5260,
      "safety": 5261,
      "Presbyterian": 5262,
      "ba": 5263,
      "ulpt": 5264,
      "notes": 5265,
      "merch": 5266,
      "sculpt": 5267,
      "separated": 5268,
      "Lad": 5269,
      "pict": 5270,
      "grant": 5271,
      "strongly": 5272,
      "fleet": 5273,
      "Award": 5274,
      "icon": 5275,
      "priest": 5276,
      "96": 5277,
      "immun": 5278,
      "founding": 5279,
      "societies": 5280,
      "mountains": 5281,
      "Miss": 5282,
      "gam": 5283,
      "perhaps": 5284,
      "ogue": 5285,
      "RA": 5286,
      "hosted": 5287,
      "Harvard": 5288,
      "circum": 5289,
      "strategy": 5290,
      "Jul": 5291,
      "iled": 5292,
      "Northwestern": 5293,
      "1930s": 5294,
      "considerable": 5295,
      "Lin": 5296,
      "ashion": 5297,
      "copies": 5298,
      "Charleston": 5299,
      "NBC": 5300,
      "immigrants": 5301,
      "Conne": 5302,
      "Gram": 5303,
      "rank": 5304,
      "12th": 5305,
      "Due": 5306,
      "acid": 5307,
      "Star": 5308,
      "efficiency": 5309,
      "Renaissance": 5310,
      "Bush": 5311,
      "membership": 5312,
      "armies": 5313,
      "tered": 5314,
      "1950": 5315,
      "perfe": 5316,
      "obed": 5317,
      "doub": 5318,
      "Econom": 5319,
      "Ven": 5320,
      "semi": 5321,
      "convent": 5322,
      "attended": 5323,
      "glaci": 5324,
      "tical": 5325,
      "eness": 5326,
      "syl": 5327,
      "Russians": 5328,
      "conduct": 5329,
      "Tour": 5330,
      "dress": 5331,
      "zed": 5332,
      "persons": 5333,
      "1st": 5334,
      "Bef": 5335,
      "Op": 5336,
      "items": 5337,
      "urt": 5338,
      "label": 5339,
      "Corpor": 5340,
      "Senate": 5341,
      "precipit": 5342,
      "Before": 5343,
      "lical": 5344,
      "corruption": 5345,
      "jective": 5346,
      "solid": 5347,
      "tes": 5348,
      "otherwise": 5349,
      "write": 5350,
      "association": 5351,
      "equivalent": 5352,
      "360": 5353,
      "scen": 5354,
      "experiment": 5355,
      "specifically": 5356,
      "reaction": 5357,
      "tom": 5358,
      "quad": 5359,
      "perior": 5360,
      "consisting": 5361,
      "subsid": 5362,
      "brand": 5363,
      "substantial": 5364,
      "annex": 5365,
      "Neptune": 5366,
      "dat": 5367,
      "gence": 5368,
      "ko": 5369,
      "ims": 5370,
      "lip": 5371,
      "auth": 5372,
      "Billboard": 5373,
      "gender": 5374,
      "testing": 5375,
      "Near": 5376,
      "practical": 5377,
      "Far": 5378,
      "1939": 5379,
      "Turkey": 5380,
      "palace": 5381,
      "mobile": 5382,
      "Hellenistic": 5383,
      "aspects": 5384,
      "medium": 5385,
      "railway": 5386,
      "streets": 5387,
      "moment": 5388,
      "Fer": 5389,
      "GB": 5390,
      "Such": 5391,
      "Ta": 5392,
      "dark": 5393,
      "tim": 5394,
      "zing": 5395,
      "chair": 5396,
      "determ": 5397,
      "regist": 5398,
      "possibly": 5399,
      "bourg": 5400,
      "Communist": 5401,
      "Cubs": 5402,
      "narrow": 5403,
      "battles": 5404,
      "budget": 5405,
      "determine": 5406,
      "Town": 5407,
      "prices": 5408,
      "aker": 5409,
      "anning": 5410,
      "Games": 5411,
      "sper": 5412,
      "seat": 5413,
      "scene": 5414,
      "neighbour": 5415,
      "agricultural": 5416,
      "Clar": 5417,
      "computers": 5418,
      "Philipp": 5419,
      "Francisco": 5420,
      "Dev": 5421,
      "stances": 5422,
      "generated": 5423,
      "industries": 5424,
      "funding": 5425,
      "competit": 5426,
      "indicate": 5427,
      "Frederick": 5428,
      "Even": 5429,
      "pil": 5430,
      "instrument": 5431,
      "ordinary": 5432,
      "municipal": 5433,
      "bad": 5434,
      "dim": 5435,
      "gon": 5436,
      "usage": 5437,
      "13th": 5438,
      "Reser": 5439,
      "elevator": 5440,
      "patterns": 5441,
      "franch": 5442,
      "Gall": 5443,
      "Geng": 5444,
      "sle": 5445,
      "160": 5446,
      "purposes": 5447,
      "Ox": 5448,
      "inde": 5449,
      "enjoy": 5450,
      "igins": 5451,
      "update": 5452,
      "1993": 5453,
      "violence": 5454,
      "kingdoms": 5455,
      "schedul": 5456,
      "Tube": 5457,
      "Top": 5458,
      "1974": 5459,
      "restaur": 5460,
      "existed": 5461,
      "characterized": 5462,
      "selected": 5463,
      "stable": 5464,
      "chain": 5465,
      "ighter": 5466,
      "posure": 5467,
      "alongside": 5468,
      "presidential": 5469,
      "ote": 5470,
      "ull": 5471,
      "itnesses": 5472,
      "hub": 5473,
      "ja": 5474,
      "confer": 5475,
      "withdraw": 5476,
      "thanas": 5477,
      "benefit": 5478,
      "stim": 5479,
      "bear": 5480,
      "forward": 5481,
      "absol": 5482,
      "supporters": 5483,
      "goals": 5484,
      "combat": 5485,
      "calcul": 5486,
      "nobility": 5487,
      "56": 5488,
      "Ur": 5489,
      "obtain": 5490,
      "southeast": 5491,
      "carriers": 5492,
      "Blue": 5493,
      "Hispanic": 5494,
      "universal": 5495,
      "Buil": 5496,
      "becomes": 5497,
      "ishing": 5498,
      "dating": 5499,
      "tained": 5500,
      "context": 5501,
      "treaties": 5502,
      "losses": 5503,
      "Belg": 5504,
      "decisions": 5505,
      "Wood": 5506,
      "regime": 5507,
      "Love": 5508,
      "reh": 5509,
      "faced": 5510,
      "Rights": 5511,
      "iar": 5512,
      "uter": 5513,
      "appears": 5514,
      "Athanas": 5515,
      "wel": 5516,
      "origins": 5517,
      "tox": 5518,
      "minutes": 5519,
      "RI": 5520,
      "Rev": 5521,
      "ensure": 5522,
      "studied": 5523,
      "Balk": 5524,
      "iber": 5525,
      "pup": 5526,
      "sciences": 5527,
      "theme": 5528,
      "display": 5529,
      "linked": 5530,
      "offers": 5531,
      "funds": 5532,
      "calend": 5533,
      "700": 5534,
      "yan": 5535,
      "compreh": 5536,
      "finished": 5537,
      "massive": 5538,
      "Fox": 5539,
      "ador": 5540,
      "desert": 5541,
      "friends": 5542,
      "festiv": 5543,
      "73": 5544,
      "membran": 5545,
      "variation": 5546,
      "Cop": 5547,
      "twice": 5548,
      "1986": 5549,
      "programming": 5550,
      "gn": 5551,
      "ura": 5552,
      "lighting": 5553,
      "Israeli": 5554,
      "slavery": 5555,
      "bing": 5556,
      "capture": 5557,
      "susp": 5558,
      "gers": 5559,
      "page": 5560,
      "tren": 5561,
      "modif": 5562,
      "reduction": 5563,
      "featuring": 5564,
      "oud": 5565,
      "succeeded": 5566,
      "voted": 5567,
      "Che": 5568,
      "sail": 5569,
      "acting": 5570,
      "Wars": 5571,
      "refuge": 5572,
      "northeast": 5573,
      "Cla": 5574,
      "pig": 5575,
      "weather": 5576,
      "1941": 5577,
      "protein": 5578,
      "settlers": 5579,
      "screen": 5580,
      "want": 5581,
      "erto": 5582,
      "deliver": 5583,
      "iana": 5584,
      "concerned": 5585,
      "districts": 5586,
      "YouTube": 5587,
      "normally": 5588,
      "cular": 5589,
      "fear": 5590,
      "founder": 5591,
      "esh": 5592,
      "Third": 5593,
      "Conserv": 5594,
      "critics": 5595,
      "defend": 5596,
      "hands": 5597,
      "driven": 5598,
      "guns": 5599,
      "shift": 5600,
      "Glo": 5601,
      "Rale": 5602,
      "astic": 5603,
      "cking": 5604,
      "protests": 5605,
      "gods": 5606,
      "encouraged": 5607,
      "divine": 5608,
      "Carnival": 5609,
      "cm": 5610,
      "rivers": 5611,
      "cold": 5612,
      "1949": 5613,
      "walls": 5614,
      "fixed": 5615,
      "slightly": 5616,
      "mist": 5617,
      "rhy": 5618,
      "Greater": 5619,
      "hundreds": 5620,
      "delay": 5621,
      "empt": 5622,
      "understand": 5623,
      "asions": 5624,
      "congreg": 5625,
      "ranging": 5626,
      "train": 5627,
      "Berlin": 5628,
      "Myan": 5629,
      "Summer": 5630,
      "Similar": 5631,
      "neutral": 5632,
      "Raleigh": 5633,
      "Mur": 5634,
      "ths": 5635,
      "omes": 5636,
      "olid": 5637,
      "Board": 5638,
      "tropical": 5639,
      "diseases": 5640,
      "Ly": 5641,
      "shel": 5642,
      "Security": 5643,
      "biggest": 5644,
      "Down": 5645,
      "eigh": 5646,
      "foss": 5647,
      "gments": 5648,
      "editor": 5649,
      "icy": 5650,
      "populous": 5651,
      "costs": 5652,
      "interpretation": 5653,
      "Baptist": 5654,
      "Namib": 5655,
      "3rd": 5656,
      "ients": 5657,
      "py": 5658,
      "radical": 5659,
      "Enter": 5660,
      "mechanical": 5661,
      "Disney": 5662,
      "criticized": 5663,
      "bishop": 5664,
      "anthropology": 5665,
      "Ke": 5666,
      "comput": 5667,
      "successor": 5668,
      "separation": 5669,
      "nationally": 5670,
      "executed": 5671,
      "celebrated": 5672,
      "Myanmar": 5673,
      "Crown": 5674,
      "Lis": 5675,
      "perceived": 5676,
      "statement": 5677,
      "conservative": 5678,
      "alliance": 5679,
      "spect": 5680,
      "something": 5681,
      "iege": 5682,
      "protected": 5683,
      "hosts": 5684,
      "ceremony": 5685,
      "IC": 5686,
      "Nep": 5687,
      "fresh": 5688,
      "search": 5689,
      "Indu": 5690,
      "plate": 5691,
      "solo": 5692,
      "branches": 5693,
      "emphasis": 5694,
      "Convention": 5695,
      "Samo": 5696,
      "legislative": 5697,
      "coup": 5698,
      "samurai": 5699,
      "edge": 5700,
      "ranged": 5701,
      "Medical": 5702,
      "tourism": 5703,
      "gil": 5704,
      "urally": 5705,
      "ulate": 5706,
      "fee": 5707,
      "gros": 5708,
      "Alps": 5709,
      "purchased": 5710,
      "pieces": 5711,
      "compression": 5712,
      "poetry": 5713,
      "Development": 5714,
      "Athanasius": 5715,
      "Mat": 5716,
      "inet": 5717,
      "ghan": 5718,
      "aug": 5719,
      "Arth": 5720,
      "organism": 5721,
      "composition": 5722,
      "Hospital": 5723,
      "seed": 5724,
      "centers": 5725,
      "covers": 5726,
      "infring": 5727,
      "agency": 5728,
      "useful": 5729,
      "jection": 5730,
      "score": 5731,
      "1980": 5732,
      "paint": 5733,
      "exec": 5734,
      "Nat": 5735,
      "Penn": 5736,
      "ancy": 5737,
      "approval": 5738,
      "trial": 5739,
      "skin": 5740,
      "affairs": 5741,
      "piano": 5742,
      "Ha": 5743,
      "urs": 5744,
      "compat": 5745,
      "boy": 5746,
      "subur": 5747,
      "nickn": 5748,
      "categories": 5749,
      "Er": 5750,
      "gives": 5751,
      "ald": 5752,
      "oured": 5753,
      "oppon": 5754,
      "aces": 5755,
      "Stud": 5756,
      "Princess": 5757,
      "challeng": 5758,
      "Ali": 5759,
      "pag": 5760,
      "suggests": 5761,
      "documents": 5762,
      "bian": 5763,
      "gate": 5764,
      "1978": 5765,
      "Hor": 5766,
      "smo": 5767,
      "tery": 5768,
      "Columbia": 5769,
      "Out": 5770,
      "watch": 5771,
      "proced": 5772,
      "exact": 5773,
      "Additionally": 5774,
      "parallel": 5775,
      "asphal": 5776,
      "roots": 5777,
      "amber": 5778,
      "eff": 5779,
      "14th": 5780,
      "interests": 5781,
      "debt": 5782,
      "spiritual": 5783,
      "intelligence": 5784,
      "NFL": 5785,
      "Genghis": 5786,
      "Building": 5787,
      "Bureau": 5788,
      "ni": 5789,
      "earned": 5790,
      "penalty": 5791,
      "pto": 5792,
      "pressed": 5793,
      "Cross": 5794,
      "Kong": 5795,
      "oking": 5796,
      "shot": 5797,
      "albums": 5798,
      "59": 5799,
      "eration": 5800,
      "quite": 5801,
      "iff": 5802,
      "designated": 5803,
      "affect": 5804,
      "circuit": 5805,
      "250": 5806,
      "AR": 5807,
      "seats": 5808,
      "universe": 5809,
      "landing": 5810,
      "passing": 5811,
      "reality": 5812,
      "superior": 5813,
      "ota": 5814,
      "genome": 5815,
      "Austrian": 5816,
      "trees": 5817,
      "abandoned": 5818,
      "Arthur": 5819,
      "exposure": 5820,
      "classification": 5821,
      "ruler": 5822,
      "About": 5823,
      "ratio": 5824,
      "inary": 5825,
      "iling": 5826,
      "invaded": 5827,
      "Syria": 5828,
      "judge": 5829,
      "judges": 5830,
      "criticism": 5831,
      "electronic": 5832,
      "PlayStation": 5833,
      "Greg": 5834,
      "Link": 5835,
      "Vol": 5836,
      "mouth": 5837,
      "rein": 5838,
      "physics": 5839,
      "mechanism": 5840,
      "shape": 5841,
      "compass": 5842,
      "doing": 5843,
      "asonry": 5844,
      "increases": 5845,
      "operates": 5846,
      "1973": 5847,
      "Johnson": 5848,
      "1968": 5849,
      "1969": 5850,
      "historically": 5851,
      "companied": 5852,
      "magn": 5853,
      "votes": 5854,
      "molecules": 5855,
      "residential": 5856,
      "Corporation": 5857,
      "authors": 5858,
      "begun": 5859,
      "covering": 5860,
      "och": 5861,
      "pics": 5862,
      "ading": 5863,
      "expect": 5864,
      "cant": 5865,
      "lat": 5866,
      "beat": 5867,
      "Antarct": 5868,
      "Good": 5869,
      "Py": 5870,
      "Pict": 5871,
      "manager": 5872,
      "officer": 5873,
      "Cathedral": 5874,
      "rhe": 5875,
      "ched": 5876,
      "needs": 5877,
      "aware": 5878,
      "prompt": 5879,
      "Eth": 5880,
      "Field": 5881,
      "crown": 5882,
      "antry": 5883,
      "disobed": 5884,
      "Forces": 5885,
      "Vide": 5886,
      "abled": 5887,
      "writes": 5888,
      "headed": 5889,
      "establishing": 5890,
      "Digimon": 5891,
      "sacrific": 5892,
      "Taiwan": 5893,
      "63": 5894,
      "Sichuan": 5895,
      "denomin": 5896,
      "Antarctica": 5897,
      "ocean": 5898,
      "alu": 5899,
      "web": 5900,
      "Only": 5901,
      "USA": 5902,
      "Big": 5903,
      "eat": 5904,
      "sts": 5905,
      "destruction": 5906,
      "1900": 5907,
      "radiation": 5908,
      "balance": 5909,
      "violent": 5910,
      "strategic": 5911,
      "88": 5912,
      "Bridge": 5913,
      "FI": 5914,
      "stal": 5915,
      "usual": 5916,
      "obtained": 5917,
      "leads": 5918,
      "Radio": 5919,
      "predominant": 5920,
      "absolute": 5921,
      "92": 5922,
      "jac": 5923,
      "inner": 5924,
      "accompanied": 5925,
      "boys": 5926,
      "1975": 5927,
      "Buddha": 5928,
      "assumed": 5929,
      "Ever": 5930,
      "fal": 5931,
      "ture": 5932,
      "cession": 5933,
      "stitu": 5934,
      "Maria": 5935,
      "ruling": 5936,
      "drawn": 5937,
      "History": 5938,
      "collapse": 5939,
      "bach": 5940,
      "cht": 5941,
      "terror": 5942,
      "ribute": 5943,
      "shoot": 5944,
      "grown": 5945,
      "colors": 5946,
      "intosh": 5947,
      "Americas": 5948,
      "matic": 5949,
      "questions": 5950,
      "jobs": 5951,
      "Fam": 5952,
      "Ibn": 5953,
      "pray": 5954,
      "sort": 5955,
      "aration": 5956,
      "ophy": 5957,
      "1960": 5958,
      "filled": 5959,
      "democracy": 5960,
      "seems": 5961,
      "comics": 5962,
      "cia": 5963,
      "Chi": 5964,
      "Afghan": 5965,
      "Manchester": 5966,
      "concentrated": 5967,
      "restricted": 5968,
      "oe": 5969,
      "otic": 5970,
      "representatives": 5971,
      "emb": 5972,
      "consult": 5973,
      "governed": 5974,
      "coverage": 5975,
      "murder": 5976,
      "Hot": 5977,
      "lasted": 5978,
      "employees": 5979,
      "jab": 5980,
      "uties": 5981,
      "ologists": 5982,
      "link": 5983,
      "orbit": 5984,
      "veget": 5985,
      "Thuring": 5986,
      "Prize": 5987,
      "sco": 5988,
      "ours": 5989,
      "legit": 5990,
      "occupation": 5991,
      "transportation": 5992,
      "easily": 5993,
      "bringing": 5994,
      "Foundation": 5995,
      "lod": 5996,
      "ns": 5997,
      "avian": 5998,
      "1984": 5999,
      "soul": 6000,
      "Live": 6001,
      "roles": 6002,
      "chart": 6003,
      "exceed": 6004,
      "assent": 6005,
      "correspon": 6006,
      "safe": 6007,
      "photograph": 6008,
      "Standard": 6009,
      "Az": 6010,
      "Cork": 6011,
      "Kh": 6012,
      "diag": 6013,
      "affirm": 6014,
      "1967": 6015,
      "Mongols": 6016,
      "attributed": 6017,
      "eggs": 6018,
      "5th": 6019,
      "fashion": 6020,
      "ritual": 6021,
      "genocide": 6022,
      "Conf": 6023,
      "Prof": 6024,
      "reading": 6025,
      "Methodist": 6026,
      "orchest": 6027,
      "cious": 6028,
      "akh": 6029,
      "diff": 6030,
      "parks": 6031,
      "retain": 6032,
      "rulers": 6033,
      "requirements": 6034,
      "discrimination": 6035,
      "4th": 6036,
      "hus": 6037,
      "tent": 6038,
      "err": 6039,
      "locations": 6040,
      "sixth": 6041,
      "piece": 6042,
      "Ku": 6043,
      "Taj": 6044,
      "pione": 6045,
      "stig": 6046,
      "why": 6047,
      "idal": 6048,
      "aggress": 6049,
      "assess": 6050,
      "akes": 6051,
      "ampions": 6052,
      "Franco": 6053,
      "vessel": 6054,
      "matters": 6055,
      "enemy": 6056,
      "Bre": 6057,
      "theatre": 6058,
      "onso": 6059,
      "sections": 6060,
      "worship": 6061,
      "northwest": 6062,
      "Low": 6063,
      "inations": 6064,
      "noble": 6065,
      "oblig": 6066,
      "classic": 6067,
      "1972": 6068,
      "restored": 6069,
      "sequences": 6070,
      "performances": 6071,
      "Constantin": 6072,
      "CS": 6073,
      "accused": 6074,
      "LEDs": 6075,
      "91": 6076,
      "Dal": 6077,
      "Sports": 6078,
      "Tun": 6079,
      "Indo": 6080,
      "describes": 6081,
      "mosaics": 6082,
      "images": 6083,
      "confirmed": 6084,
      "1987": 6085,
      "motors": 6086,
      "technologies": 6087,
      "winner": 6088,
      "Sar": 6089,
      "Unlike": 6090,
      "Centre": 6091,
      "household": 6092,
      "62": 6093,
      "Water": 6094,
      "recept": 6095,
      "recognition": 6096,
      "Popper": 6097,
      "Sunday": 6098,
      "Ron": 6099,
      "emotion": 6100,
      "zen": 6101,
      "construct": 6102,
      "unci": 6103,
      "ultane": 6104,
      "planning": 6105,
      "chloroplasts": 6106,
      "Smith": 6107,
      "Connectic": 6108,
      "crow": 6109,
      "igan": 6110,
      "aya": 6111,
      "receiving": 6112,
      "plicit": 6113,
      "Community": 6114,
      "Connecticut": 6115,
      "NP": 6116,
      "stating": 6117,
      "begins": 6118,
      "advis": 6119,
      "prohib": 6120,
      "pole": 6121,
      "accounts": 6122,
      "sustain": 6123,
      "Gar": 6124,
      "Villa": 6125,
      "revers": 6126,
      "etball": 6127,
      "love": 6128,
      "insur": 6129,
      "Leon": 6130,
      "channels": 6131,
      "Macintosh": 6132,
      "bombing": 6133,
      "installed": 6134,
      "clim": 6135,
      "mayor": 6136,
      "warm": 6137,
      "researchers": 6138,
      "visitors": 6139,
      "purchase": 6140,
      "Ancient": 6141,
      "15th": 6142,
      "happened": 6143,
      "quantum": 6144,
      "judicial": 6145,
      "1914": 6146,
      "meat": 6147,
      "wider": 6148,
      "Kenya": 6149,
      "Lodge": 6150,
      "accomp": 6151,
      "embar": 6152,
      "minster": 6153,
      "profession": 6154,
      "datab": 6155,
      "somewhat": 6156,
      "argue": 6157,
      "preferred": 6158,
      "Bul": 6159,
      "nav": 6160,
      "descent": 6161,
      "flat": 6162,
      "courses": 6163,
      "liquid": 6164,
      "Card": 6165,
      "Lith": 6166,
      "cury": 6167,
      "bellion": 6168,
      "throne": 6169,
      "ilit": 6170,
      "bercul": 6171,
      "integrated": 6172,
      "unable": 6173,
      "rence": 6174,
      "erals": 6175,
      "dependence": 6176,
      "says": 6177,
      "Croatian": 6178,
      "Jean": 6179,
      "sess": 6180,
      "stages": 6181,
      "Helena": 6182,
      "represents": 6183,
      "assum": 6184,
      "lab": 6185,
      "grass": 6186,
      "Feyn": 6187,
      "committee": 6188,
      "beliefs": 6189,
      "Technology": 6190,
      "6th": 6191,
      "Sah": 6192,
      "uset": 6193,
      "ansas": 6194,
      "signals": 6195,
      "religions": 6196,
      "1948": 6197,
      "ski": 6198,
      "antibiotics": 6199,
      "Feynman": 6200,
      "Dr": 6201,
      "Jeff": 6202,
      "Allied": 6203,
      "1976": 6204,
      "Punjab": 6205,
      "Namibia": 6206,
      "Dra": 6207,
      "flour": 6208,
      "cription": 6209,
      "experiences": 6210,
      "Disc": 6211,
      "Peninsula": 6212,
      "fly": 6213,
      "told": 6214,
      "letic": 6215,
      "resolution": 6216,
      "acres": 6217,
      "oded": 6218,
      "endum": 6219,
      "powered": 6220,
      "rainfall": 6221,
      "regulations": 6222,
      "lose": 6223,
      "Europeans": 6224,
      "calendar": 6225,
      "adap": 6226,
      "umes": 6227,
      "guard": 6228,
      "reaching": 6229,
      "rounded": 6230,
      "zhou": 6231,
      "Mand": 6232,
      "mals": 6233,
      "inals": 6234,
      "olith": 6235,
      "utical": 6236,
      "excess": 6237,
      "MP3": 6238,
      "Television": 6239,
      "mathematics": 6240,
      "franchise": 6241,
      "Ts": 6242,
      "cited": 6243,
      "utions": 6244,
      "exists": 6245,
      "ani": 6246,
      "achuset": 6247,
      "borders": 6248,
      "Contin": 6249,
      "gymn": 6250,
      "azz": 6251,
      "responsibility": 6252,
      "vocal": 6253,
      "promote": 6254,
      "DST": 6255,
      "Hz": 6256,
      "ault": 6257,
      "oo": 6258,
      "hero": 6259,
      "1982": 6260,
      "analog": 6261,
      "Business": 6262,
      "rhyth": 6263,
      "Area": 6264,
      "cers": 6265,
      "outer": 6266,
      "mainstream": 6267,
      "myth": 6268,
      "metres": 6269,
      "voice": 6270,
      "abul": 6271,
      "correspond": 6272,
      "huge": 6273,
      "circul": 6274,
      "expression": 6275,
      "spoke": 6276,
      "asphalt": 6277,
      "Jud": 6278,
      "ym": 6279,
      "resol": 6280,
      "ranges": 6281,
      "plague": 6282,
      "Angl": 6283,
      "Alf": 6284,
      "skill": 6285,
      "businesses": 6286,
      "Broncos": 6287,
      "committed": 6288,
      "printed": 6289,
      "achusetts": 6290,
      "Nic": 6291,
      "entry": 6292,
      "punish": 6293,
      "Classical": 6294,
      "Massachusetts": 6295,
      "Constantinople": 6296,
      "AT": 6297,
      "Dor": 6298,
      "bought": 6299,
      "fled": 6300,
      "cultiv": 6301,
      "twenty": 6302,
      "pes": 6303,
      "celer": 6304,
      "mail": 6305,
      "inea": 6306,
      "consolid": 6307,
      "developments": 6308,
      "Westminster": 6309,
      "lights": 6310,
      "Monte": 6311,
      "incident": 6312,
      "Montana": 6313,
      "fine": 6314,
      "rob": 6315,
      "apar": 6316,
      "1981": 6317,
      "1963": 6318,
      "initiated": 6319,
      "ifying": 6320,
      "astronom": 6321,
      "opposite": 6322,
      "Post": 6323,
      "enge": 6324,
      "opportunity": 6325,
      "Lar": 6326,
      "Never": 6327,
      "Sc": 6328,
      "1971": 6329,
      "bitumen": 6330,
      "favour": 6331,
      "transferred": 6332,
      "passengers": 6333,
      "Mot": 6334,
      "Rog": 6335,
      "reput": 6336,
      "overseas": 6337,
      "ologist": 6338,
      "insect": 6339,
      "descendants": 6340,
      "Bir": 6341,
      "festival": 6342,
      "males": 6343,
      "conclus": 6344,
      "merged": 6345,
      "valley": 6346,
      "complexity": 6347,
      "Ashkenazi": 6348,
      "festivals": 6349,
      "Light": 6350,
      "Mes": 6351,
      "Van": 6352,
      "sand": 6353,
      "ounced": 6354,
      "1964": 6355,
      "patron": 6356,
      "monarchy": 6357,
      "Sel": 6358,
      "fit": 6359,
      "hair": 6360,
      "referendum": 6361,
      "52": 6362,
      "Tro": 6363,
      "conversion": 6364,
      "raine": 6365,
      "map": 6366,
      "perception": 6367,
      "privi": 6368,
      "burgh": 6369,
      "offering": 6370,
      "amounts": 6371,
      "Prior": 6372,
      "entertainment": 6373,
      "Dur": 6374,
      "Juda": 6375,
      "1961": 6376,
      "influences": 6377,
      "1944": 6378,
      "isolated": 6379,
      "Video": 6380,
      "Lithuan": 6381,
      "58": 6382,
      "atol": 6383,
      "olas": 6384,
      "pled": 6385,
      "colog": 6386,
      "broken": 6387,
      "bacterial": 6388,
      "Cypri": 6389,
      "Ved": 6390,
      "mile": 6391,
      "owners": 6392,
      "disp": 6393,
      "claiming": 6394,
      "connect": 6395,
      "Within": 6396,
      "democr": 6397,
      "organic": 6398,
      "Medic": 6399,
      "Palest": 6400,
      "Saxon": 6401,
      "Fire": 6402,
      "Mun": 6403,
      "march": 6404,
      "stored": 6405,
      "assass": 6406,
      "plus": 6407,
      "facult": 6408,
      "Minor": 6409,
      "concentration": 6410,
      "rice": 6411,
      "conference": 6412,
      "constitu": 6413,
      "heritage": 6414,
      "writings": 6415,
      "singer": 6416,
      "characteristic": 6417,
      "involving": 6418,
      "extinction": 6419,
      "Cra": 6420,
      "Mr": 6421,
      "lake": 6422,
      "pestic": 6423,
      "polar": 6424,
      "Anton": 6425,
      "empir": 6426,
      "regularly": 6427,
      "experiments": 6428,
      "71": 6429,
      "cence": 6430,
      "Real": 6431,
      "1983": 6432,
      "infection": 6433,
      "Labor": 6434,
      "nutrit": 6435,
      "Bor": 6436,
      "Youn": 6437,
      "heter": 6438,
      "deter": 6439,
      "verte": 6440,
      "owner": 6441,
      "genre": 6442,
      "supposed": 6443,
      "Burma": 6444,
      "satis": 6445,
      "Yugoslavia": 6446,
      "CI": 6447,
      "Dep": 6448,
      "aer": 6449,
      "compla": 6450,
      "monu": 6451,
      "Administ": 6452,
      "Code": 6453,
      "alpha": 6454,
      "sister": 6455,
      "yle": 6456,
      "imposed": 6457,
      "amongst": 6458,
      "layer": 6459,
      "rarely": 6460,
      "atomic": 6461,
      "emotions": 6462,
      "occasionally": 6463,
      "website": 6464,
      "execution": 6465,
      "DV": 6466,
      "pin": 6467,
      "send": 6468,
      "uscript": 6469,
      "export": 6470,
      "charged": 6471,
      "motiv": 6472,
      "reducing": 6473,
      "soft": 6474,
      "Trade": 6475,
      "neighborhoods": 6476,
      "Cult": 6477,
      "ee": 6478,
      "1977": 6479,
      "Hanover": 6480,
      "sounds": 6481,
      "Reserve": 6482,
      "Bol": 6483,
      "cros": 6484,
      "icians": 6485,
      "counties": 6486,
      "Profess": 6487,
      "Duch": 6488,
      "toler": 6489,
      "1918": 6490,
      "11th": 6491,
      "digest": 6492,
      "episode": 6493,
      "proposal": 6494,
      "Jay": 6495,
      "Pit": 6496,
      "acre": 6497,
      "illery": 6498,
      "mont": 6499,
      "moral": 6500,
      "recordings": 6501,
      "Bes": 6502,
      "kins": 6503,
      "conse": 6504,
      "explan": 6505,
      "shire": 6506,
      "rena": 6507,
      "1966": 6508,
      "threatened": 6509,
      "Panthers": 6510,
      "7th": 6511,
      "RO": 6512,
      "inches": 6513,
      "residence": 6514,
      "rance": 6515,
      "Marvel": 6516,
      "steel": 6517,
      "measured": 6518,
      "estimates": 6519,
      "Abd": 6520,
      "carrying": 6521,
      "berculosis": 6522,
      "Met": 6523,
      "Pra": 6524,
      "credited": 6525,
      "infrastructure": 6526,
      "inaug": 6527,
      "elve": 6528,
      "partly": 6529,
      "archae": 6530,
      "Space": 6531,
      "1962": 6532,
      "Gor": 6533,
      "Pur": 6534,
      "assemb": 6535,
      "simultane": 6536,
      "predators": 6537,
      "senior": 6538,
      "carrier": 6539,
      "village": 6540,
      "Witnesses": 6541,
      "rical": 6542,
      "ifications": 6543,
      "survey": 6544,
      "21st": 6545,
      "Shell": 6546,
      "lified": 6547,
      "machines": 6548,
      "minimum": 6549,
      "consumer": 6550,
      "precipitation": 6551,
      "Dest": 6552,
      "Gulf": 6553,
      "awards": 6554,
      "vah": 6555,
      "stories": 6556,
      "Proto": 6557,
      "commander": 6558,
      "benefits": 6559,
      "thy": 6560,
      "apers": 6561,
      "2000s": 6562,
      "casual": 6563,
      "innov": 6564,
      "Mari": 6565,
      "Rob": 6566,
      "ifer": 6567,
      "lad": 6568,
      "aspect": 6569,
      "assigned": 6570,
      "string": 6571,
      "displayed": 6572,
      "preval": 6573,
      "publicly": 6574,
      "legislature": 6575,
      "anks": 6576,
      "lets": 6577,
      "insist": 6578,
      "category": 6579,
      "implemented": 6580,
      "distinguished": 6581,
      "losing": 6582,
      "Tajik": 6583,
      "Tim": 6584,
      "inian": 6585,
      "rises": 6586,
      "funded": 6587,
      "1920s": 6588,
      "Puerto": 6589,
      "mammals": 6590,
      "EG": 6591,
      "placing": 6592,
      "opinion": 6593,
      "synthesis": 6594,
      "philosophical": 6595,
      "gorith": 6596,
      "Judaism": 6597,
      "Por": 6598,
      "Sic": 6599,
      "nights": 6600,
      "lai": 6601,
      "acceler": 6602,
      "crete": 6603,
      "anye": 6604,
      "explained": 6605,
      "varying": 6606,
      "comparison": 6607,
      "Defence": 6608,
      "Freemasonry": 6609,
      "Jim": 6610,
      "peas": 6611,
      "oty": 6612,
      "produces": 6613,
      "Guam": 6614,
      "breaking": 6615,
      "Capital": 6616,
      "Championship": 6617,
      "Fle": 6618,
      "Slo": 6619,
      "ais": 6620,
      "flower": 6621,
      "tact": 6622,
      "itz": 6623,
      "internet": 6624,
      "composer": 6625,
      "Vienna": 6626,
      "keeping": 6627,
      "vertebr": 6628,
      "Sele": 6629,
      "batter": 6630,
      "ona": 6631,
      "adjac": 6632,
      "guaran": 6633,
      "frequent": 6634,
      "damaged": 6635,
      "diplomatic": 6636,
      "appropriate": 6637,
      "Afghanistan": 6638,
      "jiang": 6639,
      "inch": 6640,
      "rey": 6641,
      "alin": 6642,
      "cten": 6643,
      "calls": 6644,
      "goes": 6645,
      "solved": 6646,
      "Guinea": 6647,
      "Kub": 6648,
      "suffering": 6649,
      "Territ": 6650,
      "Electric": 6651,
      "comprehensive": 6652,
      "fans": 6653,
      "uma": 6654,
      "Stras": 6655,
      "Philippines": 6656,
      "ET": 6657,
      "Report": 6658,
      "engaged": 6659,
      "sequently": 6660,
      "Labour": 6661,
      "1000": 6662,
      "74": 6663,
      "Hal": 6664,
      "file": 6665,
      "stro": 6666,
      "thermal": 6667,
      "shore": 6668,
      "ministers": 6669,
      "trig": 6670,
      "boundaries": 6671,
      "controversy": 6672,
      "alleged": 6673,
      "vals": 6674,
      "anda": 6675,
      "prepar": 6676,
      "translated": 6677,
      "bishops": 6678,
      "Network": 6679,
      "merely": 6680,
      "waves": 6681,
      "deleg": 6682,
      "conven": 6683,
      "nothing": 6684,
      "continuous": 6685,
      "Furthermore": 6686,
      "Anglican": 6687,
      "Laser": 6688,
      "aches": 6689,
      "designs": 6690,
      "survived": 6691,
      "lamps": 6692,
      "Kiev": 6693,
      "Nag": 6694,
      "rub": 6695,
      "advent": 6696,
      "1911": 6697,
      "arrival": 6698,
      "Nepal": 6699,
      "PN": 6700,
      "atus": 6701,
      "urg": 6702,
      "otle": 6703,
      "Instead": 6704,
      "dub": 6705,
      "enses": 6706,
      "ibn": 6707,
      "singles": 6708,
      "settlements": 6709,
      "Special": 6710,
      "Jeho": 6711,
      "adjacent": 6712,
      "assets": 6713,
      "routes": 6714,
      "Inde": 6715,
      "iful": 6716,
      "Jehovah": 6717,
      "Isa": 6718,
      "Main": 6719,
      "Ru": 6720,
      "Tal": 6721,
      "none": 6722,
      "1910": 6723,
      "astro": 6724,
      "itects": 6725,
      "Norfolk": 6726,
      "attracted": 6727,
      "MC": 6728,
      "gal": 6729,
      "waters": 6730,
      "thal": 6731,
      "neo": 6732,
      "Inte": 6733,
      "lls": 6734,
      "scheme": 6735,
      "distributed": 6736,
      "Bos": 6737,
      "Lit": 6738,
      "nership": 6739,
      "rational": 6740,
      "yellow": 6741,
      "cars": 6742,
      "background": 6743,
      "Polit": 6744,
      "involves": 6745,
      "concepts": 6746,
      "flows": 6747,
      "adults": 6748,
      "autonomy": 6749,
      "adolescents": 6750,
      "Strasbourg": 6751,
      "Jones": 6752,
      "Wall": 6753,
      "bil": 6754,
      "input": 6755,
      "aling": 6756,
      "stret": 6757,
      "segment": 6758,
      "acle": 6759,
      "1953": 6760,
      "idden": 6761,
      "psed": 6762,
      "households": 6763,
      "Exe": 6764,
      "clean": 6765,
      "aimed": 6766,
      "controversial": 6767,
      "Aristotle": 6768,
      "Haw": 6769,
      "encompass": 6770,
      "promotion": 6771,
      "diver": 6772,
      "prise": 6773,
      "buy": 6774,
      "iversary": 6775,
      "Reformation": 6776,
      "borrow": 6777,
      "Sumer": 6778,
      "Somalia": 6779,
      "olithic": 6780,
      "Fun": 6781,
      "Jam": 6782,
      "Seven": 6783,
      "hospital": 6784,
      "illegal": 6785,
      "acking": 6786,
      "overty": 6787,
      "charter": 6788,
      "facility": 6789,
      "planet": 6790,
      "Spect": 6791,
      "pick": 6792,
      "zz": 6793,
      "hem": 6794,
      "connections": 6795,
      "parent": 6796,
      "tainment": 6797,
      "reflected": 6798,
      "Galicia": 6799,
      "Him": 6800,
      "Kanye": 6801,
      "sons": 6802,
      "assembly": 6803,
      "actor": 6804,
      "videos": 6805,
      "Ministry": 6806,
      "killing": 6807,
      "suburbs": 6808,
      "Es": 6809,
      "MI": 6810,
      "onia": 6811,
      "ilation": 6812,
      "bean": 6813,
      "interior": 6814,
      "prepared": 6815,
      "scheduled": 6816,
      "51": 6817,
      "900": 6818,
      "Cold": 6819,
      "aud": 6820,
      "algorith": 6821,
      "adher": 6822,
      "paras": 6823,
      "1965": 6824,
      "Police": 6825,
      "campaigns": 6826,
      "coalition": 6827,
      "discipline": 6828,
      "Late": 6829,
      "Six": 6830,
      "Trad": 6831,
      "vow": 6832,
      "fication": 6833,
      "visual": 6834,
      "temple": 6835,
      "encounter": 6836,
      "emotional": 6837,
      "Dominican": 6838,
      "supplies": 6839,
      "unciation": 6840,
      "fan": 6841,
      "uj": 6842,
      "iveness": 6843,
      "engines": 6844,
      "musicians": 6845,
      "nucle": 6846,
      "Poly": 6847,
      "atmosphere": 6848,
      "phrase": 6849,
      "platform": 6850,
      "registered": 6851,
      "Bond": 6852,
      "Pas": 6853,
      "itarian": 6854,
      "artific": 6855,
      "compound": 6856,
      "trained": 6857,
      "tested": 6858,
      "apply": 6859,
      "patents": 6860,
      "independently": 6861,
      "synthetic": 6862,
      "Jerusal": 6863,
      "Jerusalem": 6864,
      "kers": 6865,
      "inth": 6866,
      "istical": 6867,
      "neither": 6868,
      "dia": 6869,
      "Stalin": 6870,
      "follows": 6871,
      "assistance": 6872,
      "vehicles": 6873,
      "Much": 6874,
      "Ul": 6875,
      "cart": 6876,
      "ader": 6877,
      "elite": 6878,
      "ayana": 6879,
      "Origin": 6880,
      "72": 6881,
      "FM": 6882,
      "Lev": 6883,
      "cat": 6884,
      "orph": 6885,
      "aris": 6886,
      "populated": 6887,
      "files": 6888,
      "controll": 6889,
      "passage": 6890,
      "homosexual": 6891,
      "width": 6892,
      "exclusive": 6893,
      "candidates": 6894,
      "disobedience": 6895,
      "Father": 6896,
      "Jr": 6897,
      "Sultan": 6898,
      "defic": 6899,
      "ranking": 6900,
      "sky": 6901,
      "revolutionary": 6902,
      "struggle": 6903,
      "recommended": 6904,
      "Entertainment": 6905,
      "Wu": 6906,
      "sale": 6907,
      "erts": 6908,
      "opol": 6909,
      "assic": 6910,
      "compens": 6911,
      "Once": 6912,
      "metaph": 6913,
      "USSR": 6914,
      "recognised": 6915,
      "graphic": 6916,
      "zona": 6917,
      "trying": 6918,
      "theology": 6919,
      "ensu": 6920,
      "entity": 6921,
      "artillery": 6922,
      "tracks": 6923,
      "calling": 6924,
      "simp": 6925,
      "surviving": 6926,
      "Bou": 6927,
      "Ten": 6928,
      "bapt": 6929,
      "expedition": 6930,
      "heads": 6931,
      "processing": 6932,
      "neighboring": 6933,
      "escent": 6934,
      "aspir": 6935,
      "omb": 6936,
      "explicit": 6937,
      "necessarily": 6938,
      "restrictions": 6939,
      "restaurants": 6940,
      "61": 6941,
      "8th": 6942,
      "Fair": 6943,
      "Non": 6944,
      "bene": 6945,
      "cus": 6946,
      "forb": 6947,
      "essentially": 6948,
      "denied": 6949,
      "contributions": 6950,
      "shaped": 6951,
      "Nevertheless": 6952,
      "rout": 6953,
      "Stone": 6954,
      "pope": 6955,
      "supporting": 6956,
      "elsewhere": 6957,
      "Arizona": 6958,
      "Master": 6959,
      "sav": 6960,
      "util": 6961,
      "horse": 6962,
      "Cel": 6963,
      "throw": 6964,
      "wavel": 6965,
      "Castle": 6966,
      "scenes": 6967,
      "Chihua": 6968,
      "affirmative": 6969,
      "69": 6970,
      "Cru": 6971,
      "rum": 6972,
      "sin": 6973,
      "unar": 6974,
      "10th": 6975,
      "variations": 6976,
      "culmin": 6977,
      "performing": 6978,
      "negoti": 6979,
      "wavelength": 6980,
      "Rol": 6981,
      "UE": 6982,
      "pine": 6983,
      "lyn": 6984,
      "united": 6985,
      "manuscript": 6986,
      "Media": 6987,
      "criminal": 6988,
      "infl": 6989,
      "worn": 6990,
      "finite": 6991,
      "Nobel": 6992,
      "voting": 6993,
      "aristoc": 6994,
      "toxic": 6995,
      "Cas": 6996,
      "Tru": 6997,
      "urrican": 6998,
      "soil": 6999,
      "cuis": 7000,
      "taxes": 7001,
      "secution": 7002,
      "ctrum": 7003,
      "MA": 7004,
      "ij": 7005,
      "wine": 7006,
      "proceed": 7007,
      "dismiss": 7008,
      "invention": 7009,
      "Virgil": 7010,
      "newspapers": 7011,
      "Foreign": 7012,
      "trend": 7013,
      "Pto": 7014,
      "your": 7015,
      "arose": 7016,
      "tees": 7017,
      "shut": 7018,
      "ranks": 7019,
      "faces": 7020,
      "hardware": 7021,
      "conflicts": 7022,
      "wrestling": 7023,
      "dollars": 7024,
      "Organization": 7025,
      "targets": 7026,
      "girls": 7027,
      "sleep": 7028,
      "Dyn": 7029,
      "assert": 7030,
      "warfare": 7031,
      "shipping": 7032,
      "Project": 7033,
      "passes": 7034,
      "historian": 7035,
      "CBC": 7036,
      "neur": 7037,
      "technique": 7038,
      "Avic": 7039,
      "elabor": 7040,
      "mous": 7041,
      "cement": 7042,
      "ceutical": 7043,
      "manner": 7044,
      "conscious": 7045,
      "subscri": 7046,
      "bright": 7047,
      "passenger": 7048,
      "sight": 7049,
      "logo": 7050,
      "exclusively": 7051,
      "Athen": 7052,
      "ora": 7053,
      "agues": 7054,
      "learn": 7055,
      "Mean": 7056,
      "crops": 7057,
      "Ptole": 7058,
      "bron": 7059,
      "remove": 7060,
      "commem": 7061,
      "valid": 7062,
      "1951": 7063,
      "participated": 7064,
      "AFL": 7065,
      "mutual": 7066,
      "iop": 7067,
      "recovered": 7068,
      "rison": 7069,
      "telephone": 7070,
      "strengthen": 7071,
      "relief": 7072,
      "customers": 7073,
      "abolished": 7074,
      "Film": 7075,
      "ny": 7076,
      "vant": 7077,
      "condem": 7078,
      "Artic": 7079,
      "personnel": 7080,
      "1958": 7081,
      "representing": 7082,
      "discs": 7083,
      "encourage": 7084,
      "54": 7085,
      "siege": 7086,
      "waste": 7087,
      "xi": 7088,
      "reci": 7089,
      "adjust": 7090,
      "cler": 7091,
      "hai": 7092,
      "endment": 7093,
      "rug": 7094,
      "fewer": 7095,
      "consisted": 7096,
      "explor": 7097,
      "Nich": 7098,
      "cin": 7099,
      "wed": 7100,
      "acles": 7101,
      "loan": 7102,
      "ongo": 7103,
      "prestig": 7104,
      "spectrum": 7105,
      "thereby": 7106,
      "connecting": 7107,
      "oriented": 7108,
      "exercise": 7109,
      "Beng": 7110,
      "Cre": 7111,
      "Daily": 7112,
      "dense": 7113,
      "varies": 7114,
      "theater": 7115,
      "enabled": 7116,
      "asth": 7117,
      "diet": 7118,
      "coron": 7119,
      "mainland": 7120,
      "cribed": 7121,
      "Caes": 7122,
      "infringe": 7123,
      "jan": 7124,
      "unlike": 7125,
      "clergy": 7126,
      "Ford": 7127,
      "varieties": 7128,
      "deaths": 7129,
      "plication": 7130,
      "ao": 7131,
      "hier": 7132,
      "poverty": 7133,
      "Inc": 7134,
      "emig": 7135,
      "surrounded": 7136,
      "respective": 7137,
      "Jersey": 7138,
      "Denver": 7139,
      "banned": 7140,
      "paintings": 7141,
      "cash": 7142,
      "stan": 7143,
      "centres": 7144,
      "1943": 7145,
      "programme": 7146,
      "evolutionary": 7147,
      "distinctive": 7148,
      "Golden": 7149,
      "denominations": 7150,
      "53": 7151,
      "Ros": 7152,
      "Umay": 7153,
      "convict": 7154,
      "numbered": 7155,
      "1956": 7156,
      "Somer": 7157,
      "Alexandria": 7158,
      "situated": 7159,
      "molecular": 7160,
      "affiliated": 7161,
      "casualties": 7162,
      "Arena": 7163,
      "lum": 7164,
      "aret": 7165,
      "pubs": 7166,
      "anniversary": 7167,
      "Carib": 7168,
      "trol": 7169,
      "Baltic": 7170,
      "Olympics": 7171,
      "decreased": 7172,
      "nickname": 7173,
      "Tay": 7174,
      "ares": 7175,
      "1912": 7176,
      "artistic": 7177,
      "ardens": 7178,
      "Monica": 7179,
      "representative": 7180,
      "compete": 7181,
      "broadcasting": 7182,
      "printing": 7183,
      "junction": 7184,
      "Nazi": 7185,
      "rpm": 7186,
      "dison": 7187,
      "patients": 7188,
      "Coast": 7189,
      "participate": 7190,
      "contestants": 7191,
      "conventional": 7192,
      "Seleuc": 7193,
      "uck": 7194,
      "inland": 7195,
      "editions": 7196,
      "itudes": 7197,
      "ownership": 7198,
      "Victorian": 7199,
      "virtually": 7200,
      "faculty": 7201,
      "Sciences": 7202,
      "rong": 7203,
      "leaves": 7204,
      "ulum": 7205,
      "kee": 7206,
      "170": 7207,
      "mixture": 7208,
      "Around": 7209,
      "atically": 7210,
      "Until": 7211,
      "curric": 7212,
      "suburban": 7213,
      "economics": 7214,
      "representation": 7215,
      "crossed": 7216,
      "Obama": 7217,
      "reputation": 7218,
      "Let": 7219,
      "Way": 7220,
      "ider": 7221,
      "1957": 7222,
      "accum": 7223,
      "wealthy": 7224,
      "elevation": 7225,
      "tuberculosis": 7226,
      "Michigan": 7227,
      "sovereignty": 7228,
      "mathematical": 7229,
      "Young": 7230,
      "Rod": 7231,
      "immigration": 7232,
      "proclaimed": 7233,
      "otes": 7234,
      "emen": 7235,
      "plain": 7236,
      "charges": 7237,
      "varied": 7238,
      "Country": 7239,
      "secure": 7240,
      "avalry": 7241,
      "Cab": 7242,
      "Kent": 7243,
      "Zhe": 7244,
      "adian": 7245,
      "spot": 7246,
      "choose": 7247,
      "ennium": 7248,
      "possibility": 7249,
      "learned": 7250,
      "define": 7251,
      "trecht": 7252,
      "regulation": 7253,
      "Revolutionary": 7254,
      "couple": 7255,
      "geographical": 7256,
      "humid": 7257,
      "candidate": 7258,
      "sylvan": 7259,
      "Ori": 7260,
      "raw": 7261,
      "cian": 7262,
      "acknowled": 7263,
      "ods": 7264,
      "seek": 7265,
      "explain": 7266,
      "97": 7267,
      "gif": 7268,
      "altit": 7269,
      "lob": 7270,
      "minute": 7271,
      "educated": 7272,
      "icode": 7273,
      "Caribbean": 7274,
      "Fres": 7275,
      "Hit": 7276,
      "itar": 7277,
      "Channel": 7278,
      "spin": 7279,
      "manufacturers": 7280,
      "Global": 7281,
      "Similarly": 7282,
      "Chihuahua": 7283,
      "Jour": 7284,
      "Nik": 7285,
      "Sem": 7286,
      "eras": 7287,
      "mining": 7288,
      "filament": 7289,
      "130": 7290,
      "evening": 7291,
      "Mercury": 7292,
      "Avicenna": 7293,
      "ende": 7294,
      "quir": 7295,
      "agent": 7296,
      "understood": 7297,
      "Memorial": 7298,
      "Relig": 7299,
      "database": 7300,
      "abulary": 7301,
      "Mach": 7302,
      "Mali": 7303,
      "gap": 7304,
      "lywood": 7305,
      "curs": 7306,
      "buried": 7307,
      "agreements": 7308,
      "challenge": 7309,
      "TB": 7310,
      "acids": 7311,
      "willing": 7312,
      "investigation": 7313,
      "panel": 7314,
      "treated": 7315,
      "arrested": 7316,
      "Eritrea": 7317,
      "Downtown": 7318,
      "Utrecht": 7319,
      "fib": 7320,
      "youth": 7321,
      "inity": 7322,
      "convention": 7323,
      "opho": 7324,
      "lined": 7325,
      "persist": 7326,
      "falls": 7327,
      "clearly": 7328,
      "infect": 7329,
      "Brook": 7330,
      "compatible": 7331,
      "Besides": 7332,
      "bow": 7333,
      "fts": 7334,
      "unity": 7335,
      "spending": 7336,
      "capita": 7337,
      "extend": 7338,
      "plane": 7339,
      "argues": 7340,
      "victims": 7341,
      "bombers": 7342,
      "commissioned": 7343,
      "Open": 7344,
      "nings": 7345,
      "factory": 7346,
      "Christmas": 7347,
      "shortly": 7348,
      "dramatic": 7349,
      "jurisdiction": 7350,
      "sylvania": 7351,
      "Test": 7352,
      "ube": 7353,
      "vies": 7354,
      "vacc": 7355,
      "thinking": 7356,
      "chi": 7357,
      "prosper": 7358,
      "rians": 7359,
      "column": 7360,
      "civilian": 7361,
      "holders": 7362,
      "uniform": 7363,
      "Ve": 7364,
      "Init": 7365,
      "intent": 7366,
      "undergraduate": 7367,
      "collections": 7368,
      "rainforest": 7369,
      "bask": 7370,
      "barri": 7371,
      "philosopher": 7372,
      "Studies": 7373,
      "Everton": 7374,
      "UEFA": 7375,
      "Uru": 7376,
      "Vari": 7377,
      "entities": 7378,
      "uns": 7379,
      "resigned": 7380,
      "allied": 7381,
      "clin": 7382,
      "adoption": 7383,
      "tourist": 7384,
      "drinking": 7385,
      "pitch": 7386,
      "vehicle": 7387,
      "Ak": 7388,
      "Bi": 7389,
      "DA": 7390,
      "Sud": 7391,
      "thick": 7392,
      "thered": 7393,
      "adding": 7394,
      "genet": 7395,
      "offensive": 7396,
      "1947": 7397,
      "Liver": 7398,
      "1954": 7399,
      "busiest": 7400,
      "Corps": 7401,
      "pella": 7402,
      "reserves": 7403,
      "museums": 7404,
      "breeding": 7405,
      "Are": 7406,
      "Kansas": 7407,
      "revenues": 7408,
      "entit": 7409,
      "agon": 7410,
      "particles": 7411,
      "1942": 7412,
      "Williams": 7413,
      "survive": 7414,
      "Walter": 7415,
      "Georgia": 7416,
      "Natural": 7417,
      "89": 7418,
      "Women": 7419,
      "semin": 7420,
      "Unicode": 7421,
      "doctor": 7422,
      "Hebrew": 7423,
      "layers": 7424,
      "Series": 7425,
      "peninsula": 7426,
      "engineers": 7427,
      "indicated": 7428,
      "closer": 7429,
      "vak": 7430,
      "ala": 7431,
      "chance": 7432,
      "phony": 7433,
      "governing": 7434,
      "skills": 7435,
      "shopping": 7436,
      "Sweden": 7437,
      "Thuringia": 7438,
      "duty": 7439,
      "pest": 7440,
      "Independence": 7441,
      "acular": 7442,
      "standardi": 7443,
      "competitions": 7444,
      "Indones": 7445,
      "sphere": 7446,
      "decess": 7447,
      "predecess": 7448,
      "coins": 7449,
      "tape": 7450,
      "receives": 7451,
      "1952": 7452,
      "tourists": 7453,
      "democratic": 7454,
      "Executive": 7455,
      "Jin": 7456,
      "Line": 7457,
      "wo": 7458,
      "atoms": 7459,
      "acterial": 7460,
      "recognize": 7461,
      "blacks": 7462,
      "Samuel": 7463,
      "storm": 7464,
      "Alfred": 7465,
      "CP": 7466,
      "Moh": 7467,
      "rons": 7468,
      "arranged": 7469,
      "exposed": 7470,
      "continuing": 7471,
      "Peace": 7472,
      "Hungary": 7473,
      "Lower": 7474,
      "Tang": 7475,
      "cup": 7476,
      "faster": 7477,
      "swe": 7478,
      "ilight": 7479,
      "osph": 7480,
      "depends": 7481,
      "singing": 7482,
      "elevators": 7483,
      "distinguish": 7484,
      "vessels": 7485,
      "Montevideo": 7486,
      "Evan": 7487,
      "nit": 7488,
      "ati": 7489,
      "ibilities": 7490,
      "oked": 7491,
      "invited": 7492,
      "links": 7493,
      "teachings": 7494,
      "revival": 7495,
      "females": 7496,
      "Somerset": 7497,
      "Ev": 7498,
      "Est": 7499,
      "Ray": 7500,
      "Start": 7501,
      "coach": 7502,
      "attached": 7503,
      "autiful": 7504,
      "meetings": 7505,
      "shares": 7506,
      "alloy": 7507,
      "Bish": 7508,
      "Every": 7509,
      "IT": 7510,
      "VII": 7511,
      "Wel": 7512,
      "Well": 7513,
      "wart": 7514,
      "whites": 7515,
      "sharing": 7516,
      "harmon": 7517,
      "literally": 7518,
      "Point": 7519,
      "discussed": 7520,
      "responded": 7521,
      "arrangement": 7522,
      "Zhejiang": 7523,
      "alumn": 7524,
      "una": 7525,
      "unless": 7526,
      "loans": 7527,
      "interactions": 7528,
      "identical": 7529,
      "Program": 7530,
      "farmers": 7531,
      "consistent": 7532,
      "Communic": 7533,
      "detailed": 7534,
      "licensed": 7535,
      "modified": 7536,
      "Cons": 7537,
      "Pale": 7538,
      "revol": 7539,
      "lap": 7540,
      "rial": 7541,
      "partially": 7542,
      "succession": 7543,
      "structural": 7544,
      "administered": 7545,
      "experimental": 7546,
      "Slavs": 7547,
      "Ukrain": 7548,
      "deposits": 7549,
      "commemor": 7550,
      "Gy": 7551,
      "duties": 7552,
      "hence": 7553,
      "illy": 7554,
      "Champions": 7555,
      "worst": 7556,
      "1800": 7557,
      "coordin": 7558,
      "titled": 7559,
      "parliamentary": 7560,
      "husband": 7561,
      "Lor": 7562,
      "incent": 7563,
      "shr": 7564,
      "twelve": 7565,
      "complic": 7566,
      "Carl": 7567,
      "1937": 7568,
      "fellow": 7569,
      "Liberal": 7570,
      "Military": 7571,
      "details": 7572,
      "ratings": 7573,
      "tools": 7574,
      "Spectre": 7575,
      "Front": 7576,
      "Wii": 7577,
      "onian": 7578,
      "rif": 7579,
      "intense": 7580,
      "doors": 7581,
      "criter": 7582,
      "draft": 7583,
      "NATO": 7584,
      "Temple": 7585,
      "Pennsylvania": 7586,
      "Umayy": 7587,
      "9th": 7588,
      "Gil": 7589,
      "Oh": 7590,
      "SE": 7591,
      "aes": 7592,
      "cli": 7593,
      "deem": 7594,
      "forcing": 7595,
      "unte": 7596,
      "1917": 7597,
      "Stan": 7598,
      "premi": 7599,
      "Therefore": 7600,
      "facilit": 7601,
      "harm": 7602,
      "trust": 7603,
      "younger": 7604,
      "Russell": 7605,
      "metaphys": 7606,
      "82": 7607,
      "KU": 7608,
      "sace": 7609,
      "wers": 7610,
      "centered": 7611,
      "canon": 7612,
      "Alsace": 7613,
      "Spir": 7614,
      "joining": 7615,
      "philosophers": 7616,
      "Daniel": 7617,
      "Railway": 7618,
      "Caesar": 7619,
      "Home": 7620,
      "wound": 7621,
      "imag": 7622,
      "abst": 7623,
      "izon": 7624,
      "atively": 7625,
      "occurring": 7626,
      "civilians": 7627,
      "familiar": 7628,
      "Architect": 7629,
      "bottom": 7630,
      "PS3": 7631,
      "Dam": 7632,
      "bases": 7633,
      "flying": 7634,
      "chro": 7635,
      "epic": 7636,
      "1938": 7637,
      "circumstances": 7638,
      "Economic": 7639,
      "consecutive": 7640,
      "thin": 7641,
      "eda": 7642,
      "wire": 7643,
      "proof": 7644,
      "eland": 7645,
      "sponso": 7646,
      "metals": 7647,
      "infrared": 7648,
      "accurate": 7649,
      "picture": 7650,
      "sponsored": 7651,
      "86": 7652,
      "Il": 7653,
      "math": 7654,
      "pointed": 7655,
      "morning": 7656,
      "capacitors": 7657,
      "opponents": 7658,
      "Five": 7659,
      "Kenn": 7660,
      "tied": 7661,
      "lach": 7662,
      "permit": 7663,
      "substance": 7664,
      "tests": 7665,
      "competing": 7666,
      "difficulty": 7667,
      "preserved": 7668,
      "DVD": 7669,
      "Taylor": 7670,
      "Fresno": 7671,
      "cue": 7672,
      "ugh": 7673,
      "etime": 7674,
      "lift": 7675,
      "Stra": 7676,
      "extension": 7677,
      "strike": 7678,
      "Fund": 7679,
      "Rou": 7680,
      "inhab": 7681,
      "tower": 7682,
      "agents": 7683,
      "Staff": 7684,
      "prev": 7685,
      "relevant": 7686,
      "Mayor": 7687,
      "explos": 7688,
      "Eton": 7689,
      "Mas": 7690,
      "thew": 7691,
      "idency": 7692,
      "ockey": 7693,
      "Argent": 7694,
      "stands": 7695,
      "advice": 7696,
      "1936": 7697,
      "habitat": 7698,
      "hunter": 7699,
      "deployed": 7700,
      "Kublai": 7701,
      "Meanwhile": 7702,
      "ongoing": 7703,
      "Ale": 7704,
      "uous": 7705,
      "prophe": 7706,
      "dio": 7707,
      "ospit": 7708,
      "Head": 7709,
      "operational": 7710,
      "imperialism": 7711,
      "citizenship": 7712,
      "enforcement": 7713,
      "Balkans": 7714,
      "Jefferson": 7715,
      "windows": 7716,
      "rely": 7717,
      "reverse": 7718,
      "chamber": 7719,
      "isters": 7720,
      "rome": 7721,
      "shar": 7722,
      "guil": 7723,
      "engage": 7724,
      "controls": 7725,
      "Prote": 7726,
      "Twilight": 7727,
      "Protestants": 7728,
      "Hollywood": 7729,
      "cuisine": 7730,
      "57": 7731,
      "ftw": 7732,
      "fairs": 7733,
      "hits": 7734,
      "rush": 7735,
      "shock": 7736,
      "corner": 7737,
      "specul": 7738,
      "1955": 7739,
      "resemb": 7740,
      "incand": 7741,
      "laboratory": 7742,
      "vertical": 7743,
      "Manning": 7744,
      "Tam": 7745,
      "rus": 7746,
      "rebels": 7747,
      "1922": 7748,
      "stron": 7749,
      "appeal": 7750,
      "morph": 7751,
      "prevented": 7752,
      "promised": 7753,
      "Industrial": 7754,
      "inhabited": 7755,
      "Cle": 7756,
      "Vis": 7757,
      "vul": 7758,
      "ima": 7759,
      "aucas": 7760,
      "Arbor": 7761,
      "productive": 7762,
      "Energy": 7763,
      "1946": 7764,
      "Exam": 7765,
      "drum": 7766,
      "stopped": 7767,
      "asthma": 7768,
      "Bad": 7769,
      "tack": 7770,
      "enthus": 7771,
      "orous": 7772,
      "impossible": 7773,
      "neuro": 7774,
      "apter": 7775,
      "notion": 7776,
      "Calvin": 7777,
      "Gos": 7778,
      "Garden": 7779,
      "boat": 7780,
      "interface": 7781,
      "archy": 7782,
      "currency": 7783,
      "professor": 7784,
      "synthes": 7785,
      "emergence": 7786,
      "Hotel": 7787,
      "absorbed": 7788,
      "chairman": 7789,
      "Der": 7790,
      "Pet": 7791,
      "fur": 7792,
      "gone": 7793,
      "whel": 7794,
      "icult": 7795,
      "chose": 7796,
      "broadcasts": 7797,
      "conservation": 7798,
      "slowly": 7799,
      "incandescent": 7800,
      "Edison": 7801,
      "Night": 7802,
      "mart": 7803,
      "theor": 7804,
      "isition": 7805,
      "improvements": 7806,
      "ophores": 7807,
      "()": 7808,
      "Sin": 7809,
      "rep": 7810,
      "geomet": 7811,
      "evacu": 7812,
      "intercept": 7813,
      "electrons": 7814,
      "opportunities": 7815,
      "adapted": 7816,
      "Medicine": 7817,
      "Liverpool": 7818,
      "tall": 7819,
      "discover": 7820,
      "guest": 7821,
      "desire": 7822,
      "noise": 7823,
      "Heart": 7824,
      "organisation": 7825,
      "backed": 7826,
      "tribe": 7827,
      "rocks": 7828,
      "conception": 7829,
      "decrease": 7830,
      "Sk": 7831,
      "consequence": 7832,
      "portray": 7833,
      "1931": 7834,
      "Medieval": 7835,
      "Armenians": 7836,
      "Mugh": 7837,
      "Digital": 7838,
      "Members": 7839,
      "pronunciation": 7840,
      "Set": 7841,
      "bun": 7842,
      "furn": 7843,
      "estate": 7844,
      "boards": 7845,
      "legally": 7846,
      "Engine": 7847,
      "adequ": 7848,
      "prisoners": 7849,
      "disputed": 7850,
      "sacrifice": 7851,
      "AI": 7852,
      "Turn": 7853,
      "ceded": 7854,
      "pregn": 7855,
      "angle": 7856,
      "viewers": 7857,
      "loyal": 7858,
      "corporate": 7859,
      "brothers": 7860,
      "FIFA": 7861,
      "LaserDisc": 7862,
      "entering": 7863,
      "dual": 7864,
      "proteins": 7865,
      "adopt": 7866,
      "MPEG": 7867,
      "Franklin": 7868,
      "Historic": 7869,
      "Broadway": 7870,
      "liance": 7871,
      "actors": 7872,
      "phosph": 7873,
      "assim": 7874,
      "save": 7875,
      "opera": 7876,
      "empires": 7877,
      "appointment": 7878,
      "Jacksonville": 7879,
      "gymnast": 7880,
      "Tajikistan": 7881,
      "Capt": 7882,
      "Yang": 7883,
      "supre": 7884,
      "abil": 7885,
      "1930": 7886,
      "capabilities": 7887,
      "description": 7888,
      "biograph": 7889,
      "sugar": 7890,
      "commerce": 7891,
      "Schol": 7892,
      "maintaining": 7893,
      "Throughout": 7894,
      "Av": 7895,
      "Vo": 7896,
      "Writ": 7897,
      "task": 7898,
      "republican": 7899,
      "nest": 7900,
      "lian": 7901,
      "Those": 7902,
      "Colon": 7903,
      "emergency": 7904,
      "Lutheran": 7905,
      "weekly": 7906,
      "Grammy": 7907,
      "olics": 7908,
      "ista": 7909,
      "spons": 7910,
      "Death": 7911,
      "funeral": 7912,
      "Others": 7913,
      "Crime": 7914,
      "Ep": 7915,
      "GE": 7916,
      "select": 7917,
      "beings": 7918,
      "margin": 7919,
      "signs": 7920,
      "140": 7921,
      "Luftw": 7922,
      "Congo": 7923,
      "salt": 7924,
      "Andrew": 7925,
      "perfect": 7926,
      "Luftwaffe": 7927,
      "67": 7928,
      "tran": 7929,
      "spaces": 7930,
      "complement": 7931,
      "technological": 7932,
      "Canal": 7933,
      "justice": 7934,
      "encoding": 7935,
      "capacitor": 7936,
      "customs": 7937,
      "Lady": 7938,
      "Ath": 7939,
      "Show": 7940,
      "option": 7941,
      "overwhel": 7942,
      "ogens": 7943,
      "manufactured": 7944,
      "eyes": 7945,
      "Solar": 7946,
      "Mahayana": 7947,
      "Rajas": 7948,
      "departments": 7949,
      "Oxford": 7950,
      "refugees": 7951,
      "ahead": 7952,
      "hill": 7953,
      "tech": 7954,
      "rive": 7955,
      "portions": 7956,
      "Leban": 7957,
      "Forbes": 7958,
      "crimes": 7959,
      "Phys": 7960,
      "accident": 7961,
      "easy": 7962,
      "Antarctic": 7963,
      "infringement": 7964,
      "83": 7965,
      "94": 7966,
      "cavalry": 7967,
      "tas": 7968,
      "ye": 7969,
      "obser": 7970,
      "generate": 7971,
      "NASA": 7972,
      "Week": 7973,
      "hunters": 7974,
      "Bulgar": 7975,
      "entitled": 7976,
      "Ara": 7977,
      "Kill": 7978,
      "sulf": 7979,
      "thood": 7980,
      "lords": 7981,
      "territorial": 7982,
      "Catholics": 7983,
      "Turks": 7984,
      "eliminated": 7985,
      "protocol": 7986,
      "prompted": 7987,
      "93": 7988,
      "stars": 7989,
      "sees": 7990,
      "deliber": 7991,
      "exual": 7992,
      "uble": 7993,
      "aux": 7994,
      "eleven": 7995,
      "architects": 7996,
      "borne": 7997,
      "Interstate": 7998,
      "bombs": 7999,
      "expanding": 8000,
      "collapsed": 8001,
      "corresponding": 8002,
      "NT": 8003,
      "Pass": 8004,
      "iers": 8005,
      "pective": 8006,
      "perors": 8007,
      "agan": 8008,
      "feud": 8009,
      "firms": 8010,
      "Arabs": 8011,
      "planes": 8012,
      "ethnicity": 8013,
      "protesters": 8014,
      "discussion": 8015,
      "annexed": 8016,
      "Continental": 8017,
      "Rajasthan": 8018,
      "Abu": 8019,
      "Cir": 8020,
      "fat": 8021,
      "escape": 8022,
      "owed": 8023,
      "ints": 8024,
      "ifest": 8025,
      "nationalism": 8026,
      "returning": 8027,
      "physi": 8028,
      "frequencies": 8029,
      "dominance": 8030,
      "painting": 8031,
      "replacement": 8032,
      "involvement": 8033,
      "competitive": 8034,
      "Move": 8035,
      "RNA": 8036,
      "iro": 8037,
      "sters": 8038,
      "oster": 8039,
      "stronger": 8040,
      "provincial": 8041,
      "chronic": 8042,
      "Belgium": 8043,
      "VIII": 8044,
      "permitted": 8045,
      "osaur": 8046,
      "ighters": 8047,
      "earning": 8048,
      "landed": 8049,
      "fert": 8050,
      "End": 8051,
      "cappella": 8052,
      "linear": 8053,
      "collected": 8054,
      "facto": 8055,
      "sentence": 8056,
      "functional": 8057,
      "suspended": 8058,
      "predominantly": 8059,
      "Administration": 8060,
      "Has": 8061,
      "Sab": 8062,
      "error": 8063,
      "stors": 8064,
      "convert": 8065,
      "labe": 8066,
      "Produ": 8067,
      "facing": 8068,
      "civilization": 8069,
      "strip": 8070,
      "truth": 8071,
      "Legisl": 8072,
      "Winds": 8073,
      "Flo": 8074,
      "mol": 8075,
      "mese": 8076,
      "yo": 8077,
      "iture": 8078,
      "urated": 8079,
      "ario": 8080,
      "Burmese": 8081,
      "pathogen": 8082,
      "episodes": 8083,
      "dangerous": 8084,
      "Ukraine": 8085,
      "membrane": 8086,
      "Little": 8087,
      "garden": 8088,
      "irts": 8089,
      "abund": 8090,
      "intention": 8091,
      "transist": 8092,
      "Author": 8093,
      "Marath": 8094,
      "Adam": 8095,
      "cardinal": 8096,
      "Metropolitan": 8097,
      "Roger": 8098,
      "GM": 8099,
      "Von": 8100,
      "looking": 8101,
      "prince": 8102,
      "objective": 8103,
      "citing": 8104,
      "southwest": 8105,
      "Guard": 8106,
      "mechanisms": 8107,
      "chemicals": 8108,
      "cluding": 8109,
      "exhibition": 8110,
      "Opera": 8111,
      "remote": 8112,
      "Huguenots": 8113,
      "Sicily": 8114,
      "Hud": 8115,
      "Ice": 8116,
      "Naz": 8117,
      "flex": 8118,
      "antenn": 8119,
      "perspective": 8120,
      "missile": 8121,
      "maintains": 8122,
      "drives": 8123,
      "message": 8124,
      "subsidiary": 8125,
      "Kennedy": 8126,
      "81": 8127,
      "Fried": 8128,
      "Pier": 8129,
      "cow": 8130,
      "codes": 8131,
      "1919": 8132,
      "ultimate": 8133,
      "ancestor": 8134,
      "ukary": 8135,
      "fishing": 8136,
      "eye": 8137,
      "turb": 8138,
      "enjoyed": 8139,
      "punishment": 8140,
      "Vat": 8141,
      "recru": 8142,
      "alter": 8143,
      "dip": 8144,
      "guide": 8145,
      "aka": 8146,
      "Color": 8147,
      "1934": 8148,
      "temporarily": 8149,
      "concerts": 8150,
      "possession": 8151,
      "Ban": 8152,
      "Train": 8153,
      "enacted": 8154,
      "ching": 8155,
      "aga": 8156,
      "downs": 8157,
      "rocket": 8158,
      "blocks": 8159,
      "qualified": 8160,
      "CEO": 8161,
      "psychology": 8162,
      "Huguenot": 8163,
      "Pius": 8164,
      "mble": 8165,
      "aders": 8166,
      "comprising": 8167,
      "boom": 8168,
      "tribal": 8169,
      "1959": 8170,
      "voters": 8171,
      "specialized": 8172,
      "graduates": 8173,
      "quartered": 8174,
      "Upper": 8175,
      "Know": 8176,
      "Upon": 8177,
      "bid": 8178,
      "fiber": 8179,
      "itan": 8180,
      "tels": 8181,
      "mines": 8182,
      "trap": 8183,
      "showing": 8184,
      "brevi": 8185,
      "occasions": 8186,
      "extinct": 8187,
      "Hungarian": 8188,
      "artificial": 8189,
      "negotiations": 8190,
      "Ukrainian": 8191,
      "Ky": 8192,
      "Tel": 8193,
      "cen": 8194,
      "rebellion": 8195,
      "ener": 8196,
      "unknown": 8197,
      "ott": 8198,
      "partnership": 8199,
      "someone": 8200,
      "spar": 8201,
      "transformed": 8202,
      "devoted": 8203,
      "potentially": 8204,
      "Cret": 8205,
      "DJ": 8206,
      "chip": 8207,
      "unified": 8208,
      "ulating": 8209,
      "aints": 8210,
      "See": 8211,
      "releases": 8212,
      "nutri": 8213,
      "nominated": 8214,
      "briefly": 8215,
      "infectious": 8216,
      "Ah": 8217,
      "oes": 8218,
      "ancing": 8219,
      "lest": 8220,
      "attain": 8221,
      "coln": 8222,
      "finance": 8223,
      "trains": 8224,
      "subcontinent": 8225,
      "filed": 8226,
      "1861": 8227,
      "integration": 8228,
      "Karl": 8229,
      "renewable": 8230,
      "phenomenon": 8231,
      "Lincoln": 8232,
      "Nicholas": 8233,
      "Examples": 8234,
      "lax": 8235,
      "shor": 8236,
      "inton": 8237,
      "displays": 8238,
      "Armed": 8239,
      "casting": 8240,
      "awa": 8241,
      "Cape": 8242,
      "publishing": 8243,
      "delayed": 8244,
      "deemed": 8245,
      "Sound": 8246,
      "raising": 8247,
      "exile": 8248,
      "accom": 8249,
      "accor": 8250,
      "daylight": 8251,
      "Warner": 8252,
      "factories": 8253,
      "pathogens": 8254,
      "boundary": 8255,
      "geographic": 8256,
      "walk": 8257,
      "aired": 8258,
      "bits": 8259,
      "tourn": 8260,
      "rolled": 8261,
      "provisions": 8262,
      "anything": 8263,
      "identification": 8264,
      "Serbian": 8265,
      "interested": 8266,
      "Operation": 8267,
      "suitable": 8268,
      "basketball": 8269,
      "Windsor": 8270,
      "LP": 8271,
      "Pap": 8272,
      "Tul": 8273,
      "ecolog": 8274,
      "isations": 8275,
      "decide": 8276,
      "abbrevi": 8277,
      "ancestors": 8278,
      "Dean": 8279,
      "Auto": 8280,
      "mounted": 8281,
      "Brah": 8282,
      "Mountain": 8283,
      "attendance": 8284,
      "findings": 8285,
      "nutrition": 8286,
      "Fall": 8287,
      "MTV": 8288,
      "Son": 8289,
      "Wild": 8290,
      "grain": 8291,
      "leans": 8292,
      "uten": 8293,
      "monitor": 8294,
      "transit": 8295,
      "lesser": 8296,
      "Princi": 8297,
      "administr": 8298,
      "mechanics": 8299,
      "logical": 8300,
      "symbols": 8301,
      "cabinet": 8302,
      "Bann": 8303,
      "Ram": 8304,
      "entrance": 8305,
      "fined": 8306,
      "villages": 8307,
      "Baby": 8308,
      "detect": 8309,
      "Ethiop": 8310,
      "Dog": 8311,
      "theat": 8312,
      "raise": 8313,
      "vinyl": 8314,
      "Madrid": 8315,
      "avoided": 8316,
      "friendly": 8317,
      "Trust": 8318,
      "Director": 8319,
      "simultaneously": 8320,
      "Dem": 8321,
      "bass": 8322,
      "arrhe": 8323,
      "cel": 8324,
      "scope": 8325,
      "Beat": 8326,
      "argument": 8327,
      "foods": 8328,
      "absence": 8329,
      "initiative": 8330,
      "fossil": 8331,
      "Journal": 8332,
      "Agency": 8333,
      "Ill": 8334,
      "reject": 8335,
      "comprises": 8336,
      "pressing": 8337,
      "iblical": 8338,
      "Affairs": 8339,
      "availability": 8340,
      "Ottomans": 8341,
      "Bernard": 8342,
      "pesticides": 8343,
      "Caucas": 8344,
      "OR": 8345,
      "oque": 8346,
      "sn": 8347,
      "witness": 8348,
      "sectors": 8349,
      "imped": 8350,
      "followers": 8351,
      "Soviets": 8352,
      "neighbouring": 8353,
      "Territory": 8354,
      "Hudson": 8355,
      "Ag": 8356,
      "Hok": 8357,
      "bat": 8358,
      "lung": 8359,
      "lunar": 8360,
      "propag": 8361,
      "plates": 8362,
      "guay": 8363,
      "receiver": 8364,
      "everyday": 8365,
      "acceptance": 8366,
      "Federation": 8367,
      "Heritage": 8368,
      "migrated": 8369,
      "Moreover": 8370,
      "crop": 8371,
      "vy": 8372,
      "ilia": 8373,
      "reless": 8374,
      "kness": 8375,
      "orthod": 8376,
      "infections": 8377,
      "vocabulary": 8378,
      "Gallery": 8379,
      "Now": 8380,
      "bis": 8381,
      "bills": 8382,
      "vac": 8383,
      "Independent": 8384,
      "1913": 8385,
      "grav": 8386,
      "instrumental": 8387,
      "visiting": 8388,
      "donated": 8389,
      "pollution": 8390,
      "lux": 8391,
      "Eu": 8392,
      "Kel": 8393,
      "Ra": 8394,
      "ceased": 8395,
      "resign": 8396,
      "assault": 8397,
      "generations": 8398,
      "authorized": 8399,
      "rows": 8400,
      "painted": 8401,
      "exceptions": 8402,
      "nineteenth": 8403,
      "Defense": 8404,
      "papers": 8405,
      "merchants": 8406,
      "alphabet": 8407,
      "Sher": 8408,
      "recovery": 8409,
      "icing": 8410,
      "raid": 8411,
      "rib": 8412,
      "outbreak": 8413,
      "ologically": 8414,
      "brow": 8415,
      "trip": 8416,
      "devast": 8417,
      "infantry": 8418,
      "Patri": 8419,
      "kinds": 8420,
      "LA": 8421,
      "Mir": 8422,
      "Num": 8423,
      "iy": 8424,
      "icism": 8425,
      "segments": 8426,
      "primes": 8427,
      "aching": 8428,
      "aceous": 8429,
      "extending": 8430,
      "Marg": 8431,
      "cognitive": 8432,
      "Appro": 8433,
      "promise": 8434,
      "Cambridge": 8435,
      "Uruguay": 8436,
      "Lama": 8437,
      "Tre": 8438,
      "tomb": 8439,
      "omination": 8440,
      "termed": 8441,
      "lah": 8442,
      "retreat": 8443,
      "Boy": 8444,
      "defensive": 8445,
      "voy": 8446,
      "volunte": 8447,
      "qualities": 8448,
      "millions": 8449,
      "advertising": 8450,
      "legitimate": 8451,
      "Vatican": 8452,
      "Hon": 8453,
      "Iber": 8454,
      "Si": 8455,
      "iod": 8456,
      "stall": 8457,
      "porter": 8458,
      "Orleans": 8459,
      "confront": 8460,
      "zero": 8461,
      "debuted": 8462,
      "alumni": 8463,
      "Dom": 8464,
      "bureau": 8465,
      "cens": 8466,
      "wet": 8467,
      "inspir": 8468,
      "helic": 8469,
      "abroad": 8470,
      "contribute": 8471,
      "monks": 8472,
      "headquartered": 8473,
      "childhood": 8474,
      "1876": 8475,
      "concerning": 8476,
      "bulb": 8477,
      "Bucking": 8478,
      "sculpture": 8479,
      "Athens": 8480,
      "Sudan": 8481,
      "Buckingham": 8482,
      "Base": 8483,
      "Pom": 8484,
      "SF": 8485,
      "partner": 8486,
      "disaster": 8487,
      "cancell": 8488,
      "uez": 8489,
      "desk": 8490,
      "scr": 8491,
      "Begin": 8492,
      "holder": 8493,
      "Moon": 8494,
      "participation": 8495,
      "celebration": 8496,
      "dictator": 8497,
      "forests": 8498,
      "optim": 8499,
      "Market": 8500,
      "galleries": 8501,
      "theoretical": 8502,
      "crossing": 8503,
      "vertebrates": 8504,
      "Cob": 8505,
      "Freed": 8506,
      "Hom": 8507,
      "Jac": 8508,
      "fired": 8509,
      "inated": 8510,
      "implic": 8511,
      "diarrhe": 8512,
      "umed": 8513,
      "airports": 8514,
      "publications": 8515,
      "fluid": 8516,
      "completion": 8517,
      "Queens": 8518,
      "Harbor": 8519,
      "reliable": 8520,
      "congregations": 8521,
      "Pictures": 8522,
      "Mig": 8523,
      "cav": 8524,
      "fold": 8525,
      "kg": 8526,
      "mu": 8527,
      "nis": 8528,
      "convin": 8529,
      "agh": 8530,
      "producers": 8531,
      "organised": 8532,
      "Indians": 8533,
      "cellular": 8534,
      "ESPN": 8535,
      "pronounced": 8536,
      "atmospher": 8537,
      "promoting": 8538,
      "Samoa": 8539,
      "gage": 8540,
      "hospit": 8541,
      "tended": 8542,
      "hear": 8543,
      "amph": 8544,
      "avia": 8545,
      "coin": 8546,
      "license": 8547,
      "gathered": 8548,
      "referring": 8549,
      "studying": 8550,
      "falling": 8551,
      "closure": 8552,
      "demands": 8553,
      "Libyan": 8554,
      "Saxony": 8555,
      "Gir": 8556,
      "itance": 8557,
      "heating": 8558,
      "1830": 8559,
      "Howard": 8560,
      "Prim": 8561,
      "acceptable": 8562,
      "1909": 8563,
      "difficulties": 8564,
      "golden": 8565,
      "Brooklyn": 8566,
      "aqu": 8567,
      "blow": 8568,
      "cill": 8569,
      "nie": 8570,
      "praised": 8571,
      "volumes": 8572,
      "Wilson": 8573,
      "Serv": 8574,
      "minorities": 8575,
      "automat": 8576,
      "implementation": 8577,
      "adolescence": 8578,
      "stayed": 8579,
      "Destiny": 8580,
      "Hitler": 8581,
      "Bang": 8582,
      "Lam": 8583,
      "VA": 8584,
      "eukary": 8585,
      "othe": 8586,
      "stom": 8587,
      "uncertain": 8588,
      "idge": 8589,
      "ules": 8590,
      "opo": 8591,
      "dielectric": 8592,
      "marry": 8593,
      "requiring": 8594,
      "scop": 8595,
      "patient": 8596,
      "denomination": 8597,
      "specified": 8598,
      "Forest": 8599,
      "alloys": 8600,
      "militia": 8601,
      "Current": 8602,
      "Abdul": 8603,
      "110": 8604,
      "Event": 8605,
      "FC": 8606,
      "raids": 8607,
      "Whit": 8608,
      "dial": 8609,
      "internationally": 8610,
      "remainder": 8611,
      "biology": 8612,
      "Max": 8613,
      "decorated": 8614,
      "linguistic": 8615,
      "prayer": 8616,
      "curriculum": 8617,
      "acknowledged": 8618,
      "Movement": 8619,
      "Gates": 8620,
      "SC": 8621,
      "Watch": 8622,
      "iew": 8623,
      "Control": 8624,
      "communist": 8625,
      "marketing": 8626,
      "declining": 8627,
      "regardless": 8628,
      "logic": 8629,
      "fairly": 8630,
      "pushed": 8631,
      "Bras": 8632,
      "tends": 8633,
      "ermo": 8634,
      "root": 8635,
      "veter": 8636,
      "reson": 8637,
      "dissolved": 8638,
      "carries": 8639,
      "hymn": 8640,
      "basin": 8641,
      "literacy": 8642,
      "Madison": 8643,
      "1871": 8644,
      "removal": 8645,
      "Years": 8646,
      "Aqu": 8647,
      "Na": 8648,
      "bars": 8649,
      "fre": 8650,
      "ua": 8651,
      "really": 8652,
      "reactions": 8653,
      "constitute": 8654,
      "precise": 8655,
      "traced": 8656,
      "Commer": 8657,
      "seeking": 8658,
      "similarly": 8659,
      "consumers": 8660,
      "wildlife": 8661,
      "Dynasty": 8662,
      "Article": 8663,
      "Kir": 8664,
      "Kaz": 8665,
      "theolog": 8666,
      "deck": 8667,
      "traits": 8668,
      "underground": 8669,
      "productions": 8670,
      "grid": 8671,
      "Marx": 8672,
      "equally": 8673,
      "scientist": 8674,
      "Sym": 8675,
      "Davis": 8676,
      "delivered": 8677,
      "elaborate": 8678,
      "Communications": 8679,
      "Band": 8680,
      "Hus": 8681,
      "Scient": 8682,
      "Tha": 8683,
      "Winter": 8684,
      "gel": 8685,
      "iah": 8686,
      "commut": 8687,
      "governance": 8688,
      "nationalist": 8689,
      "traveled": 8690,
      "bulk": 8691,
      "crude": 8692,
      "cruci": 8693,
      "steps": 8694,
      "Satur": 8695,
      "Gam": 8696,
      "bond": 8697,
      "gran": 8698,
      "rescue": 8699,
      "elder": 8700,
      "owns": 8701,
      "aked": 8702,
      "legend": 8703,
      "ieth": 8704,
      "Denmark": 8705,
      "Glad": 8706,
      "Mol": 8707,
      "Vice": 8708,
      "wrong": 8709,
      "ila": 8710,
      "secre": 8711,
      "det": 8712,
      "rac": 8713,
      "clust": 8714,
      "ameter": 8715,
      "asonic": 8716,
      "traders": 8717,
      "conceptual": 8718,
      "chemistry": 8719,
      "heterosexual": 8720,
      "Spirit": 8721,
      "Beginning": 8722,
      "amics": 8723,
      "terminal": 8724,
      "Saturn": 8725,
      "constituted": 8726,
      "urricane": 8727,
      "coronation": 8728,
      "Bishop": 8729,
      "Jur": 8730,
      "Ran": 8731,
      "catal": 8732,
      "dic": 8733,
      "stical": 8734,
      "provision": 8735,
      "mini": 8736,
      "newer": 8737,
      "mild": 8738,
      "patri": 8739,
      "advances": 8740,
      "defining": 8741,
      "accounted": 8742,
      "transported": 8743,
      "libraries": 8744,
      "Chair": 8745,
      "bronze": 8746,
      "Apost": 8747,
      "Lim": 8748,
      "bai": 8749,
      "cort": 8750,
      "fighters": 8751,
      "rand": 8752,
      "infer": 8753,
      "iler": 8754,
      "ett": 8755,
      "worms": 8756,
      "prising": 8757,
      "intervention": 8758,
      "Ang": 8759,
      "epide": 8760,
      "weapon": 8761,
      "drama": 8762,
      "wrestler": 8763,
      "divor": 8764,
      "Macedonian": 8765,
      "false": 8766,
      "Indonesia": 8767,
      "m2": 8768,
      "scar": 8769,
      "hearing": 8770,
      "imprison": 8771,
      "prose": 8772,
      "shal": 8773,
      "osevel": 8774,
      "Roosevel": 8775,
      "handle": 8776,
      "rupted": 8777,
      "expelled": 8778,
      "descended": 8779,
      "inherited": 8780,
      "Ohio": 8781,
      "Cretaceous": 8782,
      "Crit": 8783,
      "bol": 8784,
      "gau": 8785,
      "jamin": 8786,
      "rant": 8787,
      "chor": 8788,
      "forth": 8789,
      "withdrew": 8790,
      "shops": 8791,
      "iva": 8792,
      "transmitted": 8793,
      "Benjamin": 8794,
      "aparte": 8795,
      "Azer": 8796,
      "IP": 8797,
      "IPC": 8798,
      "ustr": 8799,
      "enance": 8800,
      "itime": 8801,
      "manifest": 8802,
      "agar": 8803,
      "notice": 8804,
      "inema": 8805,
      "Anatol": 8806,
      "warri": 8807,
      "solve": 8808,
      "holid": 8809,
      "environments": 8810,
      "shifted": 8811,
      "Crus": 8812,
      "immunity": 8813,
      "duration": 8814,
      "sop": 8815,
      "uf": 8816,
      "leys": 8817,
      "Dec": 8818,
      "statistical": 8819,
      "manufacture": 8820,
      "Valencian": 8821,
      "demol": 8822,
      "innovation": 8823,
      "antennas": 8824,
      "AM": 8825,
      "mies": 8826,
      "rics": 8827,
      "tub": 8828,
      "iments": 8829,
      "conson": 8830,
      "supplement": 8831,
      "Decl": 8832,
      "farming": 8833,
      "Web": 8834,
      "Galile": 8835,
      "Studios": 8836,
      "seemed": 8837,
      "criteria": 8838,
      "abstract": 8839,
      "Kings": 8840,
      "qui": 8841,
      "compact": 8842,
      "plural": 8843,
      "themes": 8844,
      "acteria": 8845,
      "practiced": 8846,
      "emerging": 8847,
      "versely": 8848,
      "indicates": 8849,
      "pharmaceutical": 8850,
      "boroughs": 8851,
      "collaboration": 8852,
      "prevalent": 8853,
      "84": 8854,
      "Liter": 8855,
      "Pont": 8856,
      "dor": 8857,
      "gay": 8858,
      "inces": 8859,
      "enroll": 8860,
      "vern": 8861,
      "1848": 8862,
      "finals": 8863,
      "Anth": 8864,
      "Marine": 8865,
      "everything": 8866,
      "ethn": 8867,
      "housed": 8868,
      "Simon": 8869,
      "recommend": 8870,
      "framework": 8871,
      "stimul": 8872,
      "Dub": 8873,
      "Saf": 8874,
      "tone": 8875,
      "petro": 8876,
      "apore": 8877,
      "outs": 8878,
      "partial": 8879,
      "afford": 8880,
      "governmental": 8881,
      "banking": 8882,
      "destination": 8883,
      "closing": 8884,
      "exploration": 8885,
      "ISO": 8886,
      "attraction": 8887,
      "symmet": 8888,
      "autonomous": 8889,
      "Intellig": 8890,
      "explicitly": 8891,
      "Roosevelt": 8892,
      "Famic": 8893,
      "bub": 8894,
      "onwards": 8895,
      "inghouse": 8896,
      "roof": 8897,
      "estimate": 8898,
      "eva": 8899,
      "interaction": 8900,
      "periph": 8901,
      "helping": 8902,
      "download": 8903,
      "significance": 8904,
      "associations": 8905,
      "accessible": 8906,
      "swim": 8907,
      "happen": 8908,
      "feeding": 8909,
      "optical": 8910,
      "observation": 8911,
      "electromagnetic": 8912,
      "depicted": 8913,
      "granting": 8914,
      "municipalities": 8915,
      "explanation": 8916,
      "350": 8917,
      "IN": 8918,
      "kh": 8919,
      "1925": 8920,
      "desir": 8921,
      "desired": 8922,
      "infected": 8923,
      "solely": 8924,
      "kilome": 8925,
      "federation": 8926,
      "Manchu": 8927,
      "insurance": 8928,
      "dispute": 8929,
      "ctenophores": 8930,
      "Captain": 8931,
      "Services": 8932,
      "coding": 8933,
      "hired": 8934,
      "remark": 8935,
      "remember": 8936,
      "adic": 8937,
      "sures": 8938,
      "agers": 8939,
      "formats": 8940,
      "marking": 8941,
      "erald": 8942,
      "Environ": 8943,
      "struck": 8944,
      "legiate": 8945,
      "namely": 8946,
      "Johann": 8947,
      "venture": 8948,
      "1907": 8949,
      "engineer": 8950,
      "1855": 8951,
      "lifetime": 8952,
      "renewed": 8953,
      "gross": 8954,
      "vulner": 8955,
      "Famicom": 8956,
      "coun": 8957,
      "hin": 8958,
      "hang": 8959,
      "stability": 8960,
      "array": 8961,
      "seized": 8962,
      "comed": 8963,
      "alloc": 8964,
      "persecution": 8965,
      "itional": 8966,
      "cathedral": 8967,
      "Indies": 8968,
      "Romance": 8969,
      "definitions": 8970,
      "Chapel": 8971,
      "eighth": 8972,
      "Starting": 8973,
      "atmospheric": 8974,
      "Azerbai": 8975,
      "TF": 8976,
      "lists": 8977,
      "wich": 8978,
      "orian": 8979,
      "stere": 8980,
      "charts": 8981,
      "sects": 8982,
      "abbey": 8983,
      "underlying": 8984,
      "crush": 8985,
      "Short": 8986,
      "composers": 8987,
      "Small": 8988,
      "CIA": 8989,
      "Lew": 8990,
      "iates": 8991,
      "navy": 8992,
      "sz": 8993,
      "inser": 8994,
      "colour": 8995,
      "spend": 8996,
      "Reformed": 8997,
      "Westinghouse": 8998,
      "collectively": 8999,
      "winds": 9000,
      "commercially": 9001,
      "commanded": 9002,
      "kyB": 9003,
      "BSkyB": 9004,
      "minimal": 9005,
      "Singapore": 9006,
      "pupils": 9007,
      "obligations": 9008,
      "benefic": 9009,
      "Brun": 9010,
      "Hills": 9011,
      "Syn": 9012,
      "rust": 9013,
      "tensions": 9014,
      "reviews": 9015,
      "enzy": 9016,
      "admitted": 9017,
      "sud": 9018,
      "vibr": 9019,
      "variants": 9020,
      "1932": 9021,
      "Georgian": 9022,
      "Julian": 9023,
      "Antonio": 9024,
      "Thailand": 9025,
      "Lat": 9026,
      "Len": 9027,
      "eating": 9028,
      "static": 9029,
      "irs": 9030,
      "1927": 9031,
      "emperors": 9032,
      "plas": 9033,
      "interven": 9034,
      "grades": 9035,
      "horizon": 9036,
      "Finan": 9037,
      "championship": 9038,
      "priests": 9039,
      "Cities": 9040,
      "ipe": 9041,
      "recon": 9042,
      "rotor": 9043,
      "levard": 9044,
      "cher": 9045,
      "unification": 9046,
      "unemployment": 9047,
      "capability": 9048,
      "sterdam": 9049,
      "equipped": 9050,
      "Shah": 9051,
      "nobles": 9052,
      "injured": 9053,
      "Mississ": 9054,
      "Ko": 9055,
      "fab": 9056,
      "enable": 9057,
      "Palermo": 9058,
      "Amsterdam": 9059,
      "corporation": 9060,
      "femin": 9061,
      "participants": 9062,
      "hope": 9063,
      "supplied": 9064,
      "Children": 9065,
      "helicop": 9066,
      "(),": 9067,
      "Lie": 9068,
      "Wen": 9069,
      "tics": 9070,
      "asy": 9071,
      "resur": 9072,
      "exports": 9073,
      "assign": 9074,
      "flights": 9075,
      "parad": 9076,
      "adequate": 9077,
      "NH": 9078,
      "Prad": 9079,
      "sap": 9080,
      "scor": 9081,
      "escap": 9082,
      "conceived": 9083,
      "comic": 9084,
      "presidency": 9085,
      "justified": 9086,
      "dynamic": 9087,
      "assembled": 9088,
      "sudden": 9089,
      "Mississip": 9090,
      "Las": 9091,
      "Mult": 9092,
      "Ps": 9093,
      "Zel": 9094,
      "oon": 9095,
      "wages": 9096,
      "eds": 9097,
      "arbit": 9098,
      "ilst": 9099,
      "Norway": 9100,
      "1933": 9101,
      "responses": 9102,
      "demonstration": 9103,
      "check": 9104,
      "speeds": 9105,
      "reserved": 9106,
      "easier": 9107,
      "hypothesis": 9108,
      "Confu": 9109,
      "Jiang": 9110,
      "Spring": 9111,
      "caught": 9112,
      "gardens": 9113,
      "instruct": 9114,
      "revolt": 9115,
      "heard": 9116,
      "1929": 9117,
      "portra": 9118,
      "plastic": 9119,
      "lasting": 9120,
      "predator": 9121,
      "1870": 9122,
      "interpreted": 9123,
      "preserve": 9124,
      "Confederate": 9125,
      "fruit": 9126,
      "Dalai": 9127,
      "simplified": 9128,
      "condemned": 9129,
      "Tar": 9130,
      "Wes": 9131,
      "cali": 9132,
      "yer": 9133,
      "ystem": 9134,
      "ander": 9135,
      "icide": 9136,
      "rod": 9137,
      "prove": 9138,
      "cancer": 9139,
      "flame": 9140,
      "continuously": 9141,
      "anticip": 9142,
      "Cubism": 9143,
      "sensitive": 9144,
      "petition": 9145,
      "Matthew": 9146,
      "Intelligence": 9147,
      "Da": 9148,
      "aided": 9149,
      "fighter": 9150,
      "vital": 9151,
      "wake": 9152,
      "ili": 9153,
      "amond": 9154,
      "iga": 9155,
      "movies": 9156,
      "resort": 9157,
      "este": 9158,
      "boost": 9159,
      "obvious": 9160,
      "supports": 9161,
      "Century": 9162,
      "1854": 9163,
      "happens": 9164,
      "categor": 9165,
      "journey": 9166,
      "progressive": 9167,
      "circuits": 9168,
      "kien": 9169,
      "Sumerian": 9170,
      "desktop": 9171,
      "Freedom": 9172,
      "Rose": 9173,
      "Saudi": 9174,
      "Wo": 9175,
      "gos": 9176,
      "hes": 9177,
      "ois": 9178,
      "tension": 9179,
      "instein": 9180,
      "rebel": 9181,
      "omed": 9182,
      "depression": 9183,
      "uras": 9184,
      "persu": 9185,
      "ignored": 9186,
      "ideals": 9187,
      "victories": 9188,
      "tube": 9189,
      "antibiotic": 9190,
      "dimensions": 9191,
      "index": 9192,
      "Fu": 9193,
      "tab": 9194,
      "alumin": 9195,
      "aments": 9196,
      "emes": 9197,
      "Ther": 9198,
      "anni": 9199,
      "thereafter": 9200,
      "gae": 9201,
      "profound": 9202,
      "reaches": 9203,
      "affiliate": 9204,
      "schedule": 9205,
      "iracial": 9206,
      "jurisdict": 9207,
      "encountered": 9208,
      "Ax": 9209,
      "Biss": 9210,
      "Nord": 9211,
      "Sik": 9212,
      "alk": 9213,
      "illi": 9214,
      "aine": 9215,
      "intensity": 9216,
      "ifies": 9217,
      "ocene": 9218,
      "athlet": 9219,
      "starts": 9220,
      "Bohem": 9221,
      "hotel": 9222,
      "accounting": 9223,
      "Saturday": 9224,
      "CII": 9225,
      "Fa": 9226,
      "Id": 9227,
      "cod": 9228,
      "ician": 9229,
      "nell": 9230,
      "Intel": 9231,
      "quity": 9232,
      "endor": 9233,
      "Leader": 9234,
      "introduce": 9235,
      "Swaz": 9236,
      "regulated": 9237,
      "bankrupt": 9238,
      "burned": 9239,
      "XXIII": 9240,
      "Fri": 9241,
      "Ni": 9242,
      "ffe": 9243,
      "nan": 9244,
      "tum": 9245,
      "enor": 9246,
      "renowned": 9247,
      "foundations": 9248,
      "helps": 9249,
      "Maur": 9250,
      "properly": 9251,
      "attered": 9252,
      "wheel": 9253,
      "millennium": 9254,
      "Antio": 9255,
      "Bonaparte": 9256,
      "scored": 9257,
      "Eventually": 9258,
      "desirable": 9259,
      "Bob": 9260,
      "Cit": 9261,
      "Dun": 9262,
      "Scand": 9263,
      "las": 9264,
      "yang": 9265,
      "zes": 9266,
      "orship": 9267,
[...]
